<s>	0
</s>	0
<unk>	0
<pad>	0
▁the	-2.96369
,	-3.20987
.	-3.32192
▁of	-3.64863
▁to	-3.8081
s	-3.88184
▁and	-3.94945
▁in	-4.12108
▁a	-4.29505
▁is	-4.66836
'	-4.86717
▁that	-4.92401
▁for	-5.03995
▁	-5.05036
▁be	-5.10935
▁The	-5.13052
-	-5.17997
▁has	-5.3161
▁on	-5.32595
▁was	-5.33239
▁not	-5.37907
▁by	-5.44745
▁with	-5.49434
▁have	-5.50969
▁it	-5.56465
▁from	-5.60046
▁are	-5.60551
▁said	-5.62485
▁as	-5.63702
▁will	-5.73334
ing	-5.80497
▁"	-5.806
▁this	-5.83565
▁I	-5.84841
▁at	-5.85501
▁or	-5.86726
▁he	-5.90911
▁been	-5.92139
t	-5.93591
▁his	-6.05097
▁Nepal	-6.06142
:	-6.06287
▁who	-6.06321
▁also	-6.06424
ed	-6.10064
▁-	-6.14118
▁you	-6.18595
▁an	-6.2222
▁(	-6.22631
▁'	-6.32634
)	-6.34794
▁In	-6.37712
▁were	-6.37969
d	-6.42749
▁people	-6.43423
▁their	-6.44483
▁they	-6.46362
▁which	-6.49265
▁but	-6.50068
▁all	-6.50839
▁had	-6.51179
▁He	-6.53486
▁there	-6.53982
▁after	-6.54046
▁government	-6.55691
▁can	-6.55835
▁time	-6.58086
▁one	-6.58599
▁shall	-6.60114
▁other	-6.68425
▁It	-6.68697
▁A	-6.69928
▁about	-6.72056
▁more	-6.73163
▁should	-6.75616
▁such	-6.75872
▁we	-6.76066
?	-6.80773
▁only	-6.81346
▁no	-6.82777
▁s	-6.84556
▁any	-6.85939
▁its	-6.86328
▁if	-6.87465
▁’	-6.8806
▁two	-6.88288
ly	-6.89528
▁when	-6.90442
▁But	-6.90802
er	-6.90982
▁made	-6.91071
▁out	-6.91097
▁than	-6.95169
▁them	-6.95656
▁country	-6.97111
▁him	-6.97169
▁would	-6.9731
▁do	-6.9983
▁up	-6.99854
▁year	-7.00683
▁years	-7.02932
;	-7.03339
▁like	-7.04397
▁work	-7.06414
▁new	-7.07092
▁This	-7.08146
▁first	-7.10726
m	-7.10864
▁may	-7.11702
a	-7.11718
▁her	-7.11798
y	-7.11883
▁your	-7.12151
"	-7.12244
,"	-7.12267
▁so	-7.12337
e	-7.15235
▁some	-7.15738
▁my	-7.18647
▁over	-7.19347
▁Nepali	-7.19676
▁under	-7.21886
▁into	-7.21943
▁now	-7.24422
i	-7.26397
▁make	-7.27788
▁If	-7.2802
▁could	-7.28922
▁even	-7.29009
▁me	-7.31585
▁our	-7.33014
▁“	-7.35288
▁what	-7.3567
▁Minister	-7.35758
▁against	-7.36189
▁India	-7.37505
▁There	-7.3804
▁did	-7.38407
▁come	-7.39047
▁”	-7.3974
▁many	-7.40347
▁she	-7.40801
▁development	-7.40984
▁three	-7.41129
re	-7.41618
al	-7.43061
▁these	-7.44391
S	-7.44601
▁same	-7.44625
▁day	-7.4519
n	-7.45335
▁party	-7.45765
▁last	-7.46358
▁through	-7.46578
▁/	-7.47932
▁1	-7.48011
▁5	-7.49466
in	-7.49922
."	-7.50304
▁while	-7.50859
▁take	-7.5094
▁those	-7.51792
▁before	-7.52941
I	-7.53095
▁being	-7.53138
▁very	-7.53557
▁They	-7.54834
▁go	-7.55049
▁We	-7.55685
▁public	-7.57275
▁says	-7.57422
▁place	-7.58553
▁percent	-7.58581
▁between	-7.58609
es	-7.60609
▁because	-7.60729
▁name	-7.61354
▁According	-7.61759
▁person	-7.62004
▁land	-7.62881
▁political	-7.62882
th	-7.63223
▁state	-7.63474
▁To	-7.64933
▁way	-7.65015
▁where	-7.65106
▁world	-7.66067
▁district	-7.66507
▁due	-7.66901
▁local	-7.67969
▁million	-7.69356
▁Kathmandu	-7.69373
▁get	-7.69553
▁good	-7.70343
▁say	-7.7039
▁S	-7.70761
▁Act	-7.71684
▁For	-7.72558
▁during	-7.72743
▁used	-7.73019
▁including	-7.73394
▁house	-7.73442
▁After	-7.73578
▁well	-7.73596
▁And	-7.7532
r	-7.7579
▁number	-7.76164
▁meeting	-7.76375
▁However	-7.76627
▁found	-7.76631
▁area	-7.76955
▁police	-7.76983
▁water	-7.77129
▁how	-7.7826
▁does	-7.78274
▁started	-7.78389
▁within	-7.78509
▁came	-7.78857
▁most	-7.78947
▁case	-7.7931
▁children	-7.79953
▁Sub	-7.80116
▁women	-7.80142
▁days	-7.8072
▁life	-7.81201
k	-7.81448
▁power	-7.82127
▁then	-7.82256
o	-7.82392
▁re	-7.82397
▁long	-7.83002
▁called	-7.83088
▁3	-7.8344
▁program	-7.83763
▁system	-7.84542
▁without	-7.8481
▁use	-7.85796
▁market	-7.85963
▁Mr	-7.86044
▁given	-7.86525
▁So	-7.86756
▁taken	-7.87149
▁service	-7.8726
▁U	-7.87383
▁(1)	-7.87631
▁become	-7.88948
The	-7.89166
▁Rs	-7.89842
▁As	-7.90516
▁t	-7.91127
▁man	-7.91295
▁home	-7.92155
▁office	-7.92275
▁team	-7.92403
▁Prime	-7.9264
▁another	-7.92962
▁level	-7.93169
▁us	-7.93305
▁security	-7.93445
▁much	-7.93628
▁here	-7.93901
▁parties	-7.94029
▁four	-7.94098
ers	-7.94419
▁Committee	-7.94862
▁situation	-7.95168
▁company	-7.95365
▁right	-7.96065
▁different	-7.96553
▁back	-7.9682
▁want	-7.96821
▁both	-7.96889
▁You	-7.97229
▁God	-7.97584
▁down	-7.98007
▁know	-7.98015
▁pursuan	-7.98089
▁New	-7.98204
▁body	-7.98575
▁own	-7.98701
▁king	-7.98833
▁five	-7.99026
▁just	-7.99085
▁committee	-7.99194
▁see	-8.00137
an	-8.00442
▁need	-8.0065
▁information	-8.00689
b	-8.01057
▁give	-8.01358
▁On	-8.01497
/	-8.01847
▁national	-8.02134
▁At	-8.02246
▁money	-8.02508
▁per	-8.0254
g	-8.03234
▁period	-8.03316
▁China	-8.03353
▁Government	-8.0344
▁president	-8.03476
▁Congress	-8.03896
▁Indian	-8.04214
▁set	-8.04418
▁business	-8.04461
▁high	-8.04655
▁countries	-8.05014
▁since	-8.05324
man	-8.05721
▁constitution	-8.06671
▁health	-8.06852
▁various	-8.0711
▁every	-8.0759
▁hand	-8.07679
▁family	-8.08143
▁order	-8.08407
▁help	-8.08498
▁C	-8.08707
▁foreign	-8.08956
▁according	-8.0927
▁still	-8.09371
▁She	-8.09702
le	-8.09773
▁second	-8.10137
▁group	-8.10223
▁President	-8.1026
▁going	-8.10363
▁went	-8.10442
▁village	-8.10933
▁leaders	-8.11216
▁2	-8.11626
▁told	-8.11956
A	-8.12344
▁--	-8.12447
!	-8.12884
▁part	-8.12956
▁When	-8.135
▁saying	-8.13724
▁city	-8.138
▁Bahadur	-8.14078
▁around	-8.14416
▁left	-8.15054
▁son	-8.15107
▁done	-8.1545
▁Maoists	-8.15945
▁process	-8.15991
▁things	-8.1623
▁working	-8.16316
▁six	-8.16605
▁Yahweh	-8.16951
▁No	-8.17477
▁school	-8.17606
▁today	-8.17654
▁road	-8.17679
▁National	-8.17948
u	-8.18121
▁months	-8.18395
C	-8.18519
▁end	-8.18632
▁social	-8.18701
c	-8.18803
▁making	-8.19128
▁don	-8.19269
▁Office	-8.19317
▁again	-8.19357
▁support	-8.19725
▁held	-8.19755
▁report	-8.2045
▁Police	-8.20595
▁general	-8.20773
▁necessary	-8.20892
▁cannot	-8.21114
▁E	-8.21447
▁issue	-8.21891
▁game	-8.2191
▁United	-8.22081
▁current	-8.22266
▁economic	-8.22344
or	-8.22452
▁District	-8.22509
▁able	-8.22567
on	-8.22675
▁Nepalese	-8.23757
▁must	-8.23882
▁received	-8.23897
▁change	-8.23905
ve	-8.24165
▁decision	-8.24269
▁project	-8.24387
▁main	-8.24475
▁problem	-8.24543
l	-8.24644
▁men	-8.24677
▁means	-8.24989
▁past	-8.25071
▁law	-8.25123
▁sector	-8.25241
▁rights	-8.25358
▁ago	-8.25383
▁open	-8.25653
▁Development	-8.26029
p	-8.26097
▁construction	-8.26322
▁Council	-8.26501
▁Ministry	-8.26613
▁That	-8.26693
B	-8.26717
to	-8.26992
▁each	-8.271
▁amount	-8.27139
▁member	-8.27504
▁P	-8.27549
▁week	-8.27901
▁Lord	-8.27995
▁Bank	-8.28371
▁next	-8.28464
▁old	-8.28966
▁provide	-8.28983
▁19	-8.28991
▁international	-8.29002
▁far	-8.29002
▁Now	-8.2921
▁movement	-8.29339
▁took	-8.29364
▁among	-8.29486
ri	-8.295
We	-8.29634
▁policy	-8.30224
▁leader	-8.30502
ma	-8.30513
▁food	-8.3081
▁important	-8.31213
▁financial	-8.31225
▁think	-8.3138
▁K	-8.31627
▁B	-8.318
▁basis	-8.3185
▁action	-8.31865
▁following	-8.32105
▁seen	-8.3233
ta	-8.32606
▁T	-8.32616
▁former	-8.33072
▁few	-8.33442
▁increased	-8.3345
▁10	-8.33497
year	-8.33576
▁education	-8.33715
▁concerned	-8.33878
▁off	-8.34151
▁increase	-8.34228
▁What	-8.34443
▁plan	-8.34505
▁post	-8.35429
▁mother	-8.35926
▁court	-8.3636
▁small	-8.36551
▁great	-8.36683
▁All	-8.36881
▁Commission	-8.3698
▁US	-8.37364
▁put	-8.37565
▁capital	-8.3767
▁human	-8.37679
la	-8.3806
▁20	-8.3817
▁brought	-8.3825
▁officials	-8.38264
▁un	-8.38419
▁members	-8.38459
▁father	-8.38673
T	-8.38738
▁already	-8.38783
▁areas	-8.39018
▁Dr	-8.39651
▁D	-8.39708
na	-8.40081
▁G	-8.40089
▁His	-8.40207
▁society	-8.40408
▁reached	-8.4082
▁show	-8.41414
▁chief	-8.41828
▁bring	-8.41942
▁Then	-8.42099
▁present	-8.4231
▁file	-8.42361
▁lack	-8.42424
ar	-8.42466
▁election	-8.42481
▁possible	-8.42731
▁M	-8.42771
▁private	-8.43089
▁move	-8.43177
▁month	-8.43177
▁interest	-8.43414
▁de	-8.43661
▁7	-8.44104
▁away	-8.44245
▁special	-8.44448
▁services	-8.44709
▁head	-8.44849
),	-8.45131
▁students	-8.45776
▁am	-8.45811
▁bank	-8.4591
▁half	-8.46046
ch	-8.461
▁night	-8.4628
▁side	-8.46294
▁statement	-8.46942
▁F	-8.47337
▁control	-8.47405
▁lot	-8.47569
▁organization	-8.47608
com	-8.4777
▁Even	-8.47977
▁run	-8.48162
▁large	-8.48568
▁role	-8.48636
ra	-8.48743
▁considered	-8.48802
▁9	-8.48837
▁play	-8.49261
▁Ram	-8.49394
ic	-8.49438
el	-8.49662
▁Shrestha	-8.49778
▁living	-8.498
able	-8.49858
▁problems	-8.49885
▁until	-8.50251
▁Department	-8.50618
▁book	-8.51145
en	-8.51652
▁Section	-8.51847
▁Re	-8.52031
▁coming	-8.5209
ti	-8.522
▁democracy	-8.52767
▁workers	-8.53457
old	-8.53619
▁campaign	-8.53707
▁community	-8.5404
▁war	-8.54263
f	-8.5432
▁pay	-8.5432
▁World	-8.54374
▁media	-8.54393
▁young	-8.54517
▁third	-8.54564
▁One	-8.54606
▁though	-8.54746
▁language	-8.54751
▁investment	-8.54954
▁became	-8.54955
▁field	-8.55117
D	-8.55448
▁8	-8.5548
▁prescribed	-8.55591
▁taking	-8.55618
▁total	-8.55618
▁Chief	-8.55806
▁Oli	-8.55959
▁goods	-8.55983
▁visit	-8.56162
ity	-8.56295
▁added	-8.56295
▁film	-8.56487
▁billion	-8.56621
▁too	-8.56678
▁why	-8.56679
sh	-8.56759
ation	-8.56891
▁Israel	-8.57042
▁along	-8.57086
▁Some	-8.57145
▁General	-8.57203
▁Prasad	-8.57245
▁sent	-8.57359
il	-8.5742
▁agreement	-8.57438
▁Similarly	-8.57459
▁production	-8.57562
▁keep	-8.57592
▁N	-8.57626
▁big	-8.58209
▁15	-8.5829
▁major	-8.5838
▁study	-8.584
▁Board	-8.58773
▁clear	-8.58782
R	-8.58919
us	-8.58964
section	-8.58974
▁Therefore	-8.59023
▁An	-8.59029
▁Association	-8.59237
▁little	-8.5925
▁free	-8.59273
▁always	-8.59319
▁peace	-8.59464
▁Thapa	-8.59636
▁love	-8.5973
▁price	-8.59772
▁yet	-8.59838
▁never	-8.60145
▁killed	-8.60355
ness	-8.60401
▁future	-8.6058
▁provided	-8.6093
▁seems	-8.61051
▁UML	-8.612
▁R	-8.61752
▁live	-8.61933
▁top	-8.62004
▁news	-8.62048
▁O	-8.62141
▁least	-8.6246
▁whether	-8.62713
...	-8.62909
z	-8.63112
▁line	-8.63184
am	-8.63219
ance	-8.63259
▁available	-8.63382
▁start	-8.63456
▁fire	-8.63968
ive	-8.64147
▁later	-8.64206
▁won	-8.64311
▁best	-8.64403
▁look	-8.64421
F	-8.64741
▁etc	-8.64779
▁training	-8.64906
▁activities	-8.65054
ll	-8.65138
▁non	-8.65211
▁seven	-8.65536
▁central	-8.66312
▁Maoist	-8.66319
▁rate	-8.66359
▁find	-8.6657
▁nation	-8.66661
▁date	-8.66758
▁With	-8.66887
▁forward	-8.67133
▁While	-8.67254
▁Court	-8.67324
▁South	-8.67476
▁others	-8.67517
▁fact	-8.67539
▁tax	-8.67699
▁army	-8.67804
▁asked	-8.67933
▁view	-8.68069
▁face	-8.68088
▁industry	-8.68088
▁Secretary	-8.68328
h	-8.68676
▁Although	-8.68701
▁times	-8.68863
▁minister	-8.68941
▁death	-8.68974
li	-8.69377
▁list	-8.69516
▁less	-8.69594
▁4	-8.69728
▁return	-8.70019
▁trying	-8.70221
ion	-8.70253
it	-8.7065
▁written	-8.70685
▁difficult	-8.70759
▁established	-8.70775
▁point	-8.70824
N	-8.70992
▁died	-8.71268
▁trade	-8.71374
▁States	-8.71482
▁(2)	-8.71486
te	-8.7153
▁using	-8.71598
▁season	-8.71931
M	-8.71938
he	-8.721
▁involved	-8.72174
lo	-8.72333
▁form	-8.72383
▁known	-8.72467
▁issues	-8.72538
▁heart	-8.72713
).	-8.72851
▁management	-8.72871
▁full	-8.72893
▁Friday	-8.7304
▁matter	-8.73045
▁building	-8.73091
▁p	-8.73542
ro	-8.73596
▁places	-8.73658
▁soon	-8.73701
de	-8.73721
▁strong	-8.73767
ist	-8.73896
▁treatment	-8.73907
▁once	-8.73956
▁La	-8.7406
▁Monday	-8.74096
▁himself	-8.74138
▁budget	-8.7439
▁woman	-8.7442
di	-8.74778
▁People	-8.74792
▁age	-8.74961
▁together	-8.74963
ur	-8.7499
▁Do	-8.74995
▁center	-8.75045
▁leave	-8.75138
ment	-8.75153
▁understand	-8.7526
ak	-8.75355
ya	-8.75402
G	-8.75886
se	-8.76128
▁reason	-8.76179
up	-8.76451
▁leadership	-8.76505
▁military	-8.76514
P	-8.76549
▁anything	-8.76596
▁Wednesday	-8.77055
▁Sunday	-8.7731
▁Singh	-8.77387
▁6	-8.77444
▁Na	-8.77502
▁companies	-8.77743
▁related	-8.77777
▁history	-8.78209
ne	-8.78248
▁Tuesday	-8.78265
▁Thursday	-8.78491
as	-8.78635
▁income	-8.78719
▁employees	-8.78867
L	-8.78909
▁increasing	-8.79002
pa	-8.79117
▁politics	-8.79203
▁director	-8.79296
▁question	-8.79321
▁immediately	-8.79666
▁sub	-8.79769
▁Plan	-8.79946
▁Kumar	-8.80176
▁region	-8.80406
▁co	-8.80626
0	-8.80808
▁thing	-8.80814
▁authority	-8.80869
▁story	-8.80988
w	-8.80991
▁arrested	-8.81082
▁raised	-8.81161
ism	-8.81221
▁officer	-8.81225
▁projects	-8.81279
▁required	-8.81458
▁lost	-8.8146
▁environment	-8.81505
▁got	-8.8153
▁near	-8.81623
▁University	-8.81749
▁kind	-8.81834
▁technology	-8.81837
▁car	-8.82017
▁air	-8.82127
un	-8.82241
▁American	-8.82251
▁Party	-8.82252
is	-8.82336
▁gave	-8.82403
▁resources	-8.82424
▁facilities	-8.82455
1	-8.82479
▁application	-8.8255
▁border	-8.82629
▁recent	-8.82641
her	-8.82678
It	-8.82767
pur	-8.82793
▁child	-8.82938
▁read	-8.83009
▁competition	-8.8301
▁How	-8.83132
▁These	-8.83224
▁L	-8.83376
▁didn	-8.83424
▁based	-8.83553
▁cost	-8.83605
▁morning	-8.83613
ni	-8.8382
▁adding	-8.8385
▁decided	-8.84061
ka	-8.84069
▁Chinese	-8.84206
▁Yadav	-8.84573
▁Sharma	-8.84596
▁12	-8.84634
ul	-8.84763
▁let	-8.84894
▁outside	-8.84903
▁thousand	-8.85014
▁e	-8.8502
ia	-8.8508
▁30	-8.85117
▁population	-8.85148
▁might	-8.85571
▁believe	-8.8561
▁having	-8.85756
▁issued	-8.858
▁everyone	-8.85831
▁eat	-8.85832
▁expected	-8.85868
▁reach	-8.86652
O	-8.86788
▁themselves	-8.86829
▁comes	-8.86908
▁official	-8.86939
▁York	-8.86999
▁organized	-8.87026
▁pressure	-8.87123
▁hospital	-8.87202
▁force	-8.87244
▁Saturday	-8.87293
▁class	-8.87312
K	-8.87363
▁cut	-8.8738
▁call	-8.87388
▁final	-8.87444
▁civil	-8.87478
▁House	-8.87653
▁win	-8.87661
im	-8.87832
▁completed	-8.87876
ry	-8.87988
the	-8.8808
▁16	-8.88157
▁11	-8.88384
▁Since	-8.88388
▁18	-8.88406
ce	-8.88548
at	-8.88749
rule	-8.8889
▁responsibility	-8.88917
▁formed	-8.88941
▁light	-8.89419
x	-8.89577
ty	-8.89831
▁music	-8.89861
▁c	-8.90006
▁something	-8.90296
▁Assembly	-8.90824
▁further	-8.9084
▁cause	-8.9091
▁result	-8.90927
▁wife	-8.90933
▁International	-8.90985
▁course	-8.91336
▁100	-8.91483
▁across	-8.91684
▁programs	-8.91753
▁began	-8.91845
▁doing	-8.92168
2	-8.92244
ke	-8.92292
▁better	-8.92313
▁led	-8.92549
▁stop	-8.92584
▁lead	-8.93027
▁goal	-8.93118
▁meet	-8.93236
▁talks	-8.93299
▁announced	-8.93336
▁operation	-8.93348
▁value	-8.93519
▁From	-8.9352
▁share	-8.93726
ent	-8.9379
▁David	-8.93854
▁kept	-8.93936
▁mentioned	-8.94287
▁organizations	-8.94351
▁itself	-8.94418
▁plans	-8.9448
▁published	-8.9462
▁data	-8.94639
▁impact	-8.94652
▁forest	-8.94931
▁daughter	-8.94997
▁above	-8.95018
▁incident	-8.95074
▁addition	-8.95151
ba	-8.9521
ir	-8.95259
▁Koirala	-8.95269
▁blood	-8.95286
▁During	-8.95289
▁W	-8.95334
▁opened	-8.95364
▁front	-8.95537
▁property	-8.9568
▁create	-8.95685
▁De	-8.96088
▁low	-8.96109
▁needs	-8.9625
▁products	-8.96303
▁close	-8.96339
▁hundred	-8.96726
H	-8.96858
▁continue	-8.97102
▁H	-8.97125
▁players	-8.97218
da	-8.97385
▁mind	-8.97447
▁short	-8.9767
▁economy	-8.978
▁natural	-8.97854
less	-8.97939
▁demand	-8.98031
▁works	-8.98138
▁saw	-8.98365
▁growth	-8.98477
▁press	-8.98506
▁heard	-8.98525
▁culture	-8.9858
▁early	-8.98635
▁Man	-8.98644
▁administration	-8.98751
▁research	-8.98843
▁poor	-8.98899
▁Not	-8.99495
▁oil	-8.99597
▁Madhesi	-8.99699
▁King	-8.9971
ling	-8.99747
st	-8.99815
▁investigation	-8.99974
▁self	-9.00007
▁hard	-9.00253
▁located	-9.00315
▁disease	-9.00371
co	-9.0041
▁secretary	-9.0045
▁really	-9.00468
▁employee	-9.00673
▁hit	-9.00822
▁real	-9.01045
▁message	-9.01149
▁voice	-9.01216
▁selected	-9.01537
▁crisis	-9.01552
raj	-9.01745
▁legal	-9.01875
▁expressed	-9.01939
▁Rules	-9.0194
▁job	-9.02123
▁quality	-9.02183
▁Chairman	-9.0236
▁eyes	-9.02466
▁returned	-9.02541
▁districts	-9.02557
▁room	-9.0262
▁attention	-9.02629
ting	-9.02845
▁inside	-9.02877
▁ground	-9.02963
▁care	-9.02998
▁played	-9.0301
▁Due	-9.03272
▁conference	-9.03273
▁eight	-9.03323
▁abroad	-9.03354
▁key	-9.03501
▁thought	-9.03608
▁site	-9.03615
▁Iraq	-9.03621
j	-9.03708
▁movie	-9.03752
▁efforts	-9.03818
▁practice	-9.03879
wa	-9.03906
do	-9.03914
▁proposal	-9.03915
▁details	-9.04019
▁conflict	-9.04066
▁giving	-9.04131
▁Al	-9.04143
▁staff	-9.0429
et	-9.04463
▁looking	-9.04555
ad	-9.04618
▁May	-9.04651
▁paid	-9.04668
▁Officer	-9.04725
▁senior	-9.05041
▁Co	-9.05082
▁By	-9.05328
▁address	-9.05375
▁word	-9.05435
▁Foreign	-9.05461
▁record	-9.0549
ter	-9.05511
▁opportunity	-9.05709
▁purpose	-9.05718
▁Su	-9.05797
▁attack	-9.05833
um	-9.05841
▁nothing	-9.06254
rs	-9.06324
▁relations	-9.06336
▁black	-9.06399
▁prepared	-9.06405
▁license	-9.06458
led	-9.06475
ton	-9.06538
▁position	-9.0655
▁elections	-9.06651
▁14	-9.06726
▁points	-9.06759
▁rather	-9.06798
▁Ka	-9.068
▁Krishna	-9.0687
▁Municipality	-9.07042
▁September	-9.07174
ted	-9.0747
▁built	-9.0747
▁build	-9.07568
▁cases	-9.07939
▁experience	-9.08192
▁letter	-9.08219
▁schools	-9.08282
▁football	-9.08409
id	-9.08536
▁San	-9.08685
ah	-9.08724
▁friends	-9.08831
▁earthquake	-9.09021
▁stopped	-9.09262
▁lives	-9.09309
▁husband	-9.09403
▁Ra	-9.0949
▁reported	-9.09695
▁hours	-9.09743
▁subject	-9.09759
▁vehicle	-9.10225
▁Many	-9.10365
ji	-9.10616
ary	-9.10665
▁enough	-9.10692
son	-9.10756
▁words	-9.11085
▁ready	-9.1111
▁Rai	-9.11118
▁Parliament	-9.11338
ant	-9.11341
▁brother	-9.11347
▁Raj	-9.11363
▁several	-9.11379
▁referred	-9.11419
age	-9.11621
▁feel	-9.11636
and	-9.11698
▁fear	-9.11718
▁rule	-9.11718
▁created	-9.11784
▁f	-9.1182
v	-9.11823
▁gold	-9.11843
▁British	-9.11932
▁electricity	-9.11937
▁condition	-9.11945
▁hands	-9.11977
est	-9.1198
▁rules	-9.12222
▁anyone	-9.12294
▁river	-9.12301
hi	-9.12315
▁likely	-9.1234
no	-9.12398
▁common	-9.12563
▁Cup	-9.12563
▁performance	-9.12568
▁contract	-9.12722
E	-9.12735
▁tell	-9.12833
▁Pakistan	-9.1288
▁Health	-9.13007
▁terms	-9.13271
lu	-9.13275
▁executive	-9.13296
▁Vice	-9.1331
▁failed	-9.13379
be	-9.13443
▁Center	-9.1355
▁department	-9.13635
▁Ba	-9.13765
▁0	-9.13767
▁send	-9.14033
▁Authority	-9.14137
▁Army	-9.14165
ine	-9.14171
▁serious	-9.14178
vi	-9.14391
▁born	-9.14442
▁17	-9.14537
▁hold	-9.14601
▁accused	-9.1462
▁needed	-9.14709
▁towards	-9.14728
▁13	-9.14818
▁behind	-9.14868
▁currently	-9.14878
▁image	-9.14988
▁Of	-9.15058
▁almost	-9.15073
▁risk	-9.15077
▁pre	-9.15201
ha	-9.15214
▁higher	-9.15249
▁deal	-9.15295
▁tried	-9.15319
▁energy	-9.15332
▁transport	-9.15343
▁protect	-9.15923
▁North	-9.15933
▁relat	-9.16043
▁Go	-9.16104
▁recently	-9.16489
▁d	-9.16514
▁stay	-9.16516
▁getting	-9.16591
▁event	-9.16739
▁Pa	-9.16883
ate	-9.16903
▁source	-9.1698
▁raise	-9.17063
▁access	-9.17177
go	-9.17374
▁State	-9.17781
▁often	-9.1795
▁employment	-9.17975
▁closed	-9.18197
tra	-9.1821
▁nor	-9.1831
▁Jesus	-9.1842
▁families	-9.18462
▁technical	-9.18519
▁forced	-9.18665
▁opposition	-9.18864
3	-9.18898
▁search	-9.19031
▁implementation	-9.19091
▁My	-9.1914
▁happy	-9.19355
▁banks	-9.19552
▁fund	-9.19555
▁materials	-9.19636
▁daily	-9.19718
▁seem	-9.19796
▁bodies	-9.19804
▁Hospital	-9.19846
▁forces	-9.19887
▁green	-9.19913
U	-9.19919
▁July	-9.19932
▁art	-9.19943
▁account	-9.20192
▁rest	-9.20194
▁25	-9.2028
▁groups	-9.20442
▁changed	-9.2048
V	-9.20517
▁bill	-9.2057
▁additional	-9.20667
▁prices	-9.20676
▁Sa	-9.20739
▁revenue	-9.20751
▁implemented	-9.21001
▁writing	-9.21035
▁example	-9.21151
▁board	-9.21388
▁song	-9.21402
▁laws	-9.21404
▁Shah	-9.21572
▁J	-9.21686
▁Because	-9.21689
▁developed	-9.21705
▁bad	-9.22023
▁separate	-9.22126
▁quarter	-9.22143
▁title	-9.22344
▁gone	-9.22389
▁ten	-9.22511
▁farmers	-9.22527
▁West	-9.22545
▁democratic	-9.2256
▁wrong	-9.22586
▁federal	-9.22615
▁previous	-9.22639
ized	-9.22689
▁informed	-9.22946
▁vehicles	-9.23069
▁playing	-9.23101
▁active	-9.23116
▁October	-9.23138
W	-9.23221
▁submitted	-9.23285
▁o	-9.23287
▁late	-9.23325
▁pain	-9.2346
▁Two	-9.23491
▁middle	-9.23539
▁whose	-9.23579
mo	-9.23652
mi	-9.23681
▁provision	-9.23681
▁release	-9.2369
me	-9.23697
▁assistance	-9.23701
▁sure	-9.23804
▁Bhattarai	-9.23828
▁especially	-9.23917
▁institution	-9.23987
▁talk	-9.24013
▁shown	-9.24114
▁capacity	-9.24253
▁Gurung	-9.24254
▁Japan	-9.24432
▁type	-9.24514
▁festival	-9.24531
▁$	-9.24612
▁met	-9.24795
▁Be	-9.24875
day	-9.24985
▁carry	-9.25078
▁remain	-9.25099
▁medical	-9.25335
▁enter	-9.25338
▁physical	-9.25385
▁commercial	-9.25675
▁nature	-9.257
▁Madhes	-9.25711
▁speak	-9.25736
▁Rule	-9.25745
▁running	-9.25759
▁similar	-9.2588
▁g	-9.25885
▁parents	-9.25902
▁rural	-9.2604
▁spent	-9.26085
▁affected	-9.26097
▁passed	-9.26133
▁structure	-9.26148
ho	-9.26179
▁violence	-9.26197
▁knowledge	-9.26268
▁Mo	-9.26302
▁color	-9.2633
▁Ro	-9.26355
▁VDC	-9.26406
▁save	-9.26504
▁happened	-9.26509
▁try	-9.26644
▁notice	-9.26776
▁houses	-9.26801
▁specified	-9.26818
▁single	-9.26905
▁corruption	-9.26944
▁hope	-9.27052
ge	-9.27083
▁Don	-9.27145
▁tourism	-9.27308
▁providing	-9.27511
▁included	-9.27547
▁submit	-9.27631
out	-9.27637
▁English	-9.27736
▁loss	-9.27817
▁character	-9.27861
▁conditions	-9.27908
▁released	-9.28026
▁term	-9.28187
▁Corporation	-9.28208
▁Local	-9.28465
▁option	-9.28494
▁favor	-9.28558
▁stand	-9.28667
▁allowed	-9.29027
▁fiscal	-9.29074
▁buy	-9.2911
▁victims	-9.29146
▁supply	-9.29239
▁sold	-9.29305
▁appropriate	-9.29347
▁test	-9.29368
ja	-9.29428
▁easy	-9.29546
▁Service	-9.29556
▁City	-9.29612
▁discussion	-9.29739
ner	-9.2987
▁Washington	-9.29925
▁effective	-9.29929
▁bus	-9.29934
▁games	-9.29954
▁citizens	-9.30196
▁earth	-9.30249
▁fall	-9.30271
▁institutions	-9.30389
▁evidence	-9.30424
▁nine	-9.3046
▁School	-9.30496
ki	-9.30601
▁November	-9.30611
▁certain	-9.30657
ize	-9.30728
▁act	-9.30762
▁entered	-9.30899
▁registered	-9.30933
▁rise	-9.30947
▁injured	-9.30974
▁certificate	-9.30975
▁whole	-9.31256
▁dead	-9.31536
▁fight	-9.31603
▁Le	-9.31614
▁Mar	-9.31822
▁$1	-9.31911
▁wanted	-9.32072
▁progress	-9.32187
▁Dahal	-9.32256
▁Most	-9.32262
▁January	-9.32277
▁style	-9.32283
sa	-9.32418
▁March	-9.32481
▁Asia	-9.32497
▁results	-9.32546
▁programme	-9.32562
?"	-9.32724
▁Ar	-9.32848
▁programmes	-9.32893
▁Bar	-9.3292
pi	-9.3296
▁internal	-9.32962
▁Group	-9.33053
▁player	-9.33075
▁Education	-9.33146
▁worked	-9.33147
▁Central	-9.33253
▁yesterday	-9.33449
ie	-9.33652
▁Home	-9.33677
ish	-9.33718
▁Poudel	-9.33942
▁respect	-9.33998
▁include	-9.34061
▁match	-9.34065
▁anti	-9.34178
▁named	-9.34248
▁Director	-9.34372
▁America	-9.34406
▁elected	-9.34615
▁document	-9.34726
ating	-9.34795
▁exchange	-9.34885
▁ahead	-9.34948
▁thinking	-9.34957
▁text	-9.35129
▁August	-9.35179
▁European	-9.35206
▁section	-9.35431
▁Post	-9.35504
▁context	-9.35586
▁persons	-9.35673
▁series	-9.35713
▁Pokhara	-9.35761
▁Ga	-9.35775
▁Public	-9.35778
land	-9.35823
▁urged	-9.35974
▁fine	-9.35981
▁policies	-9.36215
▁Likewise	-9.36216
▁personal	-9.36299
▁carried	-9.36316
▁Deuba	-9.36341
▁Why	-9.36464
▁infrastructure	-9.36468
ated	-9.36512
▁distribution	-9.36578
▁responsible	-9.36594
▁weeks	-9.36683
▁relationship	-9.36698
▁leading	-9.36709
▁lower	-9.36745
▁clean	-9.36752
▁nations	-9.36851
▁accord	-9.36853
▁video	-9.36866
▁John	-9.36939
▁Bush	-9.36948
▁sexual	-9.37008
▁50	-9.37032
▁ministry	-9.37256
▁space	-9.37328
▁turn	-9.37443
ga	-9.3747
▁sales	-9.37493
▁popular	-9.37544
▁2007	-9.37613
▁break	-9.3771
based	-9.37814
▁parts	-9.37814
▁path	-9.37831
8	-9.37985
men	-9.38087
▁global	-9.38097
▁marriage	-9.38102
▁gas	-9.38123
ies	-9.38125
▁dis	-9.38135
▁student	-9.38216
▁21	-9.38224
ko	-9.38246
▁operating	-9.38258
▁presented	-9.38272
▁success	-9.38351
J	-9.38516
▁throughout	-9.38682
▁felt	-9.38749
ca	-9.39007
▁earlier	-9.39033
This	-9.39069
▁beginning	-9.39089
▁CPN	-9.39191
▁Such	-9.39297
▁survey	-9.39345
▁War	-9.39412
▁positive	-9.39427
▁joint	-9.39454
pe	-9.39607
ram	-9.39626
▁however	-9.39679
▁damage	-9.39737
▁evening	-9.39743
▁Me	-9.39867
▁changes	-9.39868
▁priority	-9.39906
▁Fund	-9.39946
▁:	-9.40082
▁sons	-9.402
▁domestic	-9.40209
▁residents	-9.40245
▁documents	-9.40264
▁ask	-9.40381
▁conduct	-9.40424
ee	-9.40467
▁everything	-9.40473
▁sources	-9.405
▁limited	-9.40569
▁headquarters	-9.40578
▁St	-9.40667
▁powers	-9.40792
▁window	-9.40925
▁cities	-9.40959
▁Mohamed	-9.40975
tri	-9.41002
5	-9.41012
▁states	-9.41078
▁proposed	-9.41099
▁develop	-9.41173
▁sea	-9.41222
▁directly	-9.41253
▁Con	-9.41266
▁appointed	-9.41491
▁spread	-9.41499
▁agreed	-9.415
▁Constituent	-9.41533
▁someone	-9.41596
▁charge	-9.41772
ful	-9.41855
▁doesn	-9.41858
time	-9.41917
▁paper	-9.42
▁appear	-9.42003
▁begun	-9.42034
▁Press	-9.4206
▁fell	-9.42074
▁direction	-9.42195
▁conducted	-9.42213
4	-9.42329
▁V	-9.42382
▁successful	-9.42431
▁annual	-9.42449
▁makes	-9.42467
▁bar	-9.42573
▁sell	-9.42715
▁Prachanda	-9.42718
▁rupees	-9.42796
▁manager	-9.42806
▁literature	-9.42955
▁travel	-9.43167
si	-9.4327
▁approval	-9.43469
▁justice	-9.43567
▁contact	-9.43627
▁remove	-9.43636
▁hear	-9.43646
▁wants	-9.43709
▁prime	-9.43723
If	-9.43811
▁Meanwhile	-9.43823
ut	-9.43841
▁fourth	-9.4391
Maoist	-9.43919
▁becoming	-9.43929
Y	-9.43971
▁December	-9.44082
▁claimed	-9.44153
▁shows	-9.44184
▁agricultural	-9.44209
▁Korea	-9.44325
har	-9.44355
▁Ja	-9.44502
▁m	-9.44546
▁minutes	-9.44551
▁operate	-9.44625
▁regional	-9.44695
▁maintain	-9.44742
▁filed	-9.4475
▁agencies	-9.44754
▁drug	-9.44762
ley	-9.44779
▁KATHMANDU	-9.44837
▁occasion	-9.44857
▁pass	-9.44872
▁idea	-9.45151
▁model	-9.45263
▁estimated	-9.45293
▁mouth	-9.454
▁fair	-9.45435
▁instead	-9.45504
▁industries	-9.45528
du	-9.45608
▁produced	-9.45648
▁reduce	-9.45708
she	-9.45737
▁Company	-9.45778
▁February	-9.45797
▁carrying	-9.45869
ol	-9.45877
▁murder	-9.45916
▁except	-9.45963
▁allow	-9.45981
▁Other	-9.46004
▁regular	-9.46066
▁Only	-9.46122
▁majority	-9.46241
che	-9.46298
▁largest	-9.46309
▁generation	-9.46324
▁24	-9.46378
▁debate	-9.4642
▁check	-9.46449
▁write	-9.4647
▁answer	-9.46485
▁receive	-9.46598
hu	-9.4664
▁launched	-9.4667
▁Chandra	-9.46672
▁offer	-9.46734
▁Rana	-9.46759
▁modern	-9.46783
▁religious	-9.46798
per	-9.4694
▁multi	-9.47142
ck	-9.47302
▁moving	-9.47403
▁cultural	-9.47421
▁dispute	-9.47441
▁Ko	-9.47457
▁runs	-9.47572
▁protection	-9.47602
▁June	-9.47619
▁temple	-9.47638
▁white	-9.47791
▁KC	-9.47843
der	-9.47879
▁spoke	-9.47883
line	-9.47996
▁Earlier	-9.48015
▁magazine	-9.48065
▁amendment	-9.48262
bu	-9.48314
▁Whether	-9.48324
▁consensus	-9.48397
▁Valley	-9.48427
va	-9.48483
dy	-9.48544
▁patients	-9.48604
▁Day	-9.48615
▁stock	-9.4878
▁tourists	-9.4878
ian	-9.4883
▁offering	-9.48898
▁firm	-9.4914
▁camp	-9.49148
▁potential	-9.49156
▁vote	-9.49216
▁Supreme	-9.49228
▁benefit	-9.49236
▁complete	-9.49249
▁Federation	-9.49343
▁friend	-9.49356
▁motor	-9.49453
▁direct	-9.4958
▁improve	-9.49713
▁promotion	-9.49775
lin	-9.4978
▁insurance	-9.49796
▁Those	-9.49902
▁commission	-9.49965
▁compared	-9.50029
▁credit	-9.50034
▁base	-9.50124
▁Another	-9.50243
▁ruling	-9.50298
▁entire	-9.50313
gi	-9.50398
▁size	-9.50398
term	-9.50466
▁phone	-9.50473
▁shares	-9.5049
▁upon	-9.50568
nd	-9.50602
▁network	-9.50648
▁vice	-9.50803
bar	-9.50844
▁birth	-9.5087
▁Let	-9.50873
▁collection	-9.50962
▁existing	-9.50977
▁preparing	-9.51086
▁Da	-9.51088
op	-9.51131
▁royal	-9.51131
▁seek	-9.51161
▁demanded	-9.51289
In	-9.51328
(	-9.5147
ous	-9.51626
▁removed	-9.51641
▁con	-9.51769
▁coach	-9.51838
▁design	-9.51841
▁religion	-9.51881
▁status	-9.5191
▁true	-9.51914
▁happen	-9.51971
▁caused	-9.51998
There	-9.52016
▁Europe	-9.52052
▁scored	-9.52108
▁pro	-9.52117
▁average	-9.52147
▁League	-9.52236
▁implement	-9.52257
▁initiative	-9.52275
▁1,	-9.52339
▁online	-9.52362
▁mountain	-9.52379
▁table	-9.52436
▁identity	-9.52444
ped	-9.5245
ci	-9.52536
▁hotel	-9.52775
▁Union	-9.52816
▁Karki	-9.52895
▁registration	-9.52908
▁Schedule	-9.53089
▁followed	-9.53138
▁manner	-9.53177
▁Vi	-9.53234
ard	-9.53411
▁alone	-9.53495
▁Ha	-9.53556
▁format	-9.53563
▁target	-9.53636
▁wrote	-9.53699
▁north	-9.53779
▁functions	-9.53823
▁educational	-9.53855
ning	-9.53882
▁municipality	-9.53883
way	-9.53899
▁establishment	-9.5405
AP	-9.54065
▁Am	-9.54173
▁Narayan	-9.54174
▁About	-9.54186
▁tea	-9.54187
▁desire	-9.54272
▁airport	-9.54274
▁strike	-9.54275
▁n	-9.54306
▁loans	-9.54348
▁Li	-9.54394
▁stage	-9.54422
▁1.	-9.54431
▁understanding	-9.5446
▁cash	-9.54473
▁Sha	-9.5469
ping	-9.54696
▁cadres	-9.54821
▁author	-9.54863
▁highest	-9.54899
tion	-9.54994
▁chairman	-9.55042
▁sign	-9.55066
ite	-9.55141
▁Could	-9.55159
▁shot	-9.55215
▁reasons	-9.55253
▁door	-9.55312
▁Ma	-9.55432
▁follow	-9.55493
▁duty	-9.55496
▁Delhi	-9.55523
▁easily	-9.55583
▁huge	-9.55647
▁goes	-9.55691
▁Bhandari	-9.55736
ally	-9.5579
▁examination	-9.5591
▁computer	-9.55915
▁struggle	-9.55945
▁agency	-9.55951
▁Finance	-9.55955
▁teachers	-9.55982
▁operated	-9.56009
▁40	-9.56139
▁Club	-9.56198
▁review	-9.56241
▁Where	-9.56248
▁feet	-9.56255
▁Three	-9.56282
▁demands	-9.56301
▁Si	-9.56334
▁convention	-9.56352
▁decades	-9.5639
▁customers	-9.56402
ization	-9.56418
▁suffering	-9.56493
▁ever	-9.56499
▁weapons	-9.5652
▁destroyed	-9.56566
▁industrial	-9.56637
▁Chapter	-9.56787
▁completely	-9.56926
bo	-9.5693
▁importance	-9.56955
▁red	-9.56986
▁Our	-9.56989
▁couple	-9.57037
▁Fa	-9.57076
▁despite	-9.5719
▁East	-9.57225
▁personnel	-9.57232
▁die	-9.57276
▁opening	-9.57279
▁moved	-9.57316
ure	-9.57321
▁More	-9.57423
▁crowd	-9.57471
▁showed	-9.57494
tu	-9.57642
▁Ri	-9.57666
▁Ho	-9.57716
▁walk	-9.57737
▁Chaudhary	-9.57752
▁traditional	-9.57825
mon	-9.57858
cha	-9.57873
▁interests	-9.57911
▁questions	-9.57915
ari	-9.5796
▁drinking	-9.58007
con	-9.58016
▁claim	-9.58091
▁thousands	-9.58091
mp	-9.58324
▁Select	-9.5834
▁Women	-9.58344
ft	-9.58428
▁expensive	-9.58493
▁clothes	-9.58519
▁commitment	-9.58612
▁spokesman	-9.58666
▁Administration	-9.58823
▁teaching	-9.58992
▁continued	-9.58993
You	-9.59032
nt	-9.59096
▁bringing	-9.59155
▁committed	-9.59208
▁fuel	-9.59292
▁club	-9.59331
▁Under	-9.59368
ana	-9.59457
▁remains	-9.595
▁union	-9.59521
6	-9.59547
▁songs	-9.59552
▁Sam	-9.59607
▁turned	-9.59641
▁response	-9.59714
▁dance	-9.59814
▁Management	-9.59874
▁directed	-9.59897
▁prepare	-9.60027
▁arrived	-9.60043
▁holding	-9.60122
▁speech	-9.60143
▁First	-9.60145
▁accept	-9.60179
party	-9.60223
▁opinion	-9.60259
▁Dev	-9.6036
▁kill	-9.60365
▁possibility	-9.60548
▁Adhikari	-9.60581
▁signed	-9.60655
▁Inc	-9.60785
▁charges	-9.60793
om	-9.60872
ise	-9.61124
▁cricket	-9.61205
▁youth	-9.61321
▁constitutional	-9.61338
▁nearly	-9.61354
▁leaving	-9.61455
▁Deputy	-9.61487
▁determined	-9.61543
▁April	-9.61584
ran	-9.61604
▁representatives	-9.61672
▁faith	-9.61679
▁sun	-9.61726
▁remember	-9.61731
▁consider	-9.61877
▁mobile	-9.61878
7	-9.61902
▁London	-9.61911
▁29	-9.61954
▁mid	-9.62024
▁b	-9.62161
▁safe	-9.62172
▁Saptari	-9.62205
▁constructed	-9.62228
one	-9.62243
▁obtained	-9.62279
ig	-9.62286
▁believed	-9.62287
▁looked	-9.62306
tic	-9.62369
▁broken	-9.6237
▁22	-9.62383
▁task	-9.62466
▁television	-9.62468
▁arrangements	-9.62534
▁judge	-9.62603
▁standard	-9.62647
▁export	-9.62665
▁roads	-9.62686
▁equipment	-9.62698
▁presence	-9.62698
▁authorities	-9.62705
▁lakh	-9.62806
▁phase	-9.6283
ud	-9.6286
▁prevent	-9.62951
▁sense	-9.62954
▁professional	-9.63019
▁Jo	-9.63037
▁double	-9.63101
▁steps	-9.63129
ster	-9.6313
▁behavior	-9.63358
▁equal	-9.6336
▁Pandey	-9.63458
▁23	-9.63474
▁division	-9.63558
▁Rastra	-9.63597
▁victory	-9.63624
▁loan	-9.6369
▁hearing	-9.63694
▁parliament	-9.63712
ber	-9.63751
▁events	-9.63756
▁eating	-9.63766
▁spend	-9.63823
▁agriculture	-9.6389
ities	-9.63897
▁planning	-9.6395
▁function	-9.63988
law	-9.64043
▁selling	-9.64139
▁ended	-9.64145
▁dream	-9.64206
▁Park	-9.64234
▁settlement	-9.64331
▁serve	-9.64422
▁limit	-9.64552
ex	-9.64574
▁sky	-9.646
nath	-9.64645
▁Russia	-9.64782
▁France	-9.64833
▁proper	-9.64834
end	-9.64855
▁matters	-9.64857
▁participation	-9.64895
▁basic	-9.64921
▁adopted	-9.64987
▁career	-9.64991
▁opportunities	-9.64996
tro	-9.65045
▁novel	-9.65076
▁Lama	-9.65167
▁Last	-9.65188
▁approved	-9.65256
ina	-9.65304
▁permission	-9.65311
ita	-9.65317
▁park	-9.65503
▁Britain	-9.65504
▁yourself	-9.65645
▁focus	-9.65653
▁journey	-9.65672
▁stone	-9.65752
▁contained	-9.65762
▁communities	-9.65773
▁connection	-9.65799
tal	-9.65889
▁animals	-9.65893
▁declared	-9.65927
▁Asian	-9.65958
▁UK	-9.6603
▁traffic	-9.66041
▁request	-9.66119
He	-9.66127
▁command	-9.6613
▁east	-9.66207
▁receiving	-9.66387
▁Today	-9.6643
▁Kamal	-9.66442
ver	-9.66473
▁provisions	-9.66476
▁Trump	-9.66524
▁owner	-9.66653
▁fees	-9.66681
▁Village	-9.66842
ven	-9.6689
min	-9.66985
▁beautiful	-9.67038
▁items	-9.67051
▁transfer	-9.67061
ik	-9.67196
▁Jerusalem	-9.67313
▁Despite	-9.67371
▁famous	-9.67379
▁Sri	-9.67397
▁knew	-9.67418
▁Hu	-9.67431
▁cover	-9.67553
▁Bill	-9.676
po	-9.67643
▁7.	-9.67698
▁article	-9.67719
▁prevailing	-9.67783
▁studying	-9.67792
ang	-9.67811
▁ma	-9.67852
▁helped	-9.67888
▁discussed	-9.67964
▁parliamentary	-9.68017
▁challenge	-9.68097
▁unity	-9.68117
▁doctor	-9.68122
▁step	-9.68148
▁labor	-9.68183
kar	-9.68215
▁investors	-9.68246
▁http	-9.68246
▁audience	-9.68283
▁Institute	-9.68422
▁sitting	-9.68467
▁en	-9.68475
▁Bo	-9.68509
▁Ne	-9.68532
▁ship	-9.68545
▁establish	-9.68548
▁blind	-9.68597
▁appears	-9.68676
▁truth	-9.68737
▁significant	-9.68743
▁complaint	-9.68792
▁participate	-9.68822
▁k	-9.68904
han	-9.68931
▁worship	-9.6902
▁suffer	-9.6902
▁session	-9.69087
side	-9.69187
▁worth	-9.69262
▁original	-9.69282
▁race	-9.69285
▁aid	-9.69408
▁growing	-9.69429
▁Pi	-9.69541
▁levels	-9.69603
▁science	-9.69721
▁News	-9.69743
▁killing	-9.69804
▁tree	-9.69815
▁Also	-9.69842
▁radio	-9.69845
▁illegal	-9.69867
ju	-9.69878
▁measures	-9.69924
▁payment	-9.69933
▁duties	-9.69969
▁Democratic	-9.69972
▁collected	-9.69984
▁sometimes	-9.70041
▁arrest	-9.70277
chi	-9.70333
▁experts	-9.70339
▁candidate	-9.70341
▁Name	-9.70382
▁route	-9.70385
▁expenditure	-9.70385
▁England	-9.7043
▁Po	-9.7043
▁Hindu	-9.70443
▁studies	-9.70465
▁blockade	-9.70467
▁brothers	-9.70487
▁Justice	-9.70574
▁whom	-9.70586
▁ensure	-9.70662
bi	-9.70704
▁books	-9.70733
▁Iran	-9.70755
vo	-9.70816
▁Sah	-9.70825
▁Se	-9.70829
▁KP	-9.70872
▁reports	-9.70975
▁plant	-9.71002
▁remained	-9.71103
▁Khadka	-9.71108
ists	-9.71149
our	-9.71244
▁honor	-9.71259
▁www	-9.71305
▁Open	-9.71344
▁Security	-9.71395
▁offices	-9.71443
tan	-9.71507
▁card	-9.71555
▁(1),	-9.71569
▁Di	-9.71572
▁types	-9.71584
▁Gautam	-9.71646
▁Who	-9.71706
▁mountains	-9.71714
▁fast	-9.71808
▁learn	-9.71882
▁claims	-9.71972
▁agenda	-9.71977
▁quickly	-9.71982
▁display	-9.72065
tor	-9.72088
▁ability	-9.72104
▁River	-9.7213
▁Royal	-9.72165
▁neither	-9.72188
▁reduced	-9.72215
▁Temple	-9.72224
▁independent	-9.72232
▁Judah	-9.72261
▁freedom	-9.7227
▁users	-9.72298
▁reading	-9.72305
▁Area	-9.72382
▁journalists	-9.72411
▁unit	-9.7246
▁afraid	-9.7255
▁either	-9.7255
▁star	-9.72559
ring	-9.72568
▁Project	-9.72589
war	-9.72591
▁cancer	-9.72634
▁normal	-9.72675
▁screen	-9.72701
▁Can	-9.72706
▁Member	-9.72727
▁sports	-9.72741
▁weak	-9.72794
▁2.	-9.72804
ler	-9.72893
▁expenses	-9.72894
▁driver	-9.72952
▁round	-9.7315
▁monitoring	-9.73185
▁Egypt	-9.73235
▁Sept	-9.73247
▁Har	-9.73319
ot	-9.73353
nu	-9.73356
▁crime	-9.73403
▁latest	-9.73457
▁climate	-9.73499
▁soldiers	-9.73523
▁married	-9.73537
ham	-9.73658
▁produce	-9.73675
▁interview	-9.73705
▁Chairperson	-9.73709
▁filled	-9.73711
▁Ex	-9.73809
▁Tri	-9.73817
red	-9.73866
▁appointment	-9.73885
▁milk	-9.73941
▁longer	-9.73953
▁effect	-9.7402
▁effort	-9.74035
esh	-9.74035
▁drink	-9.74048
▁town	-9.74136
les	-9.74181
▁else	-9.74198
van	-9.7442
▁Chitwan	-9.74495
▁perform	-9.74563
▁powerful	-9.74643
▁palace	-9.74681
▁girl	-9.74707
▁south	-9.74721
▁expansion	-9.74754
▁relief	-9.74754
▁v	-9.74788
▁28	-9.7483
ence	-9.74841
▁purchase	-9.74854
▁otherwise	-9.74972
▁i	-9.75014
▁Internet	-9.75016
▁council	-9.75089
▁selection	-9.75129
ding	-9.7518
▁includes	-9.75185
▁takes	-9.75211
▁understood	-9.75276
▁benefits	-9.75349
ub	-9.7536
▁Both	-9.75454
ag	-9.75458
▁Moses	-9.75577
▁Australia	-9.75582
▁Land	-9.75586
▁ex	-9.75598
▁spirit	-9.75696
▁picture	-9.75746
▁probably	-9.75762
ors	-9.75855
▁ball	-9.75876
▁sides	-9.75981
▁youths	-9.76022
9	-9.76086
▁clearly	-9.76088
▁product	-9.76097
▁waste	-9.76157
▁ministers	-9.76182
▁remaining	-9.76186
▁Forest	-9.76226
▁hour	-9.76301
▁suffered	-9.76302
▁communication	-9.76382
▁l	-9.76411
▁r	-9.76441
▁showing	-9.76463
▁range	-9.7656
▁Bangladesh	-9.76629
▁customs	-9.76641
▁Please	-9.76655
ru	-9.76711
▁Red	-9.76719
ung	-9.76732
▁therefore	-9.76781
▁remote	-9.76818
iya	-9.76824
▁Biratnagar	-9.76856
▁discussions	-9.76945
▁planned	-9.76987
▁bridge	-9.76993
▁Acharya	-9.77008
▁caste	-9.77076
▁monarchy	-9.77089
▁26	-9.7712
point	-9.77169
ai	-9.77173
▁Gu	-9.77181
ow	-9.7721
▁below	-9.77465
▁cooperation	-9.77505
ial	-9.77528
fi	-9.77551
▁Federal	-9.77579
▁delay	-9.77595
▁tradition	-9.77656
▁Air	-9.77674
▁till	-9.77723
▁Affairs	-9.77886
▁valley	-9.77962
▁concern	-9.78007
▁import	-9.78025
▁Road	-9.78098
▁Christ	-9.78147
▁discuss	-9.78148
▁UN	-9.78174
▁hurt	-9.78195
▁names	-9.782
▁scheduled	-9.78239
▁rates	-9.78269
▁solve	-9.78309
▁sale	-9.78309
▁Pro	-9.78311
▁west	-9.78339
▁page	-9.78379
▁wall	-9.78437
▁add	-9.78437
▁Ta	-9.78485
▁alcohol	-9.78557
▁Stat	-9.78592
ct	-9.78636
▁Executive	-9.78638
▁Ms	-9.78663
▁sound	-9.78672
▁goals	-9.787
▁Your	-9.78741
▁forth	-9.78788
▁folder	-9.78801
▁ways	-9.78892
▁punishment	-9.78976
▁accident	-9.7905
▁college	-9.79095
▁strategy	-9.79119
▁recommendation	-9.79148
▁sad	-9.7919
au	-9.79259
ron	-9.79329
▁Communist	-9.79391
▁keeping	-9.79412
▁slow	-9.79452
▁views	-9.79454
▁feeling	-9.79539
▁scene	-9.79574
▁balance	-9.7966
▁biggest	-9.79666
▁films	-9.79682
▁choose	-9.79704
▁markets	-9.79708
▁compensation	-9.79781
▁lived	-9.79793
-1	-9.79814
▁developing	-9.79832
▁particular	-9.79876
▁server	-9.79913
▁reform	-9.80031
▁doctors	-9.80047
▁copy	-9.80134
▁century	-9.80151
▁regarding	-9.8017
▁Use	-9.80179
za	-9.80229
▁fee	-9.80258
▁Dharan	-9.8026
▁profit	-9.80282
tter	-9.80367
▁Or	-9.804
ura	-9.8044
▁error	-9.80455
▁Academy	-9.80487
▁operations	-9.80605
▁eye	-9.807
▁citizenship	-9.80727
▁influence	-9.80799
▁armed	-9.808
▁Forum	-9.80855
▁winning	-9.80871
▁spending	-9.80881
▁alternative	-9.80898
▁files	-9.80929
▁costs	-9.80931
▁Five	-9.81006
▁appeal	-9.81013
▁Lal	-9.81028
▁High	-9.8103
▁talking	-9.81055
▁$2	-9.81075
▁Modi	-9.81093
▁Her	-9.81099
▁officers	-9.81119
▁host	-9.81195
What	-9.81273
▁gradually	-9.81287
ging	-9.81378
▁maintained	-9.814
▁Hari	-9.8143
▁citizen	-9.81533
▁consumers	-9.81537
▁poverty	-9.81594
▁Lo	-9.81623
▁determine	-9.81633
▁Rights	-9.81645
▁facility	-9.81674
▁empty	-9.81713
▁tourist	-9.81769
sha	-9.81887
▁na	-9.81896
▁cross	-9.82071
▁Tamang	-9.82115
▁trust	-9.82184
▁nuclear	-9.82192
▁TV	-9.8223
▁listen	-9.82245
▁victim	-9.82311
▁eastern	-9.82353
▁female	-9.82393
▁fun	-9.82393
▁net	-9.82532
▁90	-9.82594
▁Provided	-9.82909
▁Western	-9.8293
▁rich	-9.82995
den	-9.83056
ten	-9.83064
▁Gorkha	-9.83186
▁Bal	-9.83189
▁doubt	-9.83196
▁evil	-9.83204
▁27	-9.83239
▁animal	-9.83298
▁French	-9.83323
pp	-9.8337
▁consumer	-9.83393
▁avoid	-9.8342
▁setting	-9.83503
▁inter	-9.83554
▁historical	-9.83608
▁prison	-9.8363
▁grow	-9.83682
▁overall	-9.83707
▁heavy	-9.83725
▁Front	-9.83765
▁sister	-9.83799
▁Facebook	-9.83806
▁tomorrow	-9.83846
▁Lu	-9.83873
▁manage	-9.83895
▁31	-9.83961
▁passengers	-9.8406
▁decide	-9.84177
▁Ltd	-9.84296
50	-9.84296
▁El	-9.84385
▁collect	-9.84418
▁raising	-9.8446
▁rain	-9.84491
▁mean	-9.84568
▁medicines	-9.84686
▁Thus	-9.84728
▁Mahendra	-9.84743
▁believes	-9.84823
▁fully	-9.84872
ama	-9.84909
▁defeat	-9.84962
▁Un	-9.84972
▁Here	-9.85009
▁branch	-9.85023
▁sweet	-9.85033
▁supported	-9.85086
▁Instead	-9.85174
▁Industry	-9.85239
▁announcement	-9.85248
▁sin	-9.85307
▁primary	-9.85321
▁damaged	-9.85322
▁cold	-9.85341
▁ethnic	-9.85404
▁Car	-9.85655
▁records	-9.85768
▁simple	-9.85777
▁cent	-9.85777
▁maximum	-9.85777
▁follows	-9.85803
▁lose	-9.85822
▁farming	-9.85839
:-	-9.85842
av	-9.85859
▁Show	-9.85883
▁dozen	-9.85954
▁toward	-9.85958
▁teams	-9.85968
▁attacks	-9.86001
▁manpower	-9.86039
ple	-9.86161
▁60	-9.86227
for	-9.8628
▁suggested	-9.86285
ac	-9.86305
▁artist	-9.86324
▁Water	-9.8637
▁Tarai	-9.86428
▁concept	-9.86446
▁Like	-9.86547
▁Which	-9.86609
▁station	-9.86642
▁failure	-9.86696
▁funds	-9.86785
▁province	-9.86787
▁Former	-9.86856
▁correct	-9.87021
▁Information	-9.87028
▁foot	-9.87049
ble	-9.87059
▁Bir	-9.87063
we	-9.87088
▁salary	-9.87113
▁content	-9.87186
▁Chand	-9.87202
▁exercise	-9.87239
ng	-9.87247
▁user	-9.87254
▁White	-9.87262
▁skills	-9.87292
▁root	-9.87314
▁box	-9.87329
let	-9.87383
of	-9.874
▁coordination	-9.8762
▁missing	-9.87638
▁teacher	-9.87722
▁version	-9.87726
▁frame	-9.87747
▁method	-9.87774
▁College	-9.87787
▁decisions	-9.87815
▁Law	-9.87871
▁essential	-9.87898
................	-9.87972
▁offered	-9.88001
”	-9.88015
▁app	-9.88021
▁trouble	-9.88094
hari	-9.88107
▁defeated	-9.88229
ani	-9.88351
▁acting	-9.88369
▁defense	-9.88383
▁confidence	-9.88408
▁difference	-9.88427
▁seeing	-9.88434
▁moment	-9.88464
▁track	-9.88485
▁coordinator	-9.88595
ay	-9.88622
▁agree	-9.88631
▁bit	-9.88633
▁Human	-9.88762
▁Ghimire	-9.88765
▁activity	-9.8881
▁repeatedly	-9.88852
▁governance	-9.88977
tha	-9.88997
▁procedures	-9.88999
▁draw	-9.89007
▁speed	-9.89042
▁Tribhuvan	-9.89064
▁representative	-9.89123
▁Giri	-9.89171
▁promote	-9.89246
▁gives	-9.89352
▁divided	-9.89406
▁wearing	-9.89408
▁Clinton	-9.89537
▁debt	-9.89579
▁aspects	-9.89622
▁sleep	-9.89625
▁looks	-9.89638
▁Pokharel	-9.89666
▁safety	-9.89728
so	-9.89764
▁appeared	-9.8981
▁reaching	-9.89892
▁wear	-9.89921
▁environmental	-9.89954
▁regard	-9.89995
▁Paul	-9.90037
▁decade	-9.90052
▁mental	-9.90057
▁2008	-9.90115
▁entry	-9.90275
▁objective	-9.90283
▁immediate	-9.90301
▁Iraqi	-9.90373
▁fixed	-9.90474
▁interested	-9.90502
▁comment	-9.90504
▁demanding	-9.90505
▁awareness	-9.90507
▁Set	-9.90516
▁al	-9.90633
ap	-9.90644
▁aware	-9.90682
▁index	-9.90682
▁drive	-9.90769
▁emergency	-9.90794
▁deemed	-9.90837
▁reconstruction	-9.90839
que	-9.90855
▁sectors	-9.90892
▁Germany	-9.90902
▁reality	-9.90928
▁km	-9.90941
▁highway	-9.90971
off	-9.90981
▁prior	-9.90986
▁corner	-9.91022
▁Ju	-9.91062
▁earned	-9.91099
▁summer	-9.91102
gu	-9.91128
▁Every	-9.91138
os	-9.91189
20	-9.91273
ku	-9.91319
▁Clause	-9.91319
▁Min	-9.91324
od	-9.91342
▁join	-9.91363
▁meat	-9.91377
▁advance	-9.91438
▁accounts	-9.91441
▁7,	-9.91449
▁starting	-9.91489
by	-9.91522
ok	-9.91539
▁rice	-9.91554
▁ideas	-9.91621
▁speaking	-9.91632
▁begins	-9.91706
▁continues	-9.9173
▁fighting	-9.91754
▁jail	-9.91767
▁bid	-9.91841
bb	-9.92022
ab	-9.92042
fe	-9.92066
▁poet	-9.92237
▁Nations	-9.92241
▁evaluation	-9.92272
▁twenty	-9.92287
▁protest	-9.92299
▁Their	-9.92367
▁minimum	-9.92376
▁Japanese	-9.9238
▁priest	-9.92461
ative	-9.92485
▁zone	-9.92512
▁treated	-9.92514
▁gathered	-9.92522
▁returning	-9.92553
▁default	-9.92553
▁chance	-9.92557
ries	-9.9257
▁deep	-9.92584
▁literary	-9.92642
ny	-9.92723
▁distributed	-9.92738
▁Du	-9.92751
ell	-9.92765
▁Buddha	-9.92782
▁motion	-9.92842
▁individual	-9.92869
▁seemed	-9.92989
▁Prakash	-9.92998
▁irrigation	-9.93087
▁false	-9.93087
▁begin	-9.93269
▁rose	-9.93288
-2	-9.93335
▁Before	-9.9335
▁finally	-9.93378
▁Russian	-9.93444
▁Khanal	-9.93456
▁Power	-9.93483
em	-9.93494
▁(3)	-9.9351
▁plants	-9.9361
▁administrative	-9.93624
▁dry	-9.93626
▁Speaker	-9.93803
▁Web	-9.93817
▁award	-9.93878
▁launch	-9.9391
level	-9.94002
▁Error	-9.94073
▁locals	-9.94121
▁holy	-9.94194
▁Special	-9.94195
▁finance	-9.94209
▁baby	-9.94303
▁earn	-9.94311
▁classes	-9.94359
▁thereof	-9.94414
▁Wi	-9.94451
▁walking	-9.94506
▁newspaper	-9.94519
▁Yes	-9.94545
▁housing	-9.9457
▁wait	-9.94591
▁covered	-9.94727
▁changing	-9.94752
▁concerns	-9.94761
▁sex	-9.94774
▁dollars	-9.94775
▁Durbar	-9.94799
▁topic	-9.948
▁beyond	-9.94887
▁Civil	-9.94915
▁destroy	-9.94955
▁stuck	-9.94979
ali	-9.95023
▁wide	-9.9507
▁watch	-9.95101
▁platform	-9.95206
▁statements	-9.95225
▁behalf	-9.95302
▁prosperity	-9.95345
▁soil	-9.95393
▁floor	-9.95434
▁improved	-9.95504
▁aircraft	-9.95529
▁sought	-9.9555
▁Sher	-9.95619
ide	-9.9575
hor	-9.95924
wal	-9.95991
▁Chi	-9.96083
▁drugs	-9.9611
▁waiting	-9.9615
▁Africa	-9.96221
’	-9.96264
▁beat	-9.96314
▁servants	-9.96316
pro	-9.96334
▁answered	-9.96396
▁Commerce	-9.96398
▁dialogue	-9.96446
▁handed	-9.96458
▁captain	-9.96492
▁select	-9.96513
▁w	-9.96537
▁ve	-9.96608
▁candidates	-9.96651
ip	-9.96708
▁seeking	-9.96719
UML	-9.96733
▁accepted	-9.96765
▁connected	-9.96851
▁Jha	-9.96852
abababababababab	-9.96867
▁background	-9.96913
▁paying	-9.9695
25	-9.96983
▁Pe	-9.97026
▁abuse	-9.97028
▁telephone	-9.97046
lan	-9.97111
▁votes	-9.9723
ach	-9.97247
▁streets	-9.97266
▁jobs	-9.97424
▁values	-9.97431
▁lake	-9.97478
▁flow	-9.97544
▁millions	-9.97611
▁anger	-9.97629
▁statistics	-9.97697
▁homes	-9.97704
king	-9.97723
▁male	-9.97829
shi	-9.97871
▁criminal	-9.97904
izing	-9.97959
▁attempt	-9.97964
▁Ru	-9.9802
wi	-9.98097
▁Kha	-9.98167
▁stories	-9.98213
▁Malaysia	-9.98289
▁stood	-9.98307
▁fish	-9.98332
▁wood	-9.98333
▁shop	-9.98365
▁busy	-9.98373
tain	-9.98441
ised	-9.98453
▁ceremony	-9.98542
▁boy	-9.98639
▁Notwithstanding	-9.98731
▁Organization	-9.98733
ep	-9.98778
▁map	-9.98833
▁patient	-9.98861
▁unable	-9.9888
▁warned	-9.98893
▁Jhapa	-9.9901
▁negative	-9.99014
▁weight	-9.99031
▁journalist	-9.99092
▁Any	-9.99109
▁(19	-9.99144
▁focused	-9.99157
▁saved	-9.99346
▁myself	-9.99356
▁Bi	-9.99383
▁ba	-9.99393
▁afternoon	-9.99441
kot	-9.99496
coming	-9.99501
▁numbers	-9.99598
▁corporate	-9.99632
▁currency	-9.99679
▁Times	-9.9968
!"	-9.99694
ship	-9.99785
▁calling	-9.9979
▁battle	-9.9982
▁specific	-9.99885
▁diseases	-9.99943
▁standing	-10.0001
▁meaning	-10.0003
▁Joshi	-10.001
▁Tourism	-10.0011
▁Airport	-10.0011
▁becomes	-10.0016
▁mode	-10.0019
▁object	-10.0019
ward	-10.002
▁university	-10.002
▁trading	-10.002
▁California	-10.003
▁website	-10.003
▁partner	-10.0033
▁Terai	-10.0035
▁joined	-10.0035
▁tender	-10.0046
▁revolution	-10.0053
▁choice	-10.0054
▁relatives	-10.0057
▁guarantee	-10.0057
▁gun	-10.006
▁facing	-10.0069
▁drama	-10.0087
▁port	-10.0094
▁relation	-10.01
▁Children	-10.0105
▁Hi	-10.0111
▁publication	-10.0111
▁creation	-10.0124
▁urban	-10.0129
▁sit	-10.0129
▁Date	-10.013
▁suicide	-10.0131
▁intention	-10.0139
▁grain	-10.014
▁easier	-10.0151
▁Je	-10.0151
port	-10.0162
▁Che	-10.0163
bha	-10.0173
▁Per	-10.0175
▁Year	-10.018
▁approach	-10.0182
chan	-10.0183
▁mark	-10.0192
▁Khan	-10.0193
▁Birgunj	-10.0194
▁train	-10.0197
▁refused	-10.0198
▁happens	-10.0201
▁Shiva	-10.0207
▁absence	-10.0214
▁Award	-10.0222
▁angry	-10.0229
▁equally	-10.0229
▁Everest	-10.0234
oriented	-10.0238
▁calls	-10.0238
▁beauty	-10.0238
▁participated	-10.0241
▁pen	-10.0242
▁fulfill	-10.0244
▁linked	-10.0244
wan	-10.0255
uri	-10.0258
▁hundreds	-10.0262
▁inquiry	-10.0268
ath	-10.0274
▁era	-10.0276
▁analysis	-10.0278
▁ward	-10.0279
all	-10.0282
▁creating	-10.0283
▁served	-10.0291
▁Dan	-10.0295
ff	-10.0298
▁Dhakal	-10.0303
▁expression	-10.0311
▁store	-10.0314
▁formal	-10.0331
▁happiness	-10.0337
▁medium	-10.0337
▁nominated	-10.0349
▁master	-10.035
▁servant	-10.036
▁artists	-10.0363
▁respectively	-10.0375
▁Street	-10.0376
▁posts	-10.0384
▁performed	-10.0386
gan	-10.0391
▁placed	-10.0393
▁charged	-10.0396
▁increases	-10.0397
▁attend	-10.0402
▁Lalitpur	-10.0407
▁western	-10.0414
▁although	-10.0416
ical	-10.0418
▁profession	-10.0421
field	-10.0422
▁hair	-10.0423
▁Pra	-10.0423
▁Himalayan	-10.0424
▁solution	-10.0427
▁mortgage	-10.0431
▁allowance	-10.0434
▁Jan	-10.0436
▁permanent	-10.0436
▁singer	-10.0439
▁brand	-10.0439
▁sending	-10.0451
▁healthy	-10.0454
▁Wa	-10.0461
▁strengthen	-10.0461
cy	-10.0465
mate	-10.0475
▁confirmed	-10.0479
▁lines	-10.0481
▁bomb	-10.0483
▁trees	-10.0485
▁Constitution	-10.0503
▁Basnet	-10.0507
▁losing	-10.0507
▁identified	-10.0511
ov	-10.0514
▁actually	-10.0518
▁flight	-10.0519
ash	-10.0521
▁Football	-10.0521
▁UCPN	-10.0526
▁2004	-10.0545
▁falling	-10.0555
gg	-10.0555
mal	-10.0555
▁Ki	-10.0556
▁memory	-10.0557
uk	-10.0557
▁wishes	-10.0558
▁shocked	-10.0564
▁guilty	-10.0573
▁discrimination	-10.0582
▁la	-10.0589
▁ordered	-10.0596
▁Afghanistan	-10.0597
▁35	-10.0597
▁expect	-10.0611
▁Va	-10.0612
▁straight	-10.0612
▁Division	-10.0613
▁bear	-10.062
▁requires	-10.0623
▁trip	-10.0624
mit	-10.063
▁trial	-10.0633
▁MP	-10.0636
▁bought	-10.0648
▁troops	-10.0652
fa	-10.0656
▁dark	-10.0662
▁block	-10.0663
▁girls	-10.0669
▁invest	-10.0673
▁conducting	-10.0676
▁chairperson	-10.0677
▁enjoy	-10.0683
▁Trade	-10.0683
▁northern	-10.0689
▁Ya	-10.0691
▁villages	-10.0706
▁fifth	-10.071
▁pa	-10.071
▁Rupees	-10.073
▁ancient	-10.0734
▁weather	-10.0741
▁contribution	-10.0748
▁Bhaktapur	-10.0751
▁diplomatic	-10.0755
back	-10.0755
▁Ni	-10.0761
▁certainly	-10.0762
▁Representatives	-10.0766
▁Bha	-10.0769
val	-10.077
mer	-10.0772
▁affect	-10.0776
▁Senate	-10.0778
▁worker	-10.078
▁achieved	-10.0787
▁register	-10.0792
▁code	-10.0798
▁minute	-10.0804
hal	-10.0805
▁caught	-10.0808
▁load	-10.0808
▁ban	-10.0811
▁silver	-10.0813
▁pick	-10.0814
▁expand	-10.0818
▁Four	-10.0822
▁Janakpur	-10.0823
▁provides	-10.0828
▁Ti	-10.0829
▁Are	-10.083
▁shooting	-10.0832
▁arms	-10.0833
▁Panchayat	-10.0833
▁distance	-10.0833
▁Medical	-10.0834
▁Research	-10.0851
▁presidential	-10.0854
▁challenges	-10.0863
▁ha	-10.0865
▁hall	-10.0867
▁Among	-10.087
▁skin	-10.0881
▁ran	-10.0882
▁achieve	-10.0889
▁Sun	-10.0902
▁secret	-10.0906
▁spot	-10.091
▁Karnali	-10.0912
▁asking	-10.0927
▁resolved	-10.0928
▁extra	-10.094
▁Ad	-10.0943
▁greater	-10.0947
▁worried	-10.0948
▁Force	-10.0953
▁Pun	-10.0954
▁draft	-10.0965
▁formation	-10.0966
▁obtain	-10.097
▁fill	-10.0973
▁repair	-10.0979
▁imp	-10.0983
▁everywhere	-10.0986
▁association	-10.0987
▁Bista	-10.1007
▁businessmen	-10.1008
▁imposed	-10.1009
▁po	-10.1014
▁NO	-10.1017
▁Brown	-10.1017
▁winter	-10.1021
▁Dalit	-10.1032
ger	-10.1033
▁grant	-10.1038
hy	-10.1041
kha	-10.1044
▁shared	-10.1048
▁circumstances	-10.1054
▁consumption	-10.1054
▁particularly	-10.1057
ites	-10.1064
▁Sal	-10.1064
▁hot	-10.1066
▁watching	-10.1073
▁...	-10.108
elecommunication	-10.1086
sion	-10.1094
▁leaves	-10.1094
▁column	-10.1097
▁sites	-10.1104
ions	-10.1108
▁Republican	-10.1116
▁Ku	-10.1117
▁messages	-10.1121
▁forever	-10.1123
▁Cannot	-10.1129
▁Speaking	-10.1139
▁assembly	-10.1139
▁ro	-10.1141
over	-10.1141
▁advice	-10.1145
▁procurement	-10.1145
▁fake	-10.1147
ile	-10.1148
▁fruit	-10.1153
▁depend	-10.1156
governmental	-10.1164
ight	-10.117
cotsman	-10.1173
▁Sen	-10.1189
ini	-10.1192
▁En	-10.1207
▁improvement	-10.1213
▁sacrifice	-10.1216
▁arranged	-10.1218
▁panel	-10.122
▁succeeded	-10.1221
tar	-10.1222
▁deliver	-10.1246
▁managed	-10.1247
▁entrepreneurs	-10.1247
ph	-10.1253
pani	-10.1256
▁Amendment	-10.1256
▁proved	-10.1257
▁Nepalgunj	-10.1261
▁rock	-10.1265
▁forget	-10.1265
▁Ke	-10.1269
▁advantages	-10.1271
▁Social	-10.1273
jan	-10.1276
▁knows	-10.1277
▁Youth	-10.1277
▁league	-10.1289
▁height	-10.1291
▁2005	-10.1291
▁entering	-10.1292
▁exit	-10.1293
use	-10.1294
▁traders	-10.1296
▁widespread	-10.1302
▁Ca	-10.1303
▁indigenous	-10.1307
▁Sports	-10.1309
ever	-10.1321
▁campus	-10.1322
▁German	-10.1322
▁Michael	-10.1323
▁extent	-10.1324
ara	-10.1329
▁labour	-10.1334
▁drawn	-10.1336
▁rescue	-10.1346
▁participating	-10.1356
▁meters	-10.1357
▁alleged	-10.1368
iv	-10.137
▁lawmakers	-10.1375
▁Madhesh	-10.1378
▁album	-10.1378
▁alive	-10.1381
eshwar	-10.1381
said	-10.1384
▁broke	-10.1386
▁Dang	-10.1393
▁material	-10.1399
▁li	-10.1408
▁tournament	-10.1411
▁Maha	-10.1415
▁criteria	-10.1417
▁Dis	-10.142
▁Morang	-10.1423
low	-10.143
▁Looking	-10.143
▁external	-10.1439
▁Sp	-10.1455
▁heritage	-10.1455
▁ambassador	-10.1466
▁Tharu	-10.1482
▁iron	-10.1483
dev	-10.1488
▁Majesty	-10.1494
▁mistake	-10.1497
▁upper	-10.1501
▁destination	-10.1507
▁recovered	-10.1516
gar	-10.1522
su	-10.1523
▁Ganesh	-10.1523
▁surprised	-10.1525
▁gets	-10.1531
▁Kan	-10.1538
▁prove	-10.1543
▁George	-10.1544
▁units	-10.1546
▁Malla	-10.1546
30	-10.1548
▁species	-10.1555
qui	-10.1556
▁Robert	-10.1561
▁mutual	-10.1562
▁edge	-10.1562
▁attacked	-10.1566
▁location	-10.1569
▁Devi	-10.157
q	-10.1583
▁completion	-10.1594
▁learned	-10.1595
00	-10.1596
▁Mohan	-10.1607
▁centre	-10.1608
▁Its	-10.1612
▁taxes	-10.1617
▁Body	-10.1618
▁note	-10.1625
▁miles	-10.1629
▁complex	-10.1632
▁elsewhere	-10.1634
vin	-10.1636
▁software	-10.1645
▁introduced	-10.1648
bit	-10.1664
mar	-10.1666
▁rent	-10.1666
▁Saudi	-10.1676
▁standards	-10.1679
▁cell	-10.1682
▁heaven	-10.1686
▁soul	-10.1686
Ma	-10.1695
ala	-10.1698
▁Joseph	-10.1707
▁2,	-10.1709
▁micro	-10.1713
▁occurred	-10.1713
▁chosen	-10.1722
▁Fi	-10.1722
▁properly	-10.1724
▁gift	-10.1725
▁Tu	-10.1726
▁finished	-10.1726
ned	-10.1727
▁fulfilled	-10.1728
▁Gazette	-10.173
▁options	-10.1737
▁teach	-10.1739
▁characters	-10.174
-3	-10.1743
▁Agriculture	-10.1747
▁writer	-10.1752
▁singing	-10.1753
nce	-10.1763
▁4.	-10.1764
▁device	-10.1765
nk	-10.1776
run	-10.1778
▁corrupt	-10.1779
▁mis	-10.1786
ec	-10.1789
▁gathering	-10.1793
▁initial	-10.1794
▁seat	-10.1794
▁accidentally	-10.1799
▁3,000	-10.1806
row	-10.1807
▁Korean	-10.1808
ren	-10.1812
▁EU	-10.1814
▁drop	-10.1814
▁twice	-10.1815
▁dropped	-10.1816
ey	-10.1819
▁academic	-10.1821
▁critical	-10.1827
▁existence	-10.1833
▁foundation	-10.1834
▁decline	-10.1835
▁gender	-10.1839
▁banking	-10.1846
▁2006	-10.1848
▁chemical	-10.1861
aya	-10.1864
kh	-10.1865
▁seriously	-10.1873
▁conversation	-10.1873
▁Hong	-10.1876
▁plays	-10.1877
▁fresh	-10.1879
▁Insurance	-10.1882
cing	-10.1884
▁burden	-10.1884
▁ownership	-10.1885
rate	-10.1885
▁Ban	-10.1887
▁Transport	-10.1889
▁deployed	-10.189
▁whatever	-10.1891
▁Time	-10.1895
nagar	-10.1895
▁Centre	-10.1896
▁pace	-10.1897
▁permit	-10.1899
▁bottom	-10.19
▁mo	-10.1901
▁rid	-10.1903
▁Good	-10.1904
▁Out	-10.1906
▁worse	-10.1913
▁2015	-10.1915
▁editor	-10.1915
▁tower	-10.1919
▁script	-10.1921
lam	-10.193
ction	-10.1931
▁Pushpa	-10.1931
▁3.	-10.1935
oth	-10.194
▁Zone	-10.1944
▁machine	-10.1952
▁heat	-10.1954
▁Sir	-10.196
▁meetings	-10.1966
▁Hotel	-10.1966
▁Mon	-10.1976
▁buildings	-10.1977
▁temporary	-10.1983
▁southern	-10.1983
▁45	-10.1992
ice	-10.1997
pt	-10.1997
▁500	-10.1998
▁associated	-10.1999
▁corporation	-10.2001
▁contributed	-10.2006
▁Shri	-10.2007
▁di	-10.2007
▁Second	-10.2017
▁plane	-10.2018
▁Investigation	-10.2018
▁Mark	-10.2019
▁trend	-10.202
▁provincial	-10.2036
▁satisfied	-10.2036
▁objectives	-10.2036
▁stressed	-10.2044
▁Mi	-10.2055
▁acts	-10.2055
vis	-10.2056
▁gate	-10.2057
▁File	-10.206
▁Cricket	-10.2065
▁declaration	-10.2065
▁dust	-10.207
▁wild	-10.2071
▁connect	-10.2081
▁vegetables	-10.2083
▁Lumbini	-10.2083
▁tired	-10.2089
▁Everyone	-10.2091
▁centers	-10.2091
▁identify	-10.2094
▁anywhere	-10.2097
▁sensitive	-10.2101
▁threat	-10.2112
▁Food	-10.2112
▁rivers	-10.2115
▁terror	-10.2128
ira	-10.2129
▁driving	-10.213
▁electronic	-10.2136
tel	-10.2139
▁danger	-10.2142
▁concluded	-10.2144
▁strength	-10.2144
▁Shi	-10.2144
▁mixed	-10.2146
▁encourage	-10.216
▁activists	-10.216
▁advantage	-10.2163
fo	-10.2167
▁competitive	-10.2171
▁Madhav	-10.2171
▁winner	-10.2191
▁described	-10.2194
▁vi	-10.2202
▁Real	-10.2204
if	-10.2207
▁Apple	-10.2207
▁earnings	-10.2209
▁cinema	-10.2213
▁symbol	-10.2216
▁broadcast	-10.2219
▁revealed	-10.2226
▁wind	-10.2226
▁Unable	-10.2228
▁Green	-10.2231
uch	-10.2231
▁hospitals	-10.2235
▁imported	-10.2236
▁figure	-10.2237
▁unless	-10.2245
▁score	-10.2246
▁Z	-10.225
▁Address	-10.2255
▁vision	-10.2259
▁disabled	-10.2263
▁voters	-10.2266
▁businesses	-10.2277
▁assistant	-10.2282
▁federalism	-10.2283
▁experienced	-10.2287
▁peaceful	-10.2291
▁spoken	-10.2291
▁Pre	-10.2292
ila	-10.2293
▁arrangement	-10.2298
▁Los	-10.2299
ged	-10.2302
cr	-10.2303
▁Election	-10.2309
▁tribe	-10.2309
ev	-10.2312
▁please	-10.2313
▁bread	-10.2316
uwa	-10.2325
▁origin	-10.2326
▁Financial	-10.2327
▁confusion	-10.2327
▁walked	-10.2328
▁Ten	-10.2332
▁Pradhan	-10.2333
bal	-10.2337
▁Society	-10.2339
mor	-10.2344
▁burn	-10.2345
▁hydropower	-10.2345
▁disaster	-10.2347
▁brain	-10.2359
▁actions	-10.2363
▁button	-10.2365
▁scientific	-10.2369
▁suddenly	-10.2373
▁valid	-10.2374
ious	-10.2375
▁surface	-10.2375
ory	-10.2376
▁James	-10.2378
▁Ministers	-10.2381
ek	-10.2382
▁$3	-10.2387
list	-10.2388
▁preparations	-10.2389
▁fields	-10.239
▁celebrated	-10.2396
▁taught	-10.2406
▁transferred	-10.2413
▁print	-10.2419
▁audit	-10.2426
▁transaction	-10.2427
▁terrible	-10.243
▁band	-10.2431
par	-10.2435
▁garden	-10.2436
▁individuals	-10.2442
ual	-10.2447
▁Energy	-10.2448
▁bag	-10.2452
▁wine	-10.2456
▁2003	-10.2459
jo	-10.2463
▁Kong	-10.2464
▁Article	-10.2466
▁ho	-10.2476
▁achievement	-10.2479
▁visited	-10.2483
▁smoke	-10.2485
▁criticism	-10.2485
▁square	-10.2486
▁Later	-10.2493
▁foreigners	-10.2493
▁Until	-10.2498
work	-10.2502
▁Save	-10.2508
AN	-10.2511
▁regime	-10.2513
▁assist	-10.2518
▁politicians	-10.252
▁Paris	-10.253
ima	-10.2533
▁underway	-10.2537
▁photo	-10.2538
aha	-10.2547
▁principles	-10.2548
▁pictures	-10.2549
▁residence	-10.2553
▁compete	-10.2554
▁features	-10.2555
ker	-10.2559
▁log	-10.256
▁friendly	-10.2564
▁Ambassador	-10.2571
▁scale	-10.2572
▁suit	-10.258
▁2007,	-10.2581
▁Business	-10.2583
▁Ge	-10.2585
▁putting	-10.2586
▁automatically	-10.259
40	-10.2594
No	-10.2604
▁Dar	-10.2605
▁fashion	-10.2607
▁directory	-10.2607
▁tendency	-10.2609
▁Life	-10.2619
▁32	-10.2621
▁Hill	-10.2622
▁offence	-10.2631
▁1959	-10.2633
ator	-10.2633
▁buying	-10.2638
▁Bas	-10.2644
▁sta	-10.2647
▁villagers	-10.265
▁proceed	-10.2656
▁Report	-10.2657
▁struck	-10.2658
ada	-10.2659
▁mainly	-10.266
▁wish	-10.2661
▁Sherpa	-10.2667
▁cutting	-10.267
▁Inspector	-10.2677
▁Over	-10.2679
▁priests	-10.2684
act	-10.269
▁Magar	-10.2695
▁blue	-10.2696
▁treaty	-10.2697
▁requested	-10.2699
ins	-10.27
▁mission	-10.2703
▁admitted	-10.2709
▁advertising	-10.2715
▁enemy	-10.2715
▁installed	-10.2715
But	-10.2716
ier	-10.2719
pra	-10.2724
▁hidden	-10.2733
▁Program	-10.2736
era	-10.274
▁hunger	-10.274
▁ongoing	-10.274
adi	-10.274
▁cabinet	-10.2746
▁roof	-10.2753
▁expert	-10.2755
▁Han	-10.2755
▁usually	-10.2756
▁communist	-10.2759
▁pollution	-10.2765
ably	-10.2768
▁crops	-10.2769
▁flying	-10.2774
▁letters	-10.2776
ew	-10.2787
▁deputy	-10.279
▁institute	-10.279
▁Subedi	-10.279
lal	-10.279
10	-10.2791
▁estimate	-10.2792
ze	-10.2795
▁feature	-10.2803
▁partnership	-10.2803
▁resident	-10.2808
▁securities	-10.2815
▁Arab	-10.2816
▁sugar	-10.2816
▁collecting	-10.2818
long	-10.2819
▁80	-10.2821
▁resolution	-10.2822
az	-10.2823
▁Apart	-10.2828
▁Cha	-10.2833
▁custody	-10.2834
▁definitely	-10.2834
▁wave	-10.2837
▁customer	-10.284
▁recognized	-10.2843
▁stability	-10.2847
ale	-10.2849
▁Currently	-10.285
▁tour	-10.2851
▁fit	-10.2867
▁par	-10.2867
lic	-10.2872
▁images	-10.2874
▁Ramesh	-10.2875
60	-10.288
gen	-10.2882
▁concrete	-10.2885
▁transportation	-10.2891
▁BBC	-10.2892
▁feed	-10.2892
yo	-10.2897
UPI	-10.2898
▁learning	-10.29
▁practices	-10.2901
bin	-10.2903
▁County	-10.2911
▁bright	-10.2912
▁assets	-10.2912
▁Oct	-10.292
▁excellent	-10.2924
atar	-10.2924
▁unique	-10.2924
▁visiting	-10.2926
▁institutional	-10.2936
▁Bikram	-10.2937
▁Kar	-10.2942
▁praise	-10.2946
▁quite	-10.2947
▁Art	-10.2948
▁dismissed	-10.2951
▁previously	-10.2953
▁yards	-10.2953
▁70	-10.2956
zi	-10.2969
▁promised	-10.2969
len	-10.2971
▁systems	-10.2972
▁u	-10.2976
▁terrorist	-10.298
▁Province	-10.2981
▁deficit	-10.2981
▁Ben	-10.2983
ens	-10.2992
▁penalty	-10.2994
▁flag	-10.2995
ks	-10.2996
▁Google	-10.3007
▁stolen	-10.3008
▁suitable	-10.3009
▁pure	-10.3012
▁Wal	-10.3012
▁plastic	-10.3014
▁shortage	-10.3018
▁cast	-10.3024
▁atmosphere	-10.3027
▁Exchange	-10.3033
▁Technology	-10.3033
▁grew	-10.3033
▁Judge	-10.3033
▁Embassy	-10.304
▁perhaps	-10.304
▁raw	-10.3043
▁stick	-10.3052
dar	-10.3058
▁interesting	-10.3059
▁summit	-10.3059
▁governor	-10.306
▁terrorism	-10.3063
▁emotional	-10.3066
▁conservation	-10.3072
▁Y	-10.3073
▁Mc	-10.3081
▁Par	-10.3085
▁couldn	-10.3085
▁Peter	-10.3085
▁Cho	-10.3096
▁consciousness	-10.3099
▁poems	-10.3099
▁extended	-10.31
▁Pan	-10.3102
▁Muslim	-10.3103
▁fans	-10.3104
▁warning	-10.3105
▁tests	-10.3108
▁regions	-10.311
pha	-10.3111
▁Obama	-10.3111
▁banned	-10.3118
▁Gar	-10.3127
▁writers	-10.3129
ns	-10.3144
▁detained	-10.3147
▁principle	-10.3149
▁shape	-10.315
▁package	-10.315
▁recommended	-10.3152
▁poetry	-10.3152
wo	-10.3157
▁sat	-10.3161
▁celebrate	-10.3167
▁via	-10.317
▁Democrats	-10.3172
cent	-10.3175
▁Gra	-10.3176
▁paddy	-10.3177
▁MPs	-10.3184
▁Ali	-10.3185
▁annually	-10.3188
▁mechanism	-10.319
▁burnt	-10.3192
▁3-	-10.3193
▁Turkey	-10.3196
▁elderly	-10.3199
iah	-10.3209
▁Singapore	-10.3216
kin	-10.3217
▁prize	-10.3217
cal	-10.3227
▁attractive	-10.3231
ability	-10.3235
▁honored	-10.3237
▁birds	-10.3239
▁Jacob	-10.3249
pal	-10.3254
▁serving	-10.3256
ery	-10.3261
▁Metropolitan	-10.3278
▁appoint	-10.328
▁dog	-10.3283
▁stress	-10.3284
▁Without	-10.3287
half	-10.3289
▁sick	-10.3291
▁listening	-10.3293
▁Corp	-10.3294
▁street	-10.3297
▁Baburam	-10.3303
▁rejected	-10.3307
▁hilly	-10.3317
wn	-10.3324
▁touch	-10.3333
▁semi	-10.3335
▁Mah	-10.3336
▁bull	-10.3339
▁suspended	-10.3345
▁Americans	-10.3345
▁attraction	-10.3346
▁Create	-10.3347
▁joy	-10.335
ika	-10.3351
NC	-10.3353
▁initially	-10.3361
▁framed	-10.3361
▁Photo	-10.3362
▁deposit	-10.3373
▁Add	-10.3375
▁zero	-10.3376
▁tenure	-10.3379
▁Test	-10.3402
▁injury	-10.3403
ili	-10.3404
▁decreased	-10.3411
▁signs	-10.3416
▁fly	-10.342
▁Buddhist	-10.3429
▁Musharraf	-10.3429
▁push	-10.3433
▁length	-10.3434
▁coalition	-10.3436
dhi	-10.3442
Re	-10.3443
▁wasn	-10.3443
▁Global	-10.345
▁chest	-10.345
▁Associate	-10.3456
▁strategic	-10.346
▁tribes	-10.3463
▁supporters	-10.3475
▁professor	-10.3477
▁silent	-10.3477
ib	-10.3477
▁implementing	-10.3477
▁nearby	-10.3479
▁preparation	-10.3482
▁folk	-10.3483
▁digital	-10.3483
▁Scotland	-10.3484
▁glory	-10.3484
▁icon	-10.3487
▁Book	-10.3496
▁Gold	-10.3496
▁Ham	-10.3496
▁hill	-10.3497
▁chair	-10.3502
▁agent	-10.3511
▁protests	-10.3511
▁hat	-10.3513
house	-10.3516
▁Ran	-10.3517
uff	-10.3517
▁applicant	-10.3517
▁passport	-10.3518
▁inform	-10.3527
17	-10.3528
▁Senior	-10.3531
▁monitor	-10.3533
▁stream	-10.3536
▁attorney	-10.3538
▁sustainable	-10.3539
▁extend	-10.354
▁2017	-10.354
▁Revenue	-10.3545
▁seventh	-10.3545
yard	-10.3548
▁African	-10.355
▁Himalayas	-10.3551
▁intellectual	-10.3552
▁entitled	-10.3558
mail	-10.356
▁accordingly	-10.3567
▁violent	-10.3567
▁bilateral	-10.3572
▁description	-10.3572
▁restaurant	-10.3573
▁Campus	-10.3573
▁Enter	-10.3574
▁effects	-10.3574
▁Republic	-10.3581
▁household	-10.3583
ula	-10.3585
▁altar	-10.3586
▁inspection	-10.3588
▁200	-10.3589
del	-10.3596
▁habit	-10.3601
▁neighboring	-10.3601
▁seeds	-10.3601
▁protected	-10.3605
▁fallen	-10.3605
▁producer	-10.3609
▁exhibition	-10.3622
▁sword	-10.3624
▁Deepak	-10.3628
ney	-10.3631
▁useful	-10.3638
▁Team	-10.3638
▁receipt	-10.3647
▁apply	-10.3648
▁pieces	-10.365
▁complaints	-10.3657
▁Investment	-10.3661
▁Chamber	-10.3661
well	-10.3662
▁Middle	-10.3668
▁Rajendra	-10.3669
▁bond	-10.367
my	-10.3674
ill	-10.3675
und	-10.3678
▁faced	-10.3678
They	-10.3679
00,000	-10.3679
▁printed	-10.368
▁Will	-10.369
▁talent	-10.3694
▁tough	-10.3696
75	-10.3704
▁DR	-10.3704
▁Mandal	-10.3707
▁liberal	-10.3708
lt	-10.3713
▁lawyer	-10.3715
▁infection	-10.3716
▁procedure	-10.372
▁skilled	-10.372
uni	-10.3723
▁exceeding	-10.3723
▁entity	-10.3723
▁grade	-10.3724
▁em	-10.3725
▁cheap	-10.3727
board	-10.3729
▁Ash	-10.3735
▁catch	-10.3736
▁Foundation	-10.3738
▁Rural	-10.3738
▁heads	-10.3745
▁daughters	-10.375
pu	-10.375
▁Bhutan	-10.3759
▁expanded	-10.376
ration	-10.3763
▁brief	-10.3769
▁System	-10.3772
▁monthly	-10.378
▁Butwal	-10.378
▁Beijing	-10.3786
▁welcome	-10.3798
▁exist	-10.3799
▁camera	-10.3799
▁Black	-10.3799
dal	-10.3802
▁businessman	-10.3805
▁consent	-10.3807
▁flowers	-10.3814
▁considering	-10.3815
▁incidents	-10.3818
▁studied	-10.3821
▁mail	-10.3822
▁designed	-10.3825
▁sand	-10.3825
▁trained	-10.3826
▁Meeting	-10.3828
▁neighbor	-10.3832
▁opposed	-10.3838
▁recommend	-10.3839
▁harm	-10.3839
▁decrease	-10.384
▁Capital	-10.3842
▁denied	-10.3849
▁injuries	-10.3849
▁Italy	-10.385
▁rising	-10.3864
▁storm	-10.3866
▁producing	-10.3867
▁simply	-10.387
▁encouraged	-10.3875
▁auto	-10.3878
▁elements	-10.3878
▁dignity	-10.3891
▁aspect	-10.3892
▁2000	-10.3893
pen	-10.3894
▁offers	-10.3896
▁maintenance	-10.3898
iti	-10.39
▁bo	-10.3902
ute	-10.3904
▁affiliated	-10.3904
tin	-10.3917
▁designated	-10.3918
determination	-10.3919
nes	-10.3921
ue	-10.3923
▁champion	-10.3926
▁string	-10.3927
▁Electricity	-10.3927
▁resource	-10.3935
pati	-10.3939
car	-10.3939
-4	-10.3945
▁sort	-10.3949
▁attended	-10.3951
▁Construction	-10.3956
ium	-10.3957
▁ideal	-10.3961
▁actress	-10.3962
lar	-10.3963
▁2016	-10.3964
▁newly	-10.3965
▁measure	-10.3966
▁Saul	-10.3966
▁isn	-10.3969
▁stated	-10.3974
▁eventually	-10.3976
▁multiple	-10.3978
▁proud	-10.3978
▁Work	-10.3983
▁fundamental	-10.3983
▁Ji	-10.3985
▁Bara	-10.3988
▁separated	-10.3989
▁channel	-10.3993
thi	-10.3993
▁smooth	-10.3995
▁initiated	-10.3997
▁link	-10.3997
▁awarded	-10.3998
▁surrounding	-10.4003
set	-10.4006
▁Gopal	-10.4006
▁Parsa	-10.4011
▁Regional	-10.4011
▁surgery	-10.4013
▁investigate	-10.4017
▁Pant	-10.4019
▁Smith	-10.4019
▁flood	-10.402
▁Trust	-10.402
▁seats	-10.4026
▁integrated	-10.4029
Don	-10.4032
ear	-10.4034
dh	-10.4039
▁promoting	-10.404
When	-10.4042
▁Son	-10.4044
▁aim	-10.4047
▁thirty	-10.4048
▁treat	-10.4056
▁transactions	-10.4059
▁dollar	-10.4062
▁recognition	-10.4062
▁password	-10.4062
iz	-10.4063
▁ill	-10.4066
▁scheme	-10.4073
▁slogan	-10.4088
▁Seventh	-10.4088
▁Far	-10.4088
▁weekend	-10.409
▁thick	-10.4091
▁involvement	-10.4092
ush	-10.4093
▁Christian	-10.4103
▁extreme	-10.4106
▁Science	-10.411
▁dangerous	-10.4112
▁alliance	-10.4112
▁pension	-10.4113
je	-10.4113
▁photos	-10.4115
▁schedule	-10.4118
▁philosophy	-10.412
▁shut	-10.4121
spec	-10.4123
sen	-10.4129
▁menu	-10.413
▁bird	-10.4132
▁figures	-10.4135
▁Region	-10.4136
▁detailed	-10.4137
▁Johnson	-10.4137
▁marks	-10.4143
▁instance	-10.4149
▁grants	-10.4152
io	-10.4155
aka	-10.4157
▁republic	-10.416
01	-10.4164
▁Conference	-10.417
▁taste	-10.4171
dan	-10.418
▁argument	-10.4199
▁Shakya	-10.4207
▁Control	-10.4212
▁enemies	-10.4214
▁spring	-10.4214
▁Sim	-10.4216
▁succeed	-10.4221
▁Eastern	-10.4228
▁losses	-10.423
▁reasonable	-10.4232
▁sixth	-10.4238
▁contains	-10.4238
▁entrepreneur	-10.4239
ible	-10.4254
▁signature	-10.4258
▁personality	-10.4263
▁thus	-10.4265
▁ra	-10.4267
▁mention	-10.427
▁Bhim	-10.4272
og	-10.4274
▁Miss	-10.4278
▁Dashain	-10.428
▁sheep	-10.4282
▁resolve	-10.4293
▁Gyawali	-10.4294
▁category	-10.4294
▁fraud	-10.4294
serv	-10.4295
▁maintaining	-10.4301
▁marry	-10.4303
▁peak	-10.4303
▁allocated	-10.4306
▁completing	-10.4309
▁Kingdom	-10.431
head	-10.4313
▁distribute	-10.4315
▁Syria	-10.4318
▁Again	-10.4318
▁commencement	-10.4324
▁gu	-10.4328
▁Aryal	-10.4333
▁dress	-10.4338
▁commander	-10.4339
▁Lanka	-10.434
▁blame	-10.4345
mani	-10.4348
▁contractor	-10.4351
▁Planning	-10.4357
▁count	-10.4357
▁allegations	-10.4359
▁differences	-10.436
▁Each	-10.4365
▁contest	-10.4368
▁Change	-10.4369
▁belief	-10.4371
cur	-10.4371
▁NC	-10.4372
clock	-10.4379
▁provinces	-10.4381
▁rape	-10.4384
▁33	-10.4386
▁kinds	-10.4389
▁cards	-10.4397
▁fi	-10.44
▁complained	-10.4401
▁wise	-10.4403
▁row	-10.4408
▁Radio	-10.4408
▁Nov	-10.4411
▁highly	-10.4419
▁shops	-10.4423
▁talked	-10.4427
▁id	-10.443
My	-10.443
▁pitch	-10.4434
▁Jordan	-10.4442
▁Labor	-10.4443
org	-10.4444
▁languages	-10.4447
ick	-10.4447
▁Bel	-10.4452
top	-10.4453
▁Sushil	-10.4455
▁intelligence	-10.4457
▁mostly	-10.4459
▁Van	-10.4464
▁stomach	-10.4465
▁Up	-10.4467
hand	-10.447
▁Pashupati	-10.4471
eg	-10.4474
▁Though	-10.4477
▁census	-10.448
▁marketing	-10.4481
▁Economic	-10.4495
▁intervention	-10.4495
▁tackle	-10.4495
▁grand	-10.4496
▁Gulf	-10.4496
▁piece	-10.4496
▁floods	-10.4499
▁sight	-10.4502
▁narrow	-10.4502
▁reducing	-10.4502
▁Pvt	-10.4502
▁BS	-10.4502
like	-10.4503
gn	-10.4503
▁Highway	-10.4503
▁Dec	-10.4512
▁formula	-10.4514
▁procession	-10.4515
lor	-10.4517
▁engine	-10.4519
▁qualification	-10.4523
dic	-10.4525
15	-10.4529
▁amounts	-10.4533
▁poem	-10.4539
▁lies	-10.454
▁cars	-10.4541
▁matches	-10.4548
▁invited	-10.455
endra	-10.4554
▁pride	-10.4556
▁counter	-10.4556
▁purposes	-10.4558
▁punished	-10.456
▁Indra	-10.4566
▁stayed	-10.4568
▁explain	-10.457
ising	-10.4571
▁Ed	-10.4571
▁structures	-10.4572
▁ear	-10.4573
ld	-10.458
▁Sea	-10.4583
▁jurisdiction	-10.4585
▁Once	-10.4588
▁sheet	-10.459
▁Yet	-10.459
▁promise	-10.4592
▁Regmi	-10.4593
▁holiday	-10.46
avi	-10.4601
▁Inter	-10.4601
bil	-10.4606
▁dialog	-10.4608
▁require	-10.4608
▁escape	-10.4615
▁Myanmar	-10.4615
▁railway	-10.4616
▁2018	-10.4617
▁Surya	-10.4617
zz	-10.4622
▁principal	-10.4623
form	-10.4623
▁fled	-10.4628
▁(1	-10.463
▁addressed	-10.463
ps	-10.4643
▁misconduct	-10.4646
▁flights	-10.465
▁shadow	-10.4653
fer	-10.4657
▁Father	-10.4659
teen	-10.466
▁petition	-10.4661
▁Bhu	-10.4666
▁PRNewswire	-10.4668
ctor	-10.4672
▁Third	-10.4674
▁failing	-10.4679
▁noise	-10.4679
▁License	-10.4684
▁donor	-10.4685
▁rally	-10.4693
ency	-10.4694
▁delivery	-10.4695
▁tied	-10.4697
▁island	-10.47
▁hide	-10.4705
una	-10.471
▁helping	-10.471
▁episode	-10.4714
▁delivered	-10.4715
▁2002	-10.473
▁Shahi	-10.4733
down	-10.4735
▁retirement	-10.4738
pre	-10.4739
Nepal	-10.474
▁pair	-10.4741
▁Madan	-10.4744
▁Kim	-10.4746
▁Yu	-10.4748
▁ka	-10.4759
member	-10.4759
▁Star	-10.4764
▁medicine	-10.4764
▁saving	-10.4765
▁advocate	-10.4768
▁extension	-10.4768
▁customary	-10.4777
▁sentence	-10.4779
▁argued	-10.4787
▁savings	-10.4796
▁withdraw	-10.4796
▁quick	-10.4797
▁publishing	-10.48
▁laid	-10.4801
vas	-10.4801
▁establishing	-10.4804
▁testing	-10.4804
▁Kantipur	-10.4807
▁Pat	-10.4814
▁capable	-10.4824
▁hotels	-10.4825
▁Shankar	-10.4831
▁guard	-10.4832
▁Ab	-10.4832
▁guide	-10.4837
ako	-10.4847
▁Jones	-10.4848
tr	-10.4852
▁wealth	-10.4853
▁reputation	-10.4853
▁managing	-10.4853
ong	-10.4853
▁consultation	-10.4854
▁Six	-10.4855
▁strongly	-10.4857
▁Thousand	-10.4859
▁ordinary	-10.486
▁Bhutto	-10.4861
▁ruled	-10.4862
▁herself	-10.4867
▁declined	-10.4867
▁Airlines	-10.4869
qu	-10.4872
▁Sur	-10.4873
▁secondary	-10.4873
but	-10.4873
▁solutions	-10.4876
▁secure	-10.4876
▁Click	-10.4878
month	-10.4879
▁regularly	-10.4881
▁operator	-10.4883
▁crying	-10.4883
▁constantly	-10.4883
dom	-10.4884
▁PM	-10.4886
▁hectares	-10.4891
▁1959,	-10.4892
▁premises	-10.4892
▁hills	-10.49
put	-10.4901
▁kingdom	-10.4903
▁scattered	-10.4904
▁item	-10.4904
▁snow	-10.4912
hir	-10.4914
▁Along	-10.4916
▁chain	-10.4918
▁comments	-10.4921
▁BP	-10.4922
▁1990	-10.4925
▁Services	-10.4933
▁Seven	-10.4937
▁collective	-10.494
▁owned	-10.494
“	-10.4946
▁supporting	-10.4947
▁Note	-10.4951
▁households	-10.4954
▁investigating	-10.4955
▁pit	-10.4955
▁Dhan	-10.4956
▁presentation	-10.4958
▁organizer	-10.4965
▁Premier	-10.4971
▁grass	-10.4974
▁Neupane	-10.4978
▁Tom	-10.498
oc	-10.498
▁mine	-10.4982
▁Sch	-10.4992
18	-10.4992
▁Aaron	-10.4994
▁invested	-10.4997
▁ticket	-10.5002
▁neck	-10.501
▁falls	-10.5015
▁rebel	-10.5016
▁stones	-10.5019
▁none	-10.503
mark	-10.5032
▁Rajbiraj	-10.5033
▁arrival	-10.5033
▁cry	-10.5034
▁Sunsari	-10.5041
▁Canada	-10.5042
▁newspapers	-10.5042
ix	-10.5046
Now	-10.5047
▁Sikkim	-10.5049
▁younger	-10.5051
ified	-10.5052
▁targeted	-10.5052
▁sum	-10.5054
▁sharp	-10.5055
▁welfare	-10.5057
▁Ilam	-10.5058
pan	-10.5059
For	-10.5062
▁transmission	-10.5065
▁Arabia	-10.5066
▁Whatever	-10.5069
▁causes	-10.5071
▁angel	-10.5073
▁confused	-10.5073
▁rival	-10.5077
▁gods	-10.5081
▁label	-10.5083
▁Mu	-10.5084
▁seed	-10.5096
▁expectations	-10.5104
rah	-10.5104
▁Win	-10.5106
5,000	-10.5106
▁Part	-10.5108
making	-10.5109
▁telling	-10.5113
▁breast	-10.5113
▁Non	-10.5114
▁truck	-10.5116
▁hero	-10.5125
▁Barcelona	-10.5129
▁remuneration	-10.5129
▁widely	-10.5131
▁Ber	-10.5132
▁Just	-10.5133
▁Perhaps	-10.5137
▁solar	-10.5138
▁slightly	-10.5139
▁affairs	-10.514
▁kick	-10.5142
sis	-10.5144
▁Birendra	-10.5145
▁deadline	-10.5149
▁Tax	-10.5149
▁electric	-10.515
▁risks	-10.515
▁boost	-10.5153
▁Texas	-10.5153
ology	-10.5155
ami	-10.5168
▁conclusion	-10.5169
pl	-10.517
▁reporters	-10.5171
ata	-10.5177
▁judges	-10.5177
As	-10.5177
▁blocked	-10.518
▁Men	-10.518
gal	-10.5182
Mo	-10.5184
▁independence	-10.5185
▁obey	-10.5185
▁CEO	-10.5186
▁throw	-10.5189
▁Kumari	-10.5197
45	-10.5198
▁Florida	-10.5201
▁comp	-10.5202
▁email	-10.5203
rd	-10.5203
▁Tra	-10.5207
▁finding	-10.5208
▁Chicago	-10.5209
▁hopes	-10.5213
▁Failed	-10.5217
▁Lake	-10.5218
▁Martin	-10.5219
▁output	-10.5219
▁exam	-10.5219
ray	-10.522
▁older	-10.5222
▁adequate	-10.5225
▁Israeli	-10.5226
▁perfect	-10.5228
▁largely	-10.523
▁burning	-10.5233
▁Journalists	-10.5235
▁stars	-10.5238
▁Well	-10.5244
▁improving	-10.5249
▁deprived	-10.5251
▁Bu	-10.5251
▁fat	-10.5255
▁moral	-10.5256
▁displayed	-10.5259
▁handle	-10.5261
▁negotiations	-10.5261
▁ring	-10.5262
▁practical	-10.5263
▁imports	-10.5267
▁Armed	-10.5267
dha	-10.527
▁Mahato	-10.528
▁adopt	-10.5283
▁Palestinian	-10.5285
▁earning	-10.5285
▁imprisonment	-10.529
▁Italian	-10.529
right	-10.529
19	-10.5295
▁worry	-10.5298
▁recorded	-10.5306
▁Agency	-10.5306
hur	-10.5308
▁deceased	-10.5314
▁pm	-10.5328
▁Bishnu	-10.5331
▁Pu	-10.5336
▁calendar	-10.5338
▁committees	-10.5344
Do	-10.5345
▁reliable	-10.5347
▁contribute	-10.5347
▁engaged	-10.5349
gra	-10.535
▁Gyanendra	-10.5355
pri	-10.5355
▁Customs	-10.5356
▁salt	-10.5358
▁vacant	-10.5363
▁ob	-10.5365
▁pop	-10.5367
▁Market	-10.5367
▁burned	-10.5369
▁VDCs	-10.5371
▁Mahara	-10.5373
▁actual	-10.5373
▁Te	-10.5375
▁Staff	-10.5376
▁Shamsher	-10.5379
▁Spain	-10.5379
▁clothing	-10.5389
devi	-10.5397
▁plenty	-10.5404
▁visa	-10.5408
▁allowing	-10.541
▁retired	-10.5411
▁traveling	-10.5413
▁hole	-10.5416
▁discovered	-10.542
▁effectively	-10.5422
qua	-10.5425
▁fifty	-10.5429
▁entertainment	-10.5429
▁commanded	-10.5433
▁suggestions	-10.5436
▁Number	-10.5437
▁Tibet	-10.5441
▁eaten	-10.5448
tation	-10.5448
▁construct	-10.5449
ify	-10.5449
▁passing	-10.5453
▁Spirit	-10.5462
ena	-10.5462
▁suspension	-10.547
ments	-10.5471
▁factory	-10.5471
▁buried	-10.5478
▁auction	-10.5478
▁crop	-10.548
▁somewhere	-10.548
▁portion	-10.5486
▁contrary	-10.5487
▁mass	-10.5487
▁Ch	-10.5488
-5	-10.5489
▁punish	-10.5493
▁offense	-10.5496
▁(4)	-10.5496
▁comfortable	-10.5496
▁Prithvi	-10.5503
▁1979	-10.5503
▁happening	-10.5504
Ba	-10.5505
▁36	-10.5507
▁Nor	-10.551
▁Em	-10.5511
▁aggressive	-10.5511
▁collapse	-10.5512
lia	-10.5514
▁Movement	-10.5521
ea	-10.5523
▁Prince	-10.5524
▁attracted	-10.5525
▁occur	-10.5527
▁faces	-10.5528
▁finger	-10.5528
ants	-10.5529
▁cloud	-10.5532
mas	-10.5532
▁efficiency	-10.5533
▁convinced	-10.5533
▁journalism	-10.5537
▁Gi	-10.5538
▁fought	-10.5544
▁consultant	-10.5546
▁kids	-10.5547
▁express	-10.5552
▁sa	-10.5552
▁connecting	-10.5554
▁estate	-10.5554
▁lock	-10.5558
▁printing	-10.5561
var	-10.5561
▁cents	-10.5564
▁Vijay	-10.5569
▁postal	-10.5573
▁cooperative	-10.5575
-6	-10.5576
▁Kailali	-10.5578
▁protecting	-10.5582
▁Peace	-10.5583
▁Matt	-10.5586
▁lay	-10.5588
▁Za	-10.5589
▁degree	-10.5591
▁gain	-10.5591
▁articles	-10.5594
▁displaced	-10.5594
ug	-10.5595
▁percentage	-10.5599
hra	-10.5602
▁Thomas	-10.5603
80	-10.5605
12	-10.5605
▁crash	-10.5606
▁criticized	-10.5607
▁actor	-10.561
▁pointed	-10.5611
▁contain	-10.5615
▁factors	-10.5616
▁colleges	-10.5625
related	-10.5632
▁attract	-10.5634
TM	-10.5636
▁alarm	-10.5637
▁sufficient	-10.5638
▁fix	-10.5641
▁provider	-10.5641
▁coffee	-10.5645
▁Hindi	-10.5645
▁rebels	-10.5652
▁mandatory	-10.5653
▁Ver	-10.5653
▁strengthened	-10.5657
five	-10.5658
tta	-10.566
▁Oil	-10.5661
▁reforms	-10.5663
▁welcomed	-10.5664
▁Limited	-10.5665
▁Securities	-10.567
▁Arun	-10.5671
▁representation	-10.5672
▁aimed	-10.5673
▁Has	-10.5678
▁se	-10.5681
21	-10.5682
▁cu	-10.5684
▁Chhetri	-10.5687
▁circle	-10.5687
▁confirm	-10.5688
▁participants	-10.5695
▁Upadhyay	-10.5695
▁cha	-10.5699
▁emphasis	-10.5704
▁controlled	-10.5704
▁relevant	-10.5712
▁cycle	-10.5715
CC	-10.572
▁rehabilitation	-10.5721
▁disorder	-10.5721
▁Check	-10.5724
▁backward	-10.5727
24	-10.5729
▁fired	-10.573
▁alert	-10.5735
▁respond	-10.5736
▁controversy	-10.5738
▁pe	-10.5741
▁robbery	-10.5746
▁uncomfortable	-10.5746
ati	-10.575
▁notes	-10.5751
▁pilot	-10.5755
ition	-10.5756
▁timely	-10.5756
graph	-10.5761
▁34	-10.5769
had	-10.577
▁remittance	-10.5772
▁Left	-10.5774
▁Media	-10.5774
▁Wall	-10.5776
▁Com	-10.5779
▁scientists	-10.578
▁helicopter	-10.5781
sar	-10.5788
▁Spanish	-10.5789
▁wonder	-10.5789
70	-10.5795
▁wisdom	-10.5797
▁Rolpa	-10.5797
▁tons	-10.5799
▁courage	-10.5806
▁allows	-10.5808
▁mayor	-10.581
▁knowing	-10.5814
▁Conservation	-10.5814
▁Pakistani	-10.5814
▁courtyard	-10.5817
▁2007;	-10.5818
▁expanding	-10.5821
▁remembered	-10.5822
▁migrant	-10.5823
▁dedicated	-10.5825
▁Rock	-10.5826
50,000	-10.5827
▁twelve	-10.5831
▁settled	-10.5854
▁du	-10.5865
▁beaten	-10.587
▁toll	-10.5871
▁HIV	-10.5874
▁(20	-10.588
▁impossible	-10.5883
▁cattle	-10.5883
▁Mal	-10.5886
dra	-10.5889
▁Relat	-10.5892
▁ne	-10.5899
▁Sometimes	-10.5899
▁Legislature	-10.59
▁voting	-10.59
▁Narendra	-10.59
▁farm	-10.5901
▁boys	-10.5903
▁dam	-10.5906
▁suspected	-10.5919
ava	-10.5919
press	-10.5922
▁promoted	-10.5924
▁favorite	-10.5927
▁judicial	-10.5928
▁layer	-10.593
cept	-10.5932
11	-10.5934
▁1,000	-10.5934
hood	-10.5938
▁generally	-10.5941
tting	-10.5943
▁List	-10.5949
▁threatened	-10.5953
▁horse	-10.5956
▁applied	-10.5961
▁Angeles	-10.5964
▁planted	-10.5966
▁agitation	-10.5969
▁audio	-10.597
▁Super	-10.5974
▁Political	-10.5978
▁forgotten	-10.5978
istic	-10.5978
▁Mac	-10.5981
than	-10.599
▁ya	-10.5994
▁enthusiasm	-10.5996
▁Girija	-10.5998
▁Sita	-10.6004
▁Lamichhane	-10.6004
▁carrier	-10.6004
▁Hall	-10.601
▁update	-10.6018
▁Secretariat	-10.6022
▁forms	-10.6026
▁museum	-10.603
▁analysts	-10.6034
kan	-10.6036
▁rare	-10.6037
▁Twenty	-10.6039
▁reference	-10.6048
▁replace	-10.605
▁unknown	-10.605
▁bed	-10.6051
▁engineer	-10.6053
glass	-10.6055
▁dissatisfaction	-10.6057
▁skill	-10.6057
ez	-10.6059
▁Daily	-10.6062
Z	-10.6063
▁crimes	-10.6063
▁significantly	-10.6064
▁SAARC	-10.607
▁custom	-10.6073
▁profile	-10.6075
wing	-10.6077
▁element	-10.6082
▁protesters	-10.6082
▁innocent	-10.6092
▁geographical	-10.6093
▁passenger	-10.6098
▁Policy	-10.6101
▁volume	-10.6101
▁signal	-10.6102
▁Shu	-10.6107
▁equivalent	-10.6109
▁filter	-10.6109
▁tears	-10.6116
▁Cor	-10.6117
▁pan	-10.6118
▁theme	-10.6119
ueen	-10.6123
▁organs	-10.6128
book	-10.6129
▁sport	-10.6129
▁representing	-10.6131
73	-10.6135
▁solid	-10.6142
▁goddess	-10.6145
▁strict	-10.6152
▁$4	-10.6158
▁appearance	-10.6159
▁fathers	-10.616
▁Giuliani	-10.6162
▁Islamic	-10.6163
▁helps	-10.6167
▁Baghdad	-10.6171
▁glimpse	-10.6171
▁knee	-10.6171
▁creative	-10.6171
▁Bharat	-10.6173
ave	-10.6175
til	-10.6178
light	-10.6178
▁ja	-10.618
▁garbage	-10.618
▁complain	-10.6181
▁database	-10.6189
▁Jai	-10.619
▁massive	-10.6191
▁shift	-10.6193
▁Community	-10.6198
▁unusual	-10.6198
▁Babylon	-10.6198
▁properties	-10.6198
ox	-10.6203
lip	-10.6206
▁accompanied	-10.6207
▁sanitation	-10.6207
▁listed	-10.6209
ese	-10.6209
▁sleeping	-10.6215
▁temperature	-10.6216
▁Thailand	-10.6216
known	-10.622
▁obtaining	-10.6222
▁library	-10.6225
▁UAE	-10.6225
▁guest	-10.6226
▁le	-10.6234
▁rapid	-10.6242
▁methods	-10.6245
▁publicity	-10.6247
▁farmer	-10.6249
▁fail	-10.6251
room	-10.6252
▁destruction	-10.6253
65	-10.6257
▁leg	-10.6258
▁confident	-10.6258
▁Bagmati	-10.626
pos	-10.6261
▁poll	-10.6262
▁owners	-10.6265
▁compulsion	-10.6269
▁Joint	-10.6269
▁Aug	-10.627
▁branches	-10.6272
▁j	-10.6274
▁responded	-10.6275
▁mill	-10.6277
ugh	-10.6279
08	-10.628
▁interaction	-10.628
▁enable	-10.6285
▁shelter	-10.6287
▁worldwide	-10.629
2007	-10.6292
▁scandal	-10.6296
▁restructuring	-10.6314
▁laugh	-10.6315
uring	-10.6317
▁flat	-10.6323
▁struggling	-10.6323
▁Pradeep	-10.6323
▁Messi	-10.6327
05	-10.6336
▁concerning	-10.6339
▁issuing	-10.6342
▁Stock	-10.6342
▁RPP	-10.635
▁apple	-10.635
pon	-10.6352
▁obligation	-10.6353
▁sing	-10.6354
▁flowing	-10.6354
▁agreements	-10.6356
ON	-10.6361
▁Israelites	-10.6363
▁smart	-10.6368
▁warm	-10.6371
▁Make	-10.6372
ino	-10.6376
▁Singha	-10.6382
▁loved	-10.6392
▁nose	-10.6393
▁discussing	-10.6394
▁2001	-10.6395
can	-10.64
▁super	-10.6414
▁assessment	-10.6416
▁Tim	-10.6419
▁Gen	-10.6422
▁nomination	-10.6423
▁continuing	-10.6423
TA	-10.6426
▁consideration	-10.6431
net	-10.6431
▁subjects	-10.6431
▁va	-10.6438
▁discipline	-10.6439
cher	-10.6441
▁Darjeeling	-10.6441
▁tight	-10.6447
▁researchers	-10.6453
▁tent	-10.6455
▁meaningful	-10.6458
▁Bazaar	-10.6459
▁fruits	-10.646
col	-10.6464
lay	-10.647
▁font	-10.6486
▁behold	-10.6489
mount	-10.6493
▁clock	-10.6493
▁Governor	-10.6495
▁Lakshmi	-10.6495
▁Guthi	-10.6496
asa	-10.6496
▁Big	-10.6497
med	-10.6497
eth	-10.6501
hum	-10.6502
▁Officials	-10.6502
▁ICC	-10.6509
▁eighth	-10.6513
▁kitchen	-10.6514
wood	-10.6515
▁cook	-10.6521
▁indicated	-10.6522
ically	-10.6523
▁torture	-10.6525
▁partners	-10.6528
▁Welfare	-10.6532
▁Boston	-10.6533
▁larger	-10.6533
▁breaking	-10.6535
▁hate	-10.6538
▁Kashmir	-10.6541
▁stores	-10.6546
▁wouldn	-10.6547
▁feelings	-10.6548
▁prisoners	-10.655
▁tie	-10.6553
▁compromise	-10.656
sur	-10.6568
▁Iowa	-10.6571
ett	-10.6571
lit	-10.6571
▁boat	-10.6579
▁soft	-10.6585
win	-10.6585
▁wire	-10.6587
▁controversial	-10.6587
▁transparent	-10.6587
▁Kat	-10.6588
▁Mike	-10.6588
▁symptoms	-10.6589
▁Thakur	-10.6592
▁settlements	-10.6597
▁strengthening	-10.6597
▁deaths	-10.6601
▁exactly	-10.6602
▁roll	-10.6603
▁Richard	-10.6605
▁migration	-10.6606
▁approve	-10.6608
▁acquisition	-10.6615
▁Ze	-10.6622
▁missed	-10.6623
35	-10.6623
▁Defense	-10.6624
san	-10.663
▁activist	-10.6633
▁feels	-10.6634
▁settings	-10.6637
▁Solomon	-10.6643
▁Young	-10.6647
▁tool	-10.6648
ture	-10.6652
▁closely	-10.6652
▁delegation	-10.6652
▁broadcasting	-10.6653
▁ju	-10.6653
Our	-10.6653
▁united	-10.6662
ER	-10.6666
▁Prem	-10.667
maya	-10.667
▁kg	-10.6671
▁Island	-10.6673
▁Australian	-10.6678
▁landslides	-10.6679
NA	-10.6682
▁Dal	-10.6683
▁39	-10.6687
log	-10.669
▁Bra	-10.6694
▁haven	-10.6697
▁gra	-10.6698
▁plain	-10.6698
▁Shyam	-10.6699
▁lie	-10.6702
▁applications	-10.6704
▁Film	-10.6708
▁Mani	-10.6716
▁Ser	-10.6716
▁perspective	-10.6718
ked	-10.6718
▁300	-10.6719
▁captured	-10.6724
▁Bri	-10.6726
▁preliminary	-10.6727
▁Ph	-10.6732
▁causing	-10.6736
▁refugees	-10.674
▁publish	-10.6742
▁forming	-10.6748
▁inspired	-10.6752
▁blow	-10.6757
▁tongue	-10.6765
▁Mayor	-10.6766
ghat	-10.6769
▁Kanchanpur	-10.6774
ball	-10.6776
▁Communication	-10.6777
▁cup	-10.6781
af	-10.6782
sti	-10.6783
▁familiar	-10.6783
▁Cal	-10.6786
▁stands	-10.679
▁delayed	-10.6791
▁Sanskrit	-10.6793
▁Surkhet	-10.6793
▁inner	-10.6795
▁38	-10.6801
ened	-10.6801
▁Color	-10.6801
▁AIDS	-10.6802
▁neighbors	-10.6803
▁pushed	-10.6805
▁capture	-10.6805
▁viewers	-10.6813
▁Sixth	-10.6817
▁statue	-10.6821
▁Christmas	-10.6822
▁sha	-10.6823
▁Virginia	-10.6824
▁Still	-10.6826
▁glass	-10.6828
▁disappeared	-10.6828
IC	-10.6834
▁6.	-10.6834
▁Bihar	-10.6836
▁amid	-10.684
▁Mexico	-10.684
▁meantime	-10.6842
▁bio	-10.6843
▁consist	-10.6843
▁viewed	-10.6844
gue	-10.6851
▁Lee	-10.6858
are	-10.686
▁refuse	-10.6862
▁finish	-10.6864
▁pur	-10.6864
▁beliefs	-10.6865
▁intense	-10.6869
▁witness	-10.6869
free	-10.6872
▁Eli	-10.6877
▁reduction	-10.6879
cl	-10.6886
▁KDE	-10.6889
▁proposals	-10.689
▁offerings	-10.6891
▁Provisions	-10.6891
▁Ward	-10.6891
Relat	-10.69
To	-10.6904
▁bi	-10.6905
▁Tan	-10.6905
▁Follow	-10.6907
▁Bur	-10.6908
▁kings	-10.6911
▁Card	-10.6915
▁advanced	-10.6922
▁Holy	-10.6924
▁judgment	-10.6926
▁Op	-10.6929
ade	-10.6929
▁exists	-10.6929
gro	-10.6929
▁colleagues	-10.693
▁3,	-10.693
-20	-10.6931
▁plot	-10.6934
▁specialist	-10.6936
▁organize	-10.6936
vel	-10.6937
▁Students	-10.6941
▁meant	-10.6943
oo	-10.6943
▁legislation	-10.6945
▁Otherwise	-10.6945
▁stretch	-10.6948
▁mu	-10.695
▁upset	-10.695
vy	-10.695
▁Durga	-10.6952
mission	-10.6953
▁polls	-10.6954
▁referendum	-10.6954
nn	-10.6956
▁Ter	-10.696
ef	-10.696
▁iPhone	-10.6964
▁edition	-10.6967
▁37	-10.6968
▁Raut	-10.6968
▁equality	-10.697
bari	-10.697
▁donation	-10.6975
▁metal	-10.6979
▁ending	-10.6982
▁windows	-10.6983
▁throne	-10.6983
▁mainstream	-10.6984
▁supposed	-10.6984
▁staying	-10.6988
▁examine	-10.6991
▁opposite	-10.6993
▁climb	-10.6994
ford	-10.6995
▁colors	-10.7002
▁Network	-10.7003
air	-10.7003
▁dozens	-10.7004
▁Rice	-10.701
▁hungry	-10.7012
▁calm	-10.7012
▁lo	-10.7013
▁excessive	-10.7013
▁hu	-10.7014
don	-10.7015
▁positions	-10.7016
ax	-10.7019
gri	-10.702
bor	-10.7022
▁kilometers	-10.7032
▁acquired	-10.7034
▁gather	-10.7037
▁disappointed	-10.7041
▁bottle	-10.7041
▁announce	-10.7042
▁operators	-10.7043
▁repeated	-10.7051
▁posted	-10.7052
▁realized	-10.7052
▁firms	-10.706
▁electoral	-10.706
▁tunnel	-10.706
▁Madrid	-10.706
Why	-10.7066
sco	-10.7067
anda	-10.7068
▁composition	-10.707
▁creator	-10.7071
▁Love	-10.7072
▁authorized	-10.7073
▁interim	-10.7073
▁Maharjan	-10.708
▁decisive	-10.708
28	-10.7083
▁moon	-10.7085
▁tab	-10.7086
▁walls	-10.7089
▁Rupandehi	-10.7089
▁II	-10.7098
▁processing	-10.7104
▁configuration	-10.7109
▁48	-10.7109
uc	-10.7114
pic	-10.7115
▁factor	-10.7115
Con	-10.7119
▁bow	-10.712
▁climbing	-10.712
▁touched	-10.7123
mic	-10.7126
▁stations	-10.7127
▁consecutive	-10.7128
▁intended	-10.7129
▁Employees	-10.713
▁faction	-10.713
▁purchased	-10.7131
▁generated	-10.7132
▁proceedings	-10.7136
▁genre	-10.7138
▁phones	-10.7139
▁venture	-10.714
US	-10.714
Go	-10.7146
▁stakeholders	-10.7148
▁Various	-10.7148
▁smile	-10.7148
▁idols	-10.7149
▁drivers	-10.715
▁chaired	-10.7151
▁goats	-10.7155
▁covering	-10.7155
▁Come	-10.7156
▁Sc	-10.7157
▁deposited	-10.7161
▁ga	-10.7161
khu	-10.7167
▁cap	-10.717
ack	-10.7177
▁conservative	-10.7177
▁Image	-10.7178
▁prefer	-10.718
▁publicly	-10.7186
▁Superintendent	-10.7187
▁immigration	-10.7197
▁rebellion	-10.7197
▁Patan	-10.72
▁Fu	-10.72
▁web	-10.72
▁click	-10.72
▁75	-10.7206
▁drawing	-10.7207
▁invitation	-10.7207
▁kidney	-10.7207
▁Williams	-10.7215
▁spokesperson	-10.7226
▁Signature	-10.7226
▁followers	-10.7229
AL	-10.7229
ound	-10.7232
▁smaller	-10.7233
uli	-10.7236
▁Parajuli	-10.7236
▁anniversary	-10.7236
▁quantity	-10.7236
rn	-10.7238
▁bills	-10.7239
▁pond	-10.7248
▁surprise	-10.725
▁surrounded	-10.7252
▁Take	-10.7253
▁$5	-10.7254
▁Free	-10.7255
bel	-10.7255
▁granted	-10.7258
▁ca	-10.7259
▁CD	-10.7263
▁worst	-10.7266
pat	-10.7268
▁possession	-10.728
-7	-10.7284
▁touchdown	-10.7286
▁liked	-10.7296
▁descendants	-10.7296
ending	-10.7301
sec	-10.7304
▁weakness	-10.7305
▁Training	-10.7305
▁Mer	-10.7306
bro	-10.7306
▁visitors	-10.7311
ologist	-10.7311
▁Hetauda	-10.7315
▁Zealand	-10.7315
▁excited	-10.7315
▁Aviation	-10.7315
▁visible	-10.7315
▁relatively	-10.7316
▁highlight	-10.7317
▁relative	-10.7318
▁Limbu	-10.7325
▁founder	-10.7334
▁Brazil	-10.7334
▁embassy	-10.7335
▁SLC	-10.7337
▁Sin	-10.7338
▁h	-10.7344
▁tickets	-10.7344
▁attitude	-10.7345
▁Head	-10.7345
▁gl	-10.7346
▁2006.	-10.7347
▁heading	-10.7351
eli	-10.7354
▁cat	-10.7355
▁suggest	-10.7356
hara	-10.7358
▁Edit	-10.736
▁judiciary	-10.7365
▁para	-10.7368
▁Music	-10.7372
responsibilities	-10.7375
▁integrity	-10.7375
▁Soviet	-10.7375
▁thanks	-10.7376
ou	-10.738
bhu	-10.738
▁Tha	-10.7384
▁involving	-10.7385
▁Grand	-10.7388
▁weapon	-10.7391
▁devices	-10.7393
▁Shiv	-10.7394
lines	-10.7396
▁agents	-10.7398
▁bigger	-10.7399
▁medal	-10.7402
▁explosion	-10.7405
▁tip	-10.7407
▁nationality	-10.7414
▁entrance	-10.7415
▁Zonal	-10.7415
▁municipalities	-10.7416
▁Jews	-10.7417
▁analyst	-10.7422
▁publisher	-10.7424
▁pretty	-10.7425
▁virus	-10.7426
night	-10.7431
▁fe	-10.7433
▁Falgun	-10.7435
tern	-10.7437
fin	-10.7439
▁church	-10.744
▁loud	-10.7446
star	-10.7452
▁musical	-10.7453
hak	-10.7453
aj	-10.7456
▁cement	-10.7457
ola	-10.7458
▁Palpa	-10.7459
▁experiences	-10.7461
▁motorcycle	-10.7463
mat	-10.7469
looking	-10.7474
India	-10.7475
▁van	-10.7478
aries	-10.7479
▁forum	-10.7479
▁ride	-10.748
▁graduate	-10.748
vert	-10.7482
des	-10.7485
▁cells	-10.7488
22	-10.7492
▁administrator	-10.7496
▁counsel	-10.7496
▁internet	-10.7496
▁gang	-10.7502
▁Operation	-10.7506
▁juice	-10.7506
▁flower	-10.751
▁Talking	-10.7512
▁chose	-10.7512
▁festivals	-10.7512
ria	-10.7513
▁extremely	-10.752
ME	-10.7522
▁realize	-10.7526
23	-10.7526
▁Professor	-10.7526
▁smuggling	-10.7526
▁Import	-10.7526
▁pump	-10.7526
▁Daniel	-10.7526
▁wickets	-10.7529
ral	-10.7531
▁pulled	-10.7535
rr	-10.7536
▁42	-10.7536
▁rainfall	-10.7537
▁Unless	-10.754
▁efficient	-10.7541
eb	-10.7542
▁passes	-10.7545
▁Pradesh	-10.7547
▁Dinesh	-10.755
▁Enable	-10.755
▁willing	-10.7557
▁funding	-10.7558
▁resignation	-10.7559
▁Mor	-10.756
▁considers	-10.7561
▁sustain	-10.7563
dis	-10.7564
▁producers	-10.7568
▁settle	-10.7571
ations	-10.7572
▁Drug	-10.7581
▁Ana	-10.7582
90	-10.7583
▁pipe	-10.7586
▁Yam	-10.7587
▁delegate	-10.7587
▁adviser	-10.7589
07	-10.7594
▁certificates	-10.7597
▁(2),	-10.76
rc	-10.7601
▁incorporate	-10.7602
▁Start	-10.7605
▁Manager	-10.7605
ire	-10.7609
▁estimates	-10.7611
▁Zi	-10.7611
▁clash	-10.7613
mm	-10.7616
HA	-10.7616
▁desert	-10.7616
▁membership	-10.7623
▁slowly	-10.7624
cc	-10.7627
▁conspiracy	-10.7628
▁chi	-10.7631
▁departure	-10.7639
ose	-10.764
▁civilization	-10.7643
▁crossing	-10.7644
▁mistakes	-10.7644
▁god	-10.7648
narayan	-10.7649
Section	-10.7657
▁investing	-10.7658
▁vaccine	-10.7659
▁correspondent	-10.7659
▁determination	-10.766
▁increasingly	-10.766
▁trafficking	-10.766
▁lawyers	-10.7664
16	-10.7664
rus	-10.7667
▁4,	-10.7667
▁resort	-10.7669
uck	-10.767
De	-10.7673
▁Programme	-10.7675
berg	-10.7676
gram	-10.7686
▁Baral	-10.7689
▁Order	-10.7692
▁input	-10.7697
▁Heritage	-10.77
lon	-10.7703
06	-10.7708
▁Guru	-10.7709
▁restaurants	-10.7709
▁irregularities	-10.7711
38	-10.7714
27	-10.7716
▁prosperous	-10.7721
▁specify	-10.7722
▁Mid	-10.7728
▁switch	-10.7733
▁difficulties	-10.7738
▁parking	-10.7741
▁pregnant	-10.7742
▁neighborhood	-10.7742
▁postponed	-10.7748
▁collapsed	-10.7751
▁Assistant	-10.7752
▁41	-10.7752
▁adult	-10.7755
rit	-10.7762
rt	-10.7763
▁suspect	-10.7764
▁Finally	-10.7765
▁fails	-10.7766
▁achievements	-10.7766
▁castes	-10.7767
▁praised	-10.7767
app	-10.7776
▁fan	-10.778
▁midst	-10.7782
▁y	-10.7782
▁forecast	-10.7783
▁Search	-10.7784
▁livestock	-10.7784
tric	-10.7785
▁slogans	-10.7787
▁Mag	-10.7789
▁questioned	-10.7789
▁storage	-10.7794
▁meal	-10.7795
▁flu	-10.7797
▁impose	-10.7799
▁initiatives	-10.7801
▁Microsoft	-10.7804
▁closing	-10.7804
▁searching	-10.7805
cho	-10.7805
▁contemporary	-10.7814
▁Long	-10.7815
▁Mrs	-10.7817
▁forests	-10.7818
▁proportional	-10.782
▁Om	-10.7821
▁Pur	-10.7823
▁Ganga	-10.7825
▁Khatiwada	-10.7825
▁merger	-10.7828
▁assured	-10.783
ets	-10.783
▁Mas	-10.7832
▁Mountain	-10.7835
▁facts	-10.7841
14	-10.7845
▁inspector	-10.7845
▁satellite	-10.7846
▁arrange	-10.7849
▁Dalits	-10.7851
▁Bay	-10.7855
ville	-10.7856
cfm	-10.7856
▁wildlife	-10.7857
box	-10.7857
▁naked	-10.7857
▁renewal	-10.786
▁fa	-10.7863
▁Behold	-10.7866
So	-10.7868
▁Workers	-10.7872
▁donors	-10.7873
ero	-10.7874
hen	-10.7874
▁emerged	-10.7875
▁Jumla	-10.7877
▁exploitation	-10.7878
hit	-10.7879
▁readers	-10.7883
▁Char	-10.7885
▁petroleum	-10.7888
▁openly	-10.7888
▁dogs	-10.7889
▁exp	-10.7891
▁reign	-10.7897
yal	-10.7899
▁Iranian	-10.7904
04	-10.7904
▁tiger	-10.7905
▁Secondary	-10.7911
▁apartment	-10.7912
▁Khas	-10.7912
▁degrees	-10.7914
▁introduce	-10.7914
▁See	-10.7917
▁ruler	-10.7917
▁Manchester	-10.7919
▁Amount	-10.7923
▁quoted	-10.7925
rap	-10.7927
tive	-10.7927
After	-10.7929
art	-10.7934
▁engineering	-10.7935
▁declare	-10.7935
▁ski	-10.7935
▁rooms	-10.7938
▁cave	-10.7939
▁Turkish	-10.7941
▁enhance	-10.7943
▁lawmaker	-10.7949
state	-10.795
▁territory	-10.7951
cast	-10.7952
▁2019	-10.7954
▁taxi	-10.7958
How	-10.7959
▁Arjun	-10.7962
▁Dubai	-10.7962
▁laughing	-10.7965
ye	-10.7971
▁challenging	-10.7972
▁threw	-10.7972
▁Copyright	-10.7973
▁Reform	-10.7975
▁spreading	-10.7975
▁Memorial	-10.7983
▁spokeswoman	-10.7984
PS	-10.7991
▁spiritual	-10.7991
▁successfully	-10.7992
mun	-10.7992
▁Pandit	-10.7994
▁Directors	-10.7995
▁thinks	-10.7995
▁Motor	-10.7997
ans	-10.7999
▁Banke	-10.8001
▁explained	-10.8004
▁Siraha	-10.8005
▁55	-10.8007
fully	-10.8008
▁Games	-10.801
▁Bre	-10.8011
▁br	-10.8016
▁Amar	-10.8018
▁honest	-10.8018
▁reaction	-10.8018
▁tall	-10.8021
▁reveal	-10.8025
▁repeat	-10.8025
▁Republicans	-10.8028
▁necessity	-10.8036
▁sovereignty	-10.8037
president	-10.8038
▁shoot	-10.8038
▁Auto	-10.8041
▁commit	-10.8041
mes	-10.8044
plo	-10.8044
nic	-10.8045
▁Thompson	-10.8047
▁pr	-10.8048
▁convicted	-10.805
▁recovery	-10.8055
▁exports	-10.8057
▁wheel	-10.8057
▁integration	-10.8058
▁widow	-10.8058
▁segment	-10.8058
▁depends	-10.8058
ID	-10.8059
▁acknowledged	-10.806
?'	-10.806
▁44	-10.8065
▁dominated	-10.8065
▁Vaidya	-10.8068
Member	-10.8068
▁organizing	-10.8069
try	-10.8069
▁Das	-10.8074
▁Baisakh	-10.8079
▁Charles	-10.808
▁reader	-10.8085
▁chicken	-10.809
ane	-10.8093
▁Have	-10.8098
▁leads	-10.8099
▁Bhojpur	-10.81
IT	-10.8101
DA	-10.8103
Let	-10.8105
▁tools	-10.8108
▁strange	-10.8109
▁unprecedented	-10.8111
▁teeth	-10.8111
▁inflation	-10.8111
▁assigned	-10.8118
▁Bhairahawa	-10.8122
▁nationwide	-10.8123
▁heroine	-10.8124
▁childhood	-10.8124
▁ease	-10.8126
▁returns	-10.8128
cor	-10.8133
▁Immediately	-10.8133
▁Indonesia	-10.8133
▁Small	-10.8133
▁defined	-10.8133
din	-10.8134
▁minor	-10.8135
▁trans	-10.8141
▁targets	-10.8141
▁amended	-10.8144
▁difficulty	-10.8145
lle	-10.8145
▁trap	-10.8147
▁facilitate	-10.8149
▁accidents	-10.815
▁harmony	-10.8154
▁recalled	-10.8159
▁Mahakali	-10.8165
▁adverse	-10.8166
▁buses	-10.8167
▁anyway	-10.8171
ject	-10.8171
▁organ	-10.8178
▁Edwards	-10.8185
▁Employment	-10.8187
▁chariot	-10.8187
▁install	-10.8188
charge	-10.8194
▁comfort	-10.8196
▁abandon	-10.8197
quire	-10.8199
▁bidder	-10.82
▁ourselves	-10.8209
▁yield	-10.8209
▁pages	-10.8209
oli	-10.821
▁Kali	-10.8212
,500	-10.8213
▁bench	-10.8219
▁workshop	-10.8221
▁Industrial	-10.8226
▁Call	-10.8228
▁moves	-10.823
▁Mahat	-10.823
isation	-10.8234
▁Nar	-10.8238
▁sentiment	-10.8241
▁golden	-10.8242
gy	-10.8242
▁Short	-10.8242
▁consumed	-10.8245
▁tend	-10.8245
▁jointly	-10.8251
▁universities	-10.8252
active	-10.8258
▁wonderful	-10.8259
▁grown	-10.826
ED	-10.8263
▁Attorney	-10.8263
IS	-10.8264
▁climbed	-10.8266
▁Fed	-10.8267
▁checked	-10.8273
▁crucial	-10.8274
▁Pal	-10.8276
▁download	-10.8277
03	-10.8277
ification	-10.8278
▁sadness	-10.8279
▁weaknesses	-10.828
four	-10.8285
▁pocket	-10.8285
▁profits	-10.8285
▁exported	-10.8293
▁shake	-10.8294
▁inclusive	-10.8295
tract	-10.8296
▁addressing	-10.8298
09	-10.8305
▁stadium	-10.8318
▁Commissioner	-10.8327
▁ignored	-10.8328
print	-10.8339
▁definition	-10.834
▁dynamic	-10.834
cle	-10.8342
foot	-10.8343
PA	-10.8346
▁amend	-10.8348
▁beating	-10.8348
▁Nevertheless	-10.8351
▁Private	-10.8351
▁productivity	-10.8351
▁carbon	-10.8352
▁fellow	-10.8353
▁bin	-10.8355
▁Mur	-10.8355
▁scoring	-10.8362
cap	-10.8367
55	-10.8369
▁Agreement	-10.8373
▁rulers	-10.8373
▁honey	-10.8373
phe	-10.8374
▁Northern	-10.8384
▁View	-10.8385
stra	-10.8387
▁demonstration	-10.839
▁curriculum	-10.8395
▁unnecessary	-10.8395
▁Dhading	-10.8395
▁debut	-10.8398
dia	-10.8399
▁shoes	-10.8415
rated	-10.8417
▁supplier	-10.8417
▁Travel	-10.8417
▁observed	-10.8419
▁tenant	-10.842
▁starts	-10.842
▁Registration	-10.8428
▁chapter	-10.8429
▁drag	-10.8429
▁rail	-10.8429
rant	-10.8429
committee	-10.8431
▁Port	-10.8431
▁ministries	-10.8439
▁jewelry	-10.844
▁Export	-10.8441
▁urge	-10.8441
▁aren	-10.8441
▁Bhatt	-10.8443
▁objects	-10.8446
▁Dhankuta	-10.845
▁Coordination	-10.8451
▁Locals	-10.8451
▁models	-10.8458
▁prayer	-10.8465
class	-10.8476
▁rat	-10.8478
▁cable	-10.8478
IN	-10.8479
▁delete	-10.8479
▁Old	-10.8479
▁badly	-10.8491
▁holds	-10.8495
▁Telecom	-10.8496
xi	-10.8497
▁plate	-10.8498
▁Bho	-10.8498
▁metric	-10.85
▁drafting	-10.8503
vid	-10.8503
▁bowl	-10.8504
▁terrorists	-10.8504
▁painting	-10.8505
▁Labour	-10.8506
▁Record	-10.8506
▁plugin	-10.8509
▁Abraham	-10.8517
▁videos	-10.8518
▁lifestyle	-10.852
▁grounds	-10.852
▁brings	-10.8522
▁thrown	-10.8525
67	-10.8526
▁favorable	-10.8527
▁65	-10.8529
▁underground	-10.8532
▁Writer	-10.8533
uda	-10.8537
▁replaced	-10.8549
▁diversity	-10.8551
▁Ken	-10.8551
▁shortly	-10.8561
▁comm	-10.8572
▁smell	-10.8574
▁Words	-10.8576
▁lucky	-10.8577
▁retail	-10.8579
-8	-10.858
MC	-10.8581
▁Championship	-10.8585
▁minority	-10.8587
▁Cross	-10.8588
▁mining	-10.8589
▁BC	-10.8593
▁Sar	-10.8598
verse	-10.8601
SA	-10.8602
▁Consumer	-10.8607
▁giant	-10.8608
▁x	-10.8608
▁Mun	-10.8611
▁stronger	-10.8611
▁inaugurated	-10.8612
▁Chu	-10.8615
▁Mount	-10.8619
▁Mishra	-10.8619
▁recover	-10.8619
▁Best	-10.8621
▁43	-10.8624
▁Sadbhawana	-10.863
▁counterpart	-10.863
▁Play	-10.8636
That	-10.8636
▁da	-10.8639
▁Vietnam	-10.8641
ric	-10.8642
him	-10.8651
▁eligible	-10.8653
▁abandoned	-10.8653
▁Baba	-10.8656
▁oppose	-10.866
▁adjust	-10.866
▁parent	-10.8669
▁generate	-10.8671
hin	-10.8674
▁Bollywood	-10.8676
power	-10.8676
ons	-10.8677
SC	-10.8679
▁Functions	-10.8682
▁Kur	-10.8682
▁ll	-10.8685
▁tested	-10.8692
▁Move	-10.8694
▁argue	-10.8707
▁wicked	-10.8708
▁Festival	-10.871
▁Scottish	-10.871
▁pray	-10.8711
▁machines	-10.8711
▁Online	-10.8712
yn	-10.8715
▁Certificate	-10.8721
▁terminal	-10.8721
▁Donald	-10.8721
▁innings	-10.8722
▁mobilized	-10.8723
▁Hal	-10.8729
▁amending	-10.8732
▁Neither	-10.8733
▁fifteen	-10.8733
▁trapped	-10.8733
▁bitter	-10.8735
▁Socialist	-10.8738
▁Para	-10.8742
nda	-10.8743
▁qualified	-10.8744
▁onto	-10.8744
pul	-10.8745
water	-10.8749
▁arm	-10.8752
▁tap	-10.8752
gat	-10.8754
vir	-10.8757
anga	-10.8757
▁Hundred	-10.8758
▁Top	-10.876
cer	-10.8761
▁overnight	-10.8764
▁Resources	-10.8766
▁requirements	-10.8773
tz	-10.8778
▁flesh	-10.8779
▁stake	-10.8779
29	-10.8789
▁Stadium	-10.879
▁frustrated	-10.879
▁resign	-10.8792
▁enterprise	-10.8793
▁30,	-10.8796
▁dreams	-10.8796
▁runner	-10.88
▁YouTube	-10.8802
▁Pri	-10.8802
▁Express	-10.8802
▁Was	-10.8809
▁agitating	-10.8813
▁liability	-10.8814
▁shame	-10.8815
▁Syrian	-10.8823
aharu	-10.8824
▁introduction	-10.8825
▁shepherd	-10.8825
▁split	-10.8825
▁ninth	-10.8825
▁quantities	-10.8825
nar	-10.8828
▁Jung	-10.8834
▁Champions	-10.8836
▁continuous	-10.8838
▁consequences	-10.8841
▁Sho	-10.8842
▁veteran	-10.8848
▁Met	-10.8851
▁reaches	-10.8852
Pa	-10.8854
.............	-10.8858
▁Hollywood	-10.8859
▁devotion	-10.8859
▁guards	-10.8864
▁bullet	-10.8866
aba	-10.8867
bat	-10.8871
▁invalid	-10.8871
▁missile	-10.8871
lig	-10.8873
▁picked	-10.8874
▁goat	-10.8875
▁trail	-10.8876
▁Fe	-10.8876
▁Pacific	-10.8877
▁reflect	-10.8878
▁Argentina	-10.8883
▁closure	-10.8883
ians	-10.8884
▁waves	-10.8885
▁Registrar	-10.8894
▁Blue	-10.8894
▁Bengal	-10.8903
ua	-10.8903
▁Ray	-10.8904
▁recruit	-10.8904
▁Paras	-10.8904
▁borders	-10.8909
▁shoulder	-10.891
Parliament	-10.8912
▁Get	-10.8912
▁payments	-10.8916
▁negotiate	-10.8917
▁Farmers	-10.8918
▁cried	-10.8918
▁contents	-10.8921
▁Koshi	-10.8923
▁possess	-10.8925
post	-10.8927
▁Irrigation	-10.8929
▁conferred	-10.8929
▁reconciliation	-10.8929
▁Ronaldo	-10.8931
▁Putin	-10.8933
▁voted	-10.8936
▁magazines	-10.8936
▁Bh	-10.8937
▁Khatri	-10.8943
▁severe	-10.8945
▁mandate	-10.8946
▁Standard	-10.8953
▁archive	-10.8954
▁1:	-10.8958
▁USA	-10.8958
▁Manang	-10.896
matic	-10.896
sol	-10.8964
▁quiet	-10.8966
▁tenth	-10.8969
31	-10.8969
▁constant	-10.8978
▁shopping	-10.8978
▁fertilizers	-10.8979
▁Joe	-10.898
▁Muslims	-10.898
▁aims	-10.8981
▁pla	-10.8981
lies	-10.8985
▁illegally	-10.8986
▁abortion	-10.8988
▁eternal	-10.8988
▁psychological	-10.8988
with	-10.899
▁ratio	-10.8991
▁2006,	-10.8994
▁closer	-10.8994
▁guns	-10.9001
▁Ras	-10.9002
▁revolutionary	-10.9002
bed	-10.9003
khola	-10.9003
ttle	-10.9008
hold	-10.9008
▁Pla	-10.9011
▁fierce	-10.9011
▁monsoon	-10.9011
▁Ireland	-10.9011
▁Wood	-10.9012
jit	-10.9013
▁bha	-10.9013
▁bridges	-10.902
▁prospect	-10.9021
▁inspiration	-10.9023
▁Dam	-10.9023
▁uses	-10.9023
dai	-10.9025
▁productive	-10.9029
▁Chau	-10.9029
pper	-10.9029
02	-10.9034
▁Moscow	-10.9035
▁directors	-10.9035
▁broad	-10.9042
▁sharing	-10.9049
non	-10.9051
▁folklore	-10.9058
▁Right	-10.9059
akh	-10.906
▁Master	-10.9064
▁Sad	-10.9065
▁minds	-10.9066
▁conclude	-10.9066
uti	-10.9067
▁Print	-10.9071
▁Details	-10.9075
▁Chris	-10.9076
▁generations	-10.9081
play	-10.9083
▁planet	-10.9087
▁Kal	-10.9091
▁invite	-10.9091
▁combination	-10.9094
▁grandfather	-10.9094
▁towns	-10.9095
▁consume	-10.9097
IA	-10.91
▁coast	-10.91
▁tag	-10.9101
ame	-10.9102
▁shareholders	-10.9103
▁autonomous	-10.9106
▁painful	-10.9114
▁Dhangadhi	-10.9118
▁Upendra	-10.9118
▁pushing	-10.9123
tes	-10.9125
▁Val	-10.9129
aw	-10.913
▁Chelsea	-10.913
▁broker	-10.913
not	-10.9131
▁predict	-10.9131
▁constituted	-10.9132
▁reserve	-10.9136
▁habitat	-10.914
▁margin	-10.9141
▁Nawalparasi	-10.9142
▁Yuvraj	-10.9142
▁clause	-10.9142
▁emphasized	-10.9142
▁Dil	-10.9144
▁Ang	-10.9147
▁diabetes	-10.9153
▁distributing	-10.9153
▁careful	-10.9161
▁distortions	-10.9162
▁surely	-10.9172
RA	-10.9175
▁Az	-10.9177
▁Pharaoh	-10.9177
ica	-10.9178
cus	-10.918
▁Leader	-10.9181
▁Jim	-10.9181
chu	-10.9182
▁centres	-10.9182
):	-10.9183
bon	-10.9184
▁reporting	-10.9185
▁seller	-10.9187
hang	-10.9188
▁prophet	-10.9189
▁Chait	-10.919
uit	-10.9192
cation	-10.9193
▁instruments	-10.9194
▁represent	-10.9195
▁orders	-10.92
▁Kiran	-10.92
▁NEW	-10.9201
▁petrol	-10.9201
▁oriented	-10.9202
▁Moreover	-10.9203
▁historic	-10.9212
▁reward	-10.9213
▁Publication	-10.9213
▁accessible	-10.9215
▁inspect	-10.9215
▁Hillary	-10.9216
On	-10.9216
▁notification	-10.9216
Ha	-10.9222
▁Bureau	-10.9225
▁systematic	-10.9227
▁liable	-10.923
▁Cur	-10.923
shire	-10.9231
ient	-10.9232
People	-10.9234
▁pull	-10.9234
▁curiosity	-10.9237
▁Prize	-10.9238
▁amongst	-10.9239
▁traded	-10.9239
▁fulfilling	-10.9239
13	-10.9245
▁guests	-10.9249
▁detention	-10.9249
▁imagination	-10.9249
▁yellow	-10.9249
▁Working	-10.9252
gin	-10.9257
62	-10.926
▁ti	-10.9263
body	-10.9265
▁scholars	-10.9266
▁mi	-10.9268
pass	-10.9273
▁Samvat	-10.9274
hil	-10.9274
▁hoping	-10.9275
▁forty	-10.9278
table	-10.9281
▁Ak	-10.9281
▁Karna	-10.9282
▁turning	-10.9282
▁Georgia	-10.9286
▁emissions	-10.9286
▁intercourse	-10.9286
▁tonnes	-10.9289
▁darkness	-10.929
▁)	-10.9293
dor	-10.9293
▁lifted	-10.9295
rist	-10.9296
▁Judicial	-10.9298
▁Vishnu	-10.9298
▁Keshav	-10.9298
▁1999	-10.9301
▁Net	-10.9302
rat	-10.9304
▁formally	-10.9305
▁jump	-10.9307
gh	-10.9307
▁networks	-10.9307
▁coal	-10.9309
▁Romney	-10.931
▁amazing	-10.931
▁demolished	-10.931
▁essay	-10.931
▁performing	-10.9311
▁landslide	-10.9312
place	-10.9313
▁complicated	-10.9314
▁6,	-10.9314
▁examples	-10.9317
cover	-10.9318
▁Mother	-10.9324
▁Recently	-10.9325
▁routes	-10.9326
.'"	-10.9326
▁recognize	-10.933
▁Through	-10.9333
▁breath	-10.9334
▁elephant	-10.9337
▁seminar	-10.9337
▁evaluate	-10.9343
pir	-10.9343
▁FIFA	-10.9346
▁sisters	-10.9348
▁CA	-10.9352
▁Rastriya	-10.9359
▁Survey	-10.9359
▁collaboration	-10.9359
hai	-10.936
hour	-10.9362
▁Key	-10.9362
▁mar	-10.9366
▁converted	-10.9368
char	-10.9368
zer	-10.9368
zo	-10.937
▁technologies	-10.9371
▁controlling	-10.9373
▁dwell	-10.9379
▁teenagers	-10.938
▁Especially	-10.9383
▁achieving	-10.9383
▁memorandum	-10.9383
▁Keep	-10.9384
▁Members	-10.9384
▁Account	-10.9386
▁targeting	-10.9395
▁maybe	-10.9395
lid	-10.9398
▁restrictions	-10.94
Da	-10.9402
shan	-10.9404
▁Col	-10.9406
▁injustice	-10.9407
▁Relations	-10.9408
▁novelist	-10.9417
ban	-10.9417
▁Levites	-10.942
under	-10.942
▁pot	-10.9422
das	-10.9424
▁Look	-10.9428
▁afford	-10.943
yan	-10.9438
▁martyr	-10.9438
lim	-10.944
▁sins	-10.9442
round	-10.9443
Who	-10.9443
▁elders	-10.9446
dies	-10.9449
▁soldier	-10.9451
26	-10.9455
RC	-10.9455
▁utility	-10.9457
▁Govind	-10.9463
▁Tulsi	-10.9468
▁assess	-10.9469
▁removing	-10.9469
▁wheat	-10.9469
▁assault	-10.9469
▁shutdown	-10.9469
000	-10.947
▁raid	-10.9474
tti	-10.948
▁economist	-10.9481
▁Next	-10.9481
▁filing	-10.9484
▁cow	-10.9486
▁2010	-10.9486
umba	-10.9487
▁gains	-10.9488
▁gained	-10.9489
▁airline	-10.9493
▁ni	-10.9494
▁vessels	-10.9495
arm	-10.9499
▁Sang	-10.9503
▁excess	-10.9504
▁SOURCE	-10.9506
▁Subba	-10.9514
▁retain	-10.9517
▁neighbour	-10.9518
▁utilization	-10.9518
▁bicycle	-10.9518
-19	-10.9519
▁Auditor	-10.952
▁Major	-10.952
MA	-10.9526
▁quit	-10.9526
▁requirement	-10.9527
▁acquire	-10.9527
▁lift	-10.9532
▁Leaders	-10.9533
lum	-10.9542
▁celebration	-10.9543
▁blast	-10.9543
▁Sta	-10.9548
▁lifetime	-10.9549
▁ice	-10.9555
▁pregnancy	-10.9555
▁gentle	-10.9556
▁holder	-10.9561
68	-10.9567
▁writes	-10.957
▁fever	-10.9571
made	-10.9573
▁popularity	-10.9577
nch	-10.9584
▁bags	-10.9586
▁Twitter	-10.9593
wide	-10.9594
tte	-10.9594
▁submitting	-10.96
▁(12	-10.9601
▁Joshua	-10.9605
▁yes	-10.9607
tang	-10.9608
mu	-10.961
some	-10.961
sum	-10.961
ML	-10.9611
direct	-10.9612
▁respective	-10.9615
▁Sapkota	-10.9618
▁headed	-10.9618
▁Jam	-10.9619
centric	-10.962
▁hiding	-10.9627
▁Gl	-10.9628
▁poison	-10.963
▁contractors	-10.963
▁mouse	-10.9631
▁claiming	-10.9637
▁greatly	-10.964
▁Great	-10.9642
▁informal	-10.9642
▁Culture	-10.9643
▁NA	-10.9647
▁sack	-10.9648
▁ships	-10.9652
▁obstacles	-10.9652
▁Rukum	-10.9655
▁aspirations	-10.9655
▁disappear	-10.9656
▁core	-10.9661
▁ties	-10.9661
▁sanctions	-10.9663
▁departmental	-10.9667
▁150	-10.9667
▁ideological	-10.9668
▁Baglung	-10.9668
▁Place	-10.9669
▁Kaski	-10.9669
▁carries	-10.9672
▁weekly	-10.9678
▁transit	-10.968
▁comparison	-10.9681
▁cancel	-10.9681
load	-10.9682
▁stable	-10.9682
▁installation	-10.9684
▁Child	-10.9687
▁pattern	-10.969
▁beneficial	-10.9693
▁crew	-10.9694
ST	-10.9694
▁directives	-10.9695
ob	-10.9697
br	-10.9697
▁justified	-10.9699
▁Shakti	-10.9706
▁mercy	-10.9706
▁Action	-10.9706
▁exemption	-10.9707
▁regulations	-10.9707
▁undertaken	-10.9708
▁ears	-10.9709
▁arrive	-10.9712
▁criminals	-10.9713
▁Ashok	-10.9715
▁Taplejung	-10.9718
▁ordinance	-10.9718
▁gap	-10.9718
▁Bad	-10.9724
▁Cre	-10.9727
▁Nuwakot	-10.9731
▁jam	-10.9731
▁Carolina	-10.9731
▁Data	-10.9732
▁2014	-10.9734
▁convert	-10.9735
ano	-10.9735
▁licensee	-10.9737
nan	-10.9739
▁execute	-10.974
▁naturally	-10.9742
▁Deb	-10.9745
▁William	-10.9745
57	-10.9749
▁attempts	-10.9751
▁Olympic	-10.9755
▁wake	-10.9757
▁Environment	-10.976
▁Bag	-10.976
▁marked	-10.9764
phan	-10.9765
▁Rautahat	-10.9769
▁Display	-10.9769
▁represents	-10.977
▁investments	-10.9775
gadhi	-10.9776
All	-10.9776
▁Makwanpur	-10.9782
▁Besides	-10.9782
▁bribe	-10.9782
▁Protection	-10.9782
▁herbs	-10.9785
▁fatal	-10.9793
▁IT	-10.9793
▁manufacturing	-10.9794
▁Mahesh	-10.9798
▁chip	-10.9798
▁seconds	-10.9802
yer	-10.9802
▁seeks	-10.9802
nie	-10.9803
▁withdrawn	-10.9804
▁Say	-10.9806
name	-10.9813
▁2007.	-10.9815
▁miss	-10.9815
▁engineers	-10.9818
▁unclean	-10.9823
▁fare	-10.9826
▁Lok	-10.9828
▁enabled	-10.983
▁49	-10.983
▁dividend	-10.9833
▁recording	-10.9834
ken	-10.9835
▁hearts	-10.9845
▁tank	-10.9845
▁Taliban	-10.9846
▁ceasefire	-10.9846
▁depict	-10.9846
view	-10.9853
lap	-10.9853
▁gifts	-10.9858
▁competent	-10.986
▁Brahmin	-10.9862
▁Cla	-10.9863
BS	-10.9864
▁suspicion	-10.9871
▁discount	-10.9872
▁Yankees	-10.9872
cu	-10.9872
▁dependent	-10.9874
ston	-10.9875
rry	-10.9884
▁salvation	-10.9884
▁Family	-10.9884
▁eager	-10.9884
hun	-10.9896
▁formulate	-10.9898
▁mix	-10.9899
▁2011	-10.99
▁reject	-10.9902
▁engage	-10.9903
▁critics	-10.9903
▁processes	-10.9907
▁execution	-10.991
▁heavily	-10.991
▁regulate	-10.991
▁compris	-10.991
▁Navy	-10.9912
▁plea	-10.9917
▁Pad	-10.9918
▁resigned	-10.9922
▁Ncell	-10.9924
▁blamed	-10.9925
▁Ratna	-10.9925
att	-10.9931
▁coordinate	-10.9933
▁watched	-10.9934
▁approximately	-10.9936
▁incurred	-10.9936
▁explore	-10.9936
▁cuts	-10.9936
▁pin	-10.9942
▁Comp	-10.9943
▁Price	-10.9951
▁Gandaki	-10.9952
▁investor	-10.9958
▁survive	-10.9958
thirds	-10.9961
▁observation	-10.9961
▁covers	-10.9962
▁lawsuit	-10.9963
Co	-10.9963
▁Had	-10.9963
▁highlighted	-10.9965
▁slave	-10.9967
▁Mat	-10.9969
▁lowest	-10.997
ela	-10.9974
▁Kun	-10.9977
▁Thousands	-10.9978
▁deny	-10.9986
▁surname	-10.9987
file	-10.9988
▁dec	-10.9988
▁prophets	-10.9988
▁Bhar	-10.9993
▁donations	-10.9995
▁Fourth	-10.9999
▁Jaya	-11
▁gross	-11
▁insult	-11.0001
rang	-11.0002
▁Mel	-11.0012
▁clubs	-11.0013
▁interpretation	-11.0015
▁industrialists	-11.0016
▁...............	-11.0017
▁seal	-11.002
▁expressing	-11.0021
▁admit	-11.0026
▁youngest	-11.0026
▁Gupta	-11.0027
▁rapidly	-11.0028
▁Light	-11.003
▁Alex	-11.0031
dhar	-11.0032
▁Newar	-11.0037
▁Mumbai	-11.0039
▁theoretical	-11.0039
▁sustained	-11.0042
Having	-11.0043
▁scope	-11.0043
▁founded	-11.0044
▁renowned	-11.0045
path	-11.0045
▁keys	-11.0047
cra	-11.0049
▁Rajesh	-11.005
▁focusing	-11.005
asi	-11.0052
▁boundaries	-11.0053
▁dealing	-11.0061
▁clients	-11.0064
▁combat	-11.0065
▁supervision	-11.0066
▁Camp	-11.0071
▁ancestors	-11.0073
▁wound	-11.0075
▁fears	-11.0077
▁studio	-11.0079
fu	-11.0081
▁suggests	-11.0085
▁fla	-11.0091
▁Philip	-11.0092
read	-11.0094
▁ver	-11.0095
illa	-11.0099
▁App	-11.01
▁speaker	-11.0101
▁Agricultural	-11.0105
▁livelihood	-11.0105
▁Earth	-11.0105
▁humanitarian	-11.0105
▁52	-11.0108
ock	-11.0109
▁adjustment	-11.011
▁spa	-11.0111
ily	-11.0114
▁Television	-11.0118
rag	-11.0119
poli	-11.012
▁march	-11.0126
▁writ	-11.0129
▁numerous	-11.0131
▁championship	-11.0132
▁devotees	-11.0133
▁advertisement	-11.0138
▁Dor	-11.0139
▁involve	-11.014
cious	-11.0141
▁Ste	-11.0141
▁infected	-11.0144
▁Line	-11.0146
▁submission	-11.0146
▁warrant	-11.0147
▁Steve	-11.0149
▁striker	-11.0154
▁ir	-11.0155
take	-11.0157
▁essence	-11.0157
▁harvest	-11.0157
▁uprising	-11.0157
32	-11.0158
was	-11.0163
Ra	-11.0169
▁Ob	-11.0171
Chancellor	-11.0173
33	-11.0175
▁bonds	-11.0178
▁Mai	-11.018
▁adventure	-11.0184
▁feudal	-11.0184
▁excuse	-11.0184
▁(10	-11.0184
▁arguments	-11.0185
▁FM	-11.0187
▁drafted	-11.0187
▁acted	-11.019
....	-11.019
▁scholarship	-11.0192
▁princes	-11.0193
▁Anil	-11.02
▁worshiped	-11.0202
At	-11.0204
▁substance	-11.0205
gam	-11.0205
La	-11.0206
▁Vo	-11.021
▁pilgrimage	-11.021
rai	-11.0216
▁seized	-11.0217
▁airlines	-11.0221
▁Technical	-11.0224
▁statute	-11.0224
▁unrealistic	-11.0224
▁desktop	-11.0224
pin	-11.0225
called	-11.0227
▁melt	-11.0228
▁proportion	-11.023
▁Provision	-11.0232
burg	-11.0234
▁expedition	-11.0237
▁Cooperative	-11.0238
▁5-	-11.0238
▁contracts	-11.025
▁robbed	-11.025
▁Initially	-11.0252
79	-11.0256
▁Born	-11.0257
▁apart	-11.0263
▁Unit	-11.0266
▁greet	-11.0268
▁Main	-11.0269
▁Dharma	-11.0272
▁.........	-11.0275
▁Convention	-11.0277
▁Physical	-11.0277
▁drought	-11.0277
▁pool	-11.0278
rin	-11.028
▁channels	-11.0286
▁Chancellor	-11.0288
▁feasibility	-11.0291
▁smartphone	-11.0291
66	-11.0292
lie	-11.0292
▁Bharatpur	-11.0293
▁tear	-11.0295
▁politically	-11.0298
▁hereby	-11.0301
▁Saraswati	-11.0304
▁divine	-11.0304
▁incomplete	-11.0304
▁influenced	-11.0304
mod	-11.0306
▁Series	-11.0307
▁disagreement	-11.0307
▁attached	-11.0313
▁monetary	-11.0317
▁pounds	-11.0319
cia	-11.0321
▁Latin	-11.0325
lah	-11.033
▁Mao	-11.0333
▁Louis	-11.0336
Lo	-11.0339
▁Er	-11.034
▁sample	-11.0341
▁stocks	-11.0343
▁Tiger	-11.0345
east	-11.0351
mbo	-11.0351
▁nutrition	-11.0357
rel	-11.0365
part	-11.0365
une	-11.0367
▁Accordingly	-11.0369
▁Mechi	-11.0374
▁adults	-11.038
▁joining	-11.0382
ched	-11.0384
▁1980	-11.0388
▁directive	-11.0391
▁combined	-11.0391
ement	-11.0395
▁vessel	-11.0396
▁Milan	-11.0397
mai	-11.0398
▁convenient	-11.0398
▁goodwill	-11.0401
anta	-11.0403
▁Based	-11.0408
▁adds	-11.041
▁Church	-11.0411
34	-11.0412
llo	-11.0415
roll	-11.0419
▁tells	-11.042
▁Fire	-11.042
▁ram	-11.0422
▁updated	-11.0423
▁73	-11.0423
▁Wales	-11.0424
▁Museum	-11.0425
▁Principal	-11.0425
▁Chowk	-11.0425
▁Thi	-11.0429
4,000	-11.0431
▁immigrants	-11.0432
▁signing	-11.0436
▁dinner	-11.0439
▁Muk	-11.0439
▁Egyptian	-11.0442
▁Back	-11.0442
36	-11.0443
▁Kirat	-11.0446
56	-11.0447
▁Nath	-11.0448
▁Manandhar	-11.0452
▁militants	-11.0452
▁sweat	-11.0452
▁29,	-11.0454
stone	-11.0455
turn	-11.0455
▁driven	-11.0457
udi	-11.0458
▁lips	-11.046
▁suspects	-11.0461
▁artistic	-11.0462
band	-11.0463
▁mountaineering	-11.0466
▁Copy	-11.0466
▁Prior	-11.0472
76	-11.0472
98	-11.0481
▁47	-11.0483
▁10-	-11.0489
▁Mail	-11.0489
▁vegetable	-11.0493
▁(5)	-11.0494
▁expects	-11.0506
▁equity	-11.0507
▁Internal	-11.0507
▁Phil	-11.0508
▁blessing	-11.0513
▁Zo	-11.052
▁bronze	-11.052
▁boot	-11.0521
▁laboratory	-11.0521
▁secured	-11.0521
▁2:	-11.0522
▁Chhat	-11.0524
▁cloth	-11.0525
pho	-11.0526
▁Philistines	-11.0526
▁exhibit	-11.053
▁Reserve	-11.0532
▁distributor	-11.0534
▁CNN	-11.0536
▁bail	-11.0537
▁stating	-11.0537
quarter	-11.0539
▁Tibetan	-11.0542
mph	-11.0544
▁thin	-11.0544
▁Procedure	-11.0548
▁surge	-11.055
▁mini	-11.0551
▁educated	-11.0553
▁deposits	-11.0555
▁prevention	-11.0555
▁pleased	-11.0557
▁transition	-11.0559
iff	-11.0561
▁encouraging	-11.0562
bir	-11.0566
Se	-11.0568
▁Thirty	-11.0575
▁lights	-11.0576
▁im	-11.0579
▁disrupted	-11.0583
mul	-11.0586
▁queen	-11.0589
▁transformation	-11.0591
▁min	-11.0596
44	-11.06
▁represented	-11.0601
▁Bardiya	-11.0603
▁counted	-11.0603
nia	-11.0603
▁vertical	-11.0604
▁51	-11.0606
key	-11.0607
▁toilet	-11.0608
▁1979.	-11.0613
▁unconscious	-11.0617
▁diet	-11.0619
▁organisation	-11.062
▁Var	-11.0626
▁2056	-11.0631
▁boycott	-11.0631
cial	-11.0631
met	-11.0632
▁diesel	-11.0633
gate	-11.0635
▁opt	-11.0636
▁Fla	-11.0642
▁investigated	-11.0648
▁Within	-11.065
▁Powers	-11.0656
▁Gad	-11.0658
▁routine	-11.0658
▁Surendra	-11.0659
▁Vikram	-11.0659
▁rabit	-11.0659
card	-11.0659
nel	-11.0662
▁politician	-11.0662
▁su	-11.0666
▁rescued	-11.0671
▁Traffic	-11.0672
▁instability	-11.0672
▁Rep	-11.0673
jung	-11.0673
▁gray	-11.0676
▁Ur	-11.0677
hav	-11.0685
ski	-11.0686
▁Application	-11.0686
▁demarcation	-11.0686
▁massacre	-11.0686
▁sentenced	-11.0687
▁framework	-11.0687
▁teenager	-11.0692
▁protesting	-11.0697
▁Ve	-11.0698
▁tribal	-11.07
▁bound	-11.0701
▁Kenya	-11.0702
▁Turn	-11.0703
gre	-11.0704
SS	-11.0708
pot	-11.071
▁ate	-11.071
▁accounting	-11.0713
meter	-11.0713
▁theater	-11.0714
dle	-11.0714
▁Lebanon	-11.0714
▁silence	-11.0714
▁contrast	-11.0715
▁Jackson	-11.0715
▁gr	-11.0716
▁obstructed	-11.0721
▁Read	-11.0725
▁Devkota	-11.0728
▁Uttar	-11.0728
▁Sil	-11.0732
▁observe	-11.0734
▁2001,	-11.0739
▁Student	-11.074
▁46	-11.0742
▁jury	-11.0744
gaon	-11.0745
▁2009	-11.0746
▁Jack	-11.0747
▁regulatory	-11.0748
rup	-11.0749
▁chat	-11.075
▁Gan	-11.0751
▁pledged	-11.0751
Le	-11.0751
▁Tre	-11.0752
97	-11.0755
▁influential	-11.0756
▁tribute	-11.0756
▁Laxman	-11.0756
▁regarded	-11.0758
▁survived	-11.0759
▁acid	-11.0761
OR	-11.0762
▁horses	-11.0764
laws	-11.0764
ole	-11.077
▁Share	-11.0771
▁upto	-11.0772
▁proof	-11.0775
ux	-11.0777
▁auditor	-11.0779
▁governing	-11.0779
▁wounded	-11.078
▁shield	-11.0784
▁mobilization	-11.0784
more	-11.0784
▁Dia	-11.0785
200	-11.0788
▁cooking	-11.0788
37	-11.0789
2,000	-11.0789
▁ritual	-11.079
▁Pancha	-11.079
▁pursue	-11.0796
▁steal	-11.0796
▁hoped	-11.0799
▁angle	-11.0804
▁Raju	-11.0806
▁intellectuals	-11.0811
▁nervous	-11.0812
mond	-11.0815
ounce	-11.0815
hol	-11.0816
atha	-11.0819
cker	-11.0824
▁doors	-11.0826
▁tasks	-11.0826
▁factories	-11.0828
▁traveled	-11.0829
▁Bin	-11.0836
▁defendant	-11.084
▁enjoyed	-11.0845
▁helpful	-11.0847
▁Chang	-11.0848
lf	-11.0854
▁rod	-11.0854
▁Type	-11.0855
▁Ford	-11.0855
▁apparently	-11.086
democratic	-11.0861
▁Craig	-11.0869
▁Supply	-11.0869
▁prevalent	-11.0869
▁Janata	-11.0873
▁competitions	-11.0876
▁trucks	-11.0877
cro	-11.0879
▁Sarlahi	-11.0883
▁landowner	-11.0885
▁kindness	-11.0886
ime	-11.0889
▁dissolved	-11.089
▁narrative	-11.0897
▁drunk	-11.0897
48	-11.0898
96	-11.0899
▁oath	-11.09
▁drowned	-11.0902
▁sets	-11.0903
▁pack	-11.0904
▁Hol	-11.0906
▁supplies	-11.0911
▁finalized	-11.0911
▁guidelines	-11.0912
▁pad	-11.0915
held	-11.0917
▁Gal	-11.0918
▁tune	-11.0918
▁Boy	-11.0919
▁Seeing	-11.0923
itz	-11.0925
▁bug	-11.0929
itch	-11.0934
hat	-11.0938
▁YORK	-11.094
▁encounter	-11.094
▁enforcement	-11.0941
▁ID	-11.0945
SE	-11.0947
▁rap	-11.0954
▁cooperate	-11.0954
▁aside	-11.0956
lect	-11.0957
▁tape	-11.0959
ular	-11.0961
▁filling	-11.0964
Even	-11.0966
▁mobilize	-11.0967
Pro	-11.0967
▁celebrating	-11.0968
▁Except	-11.0969
▁Raja	-11.0972
organ	-11.0975
new	-11.0976
▁belonging	-11.098
▁Jersey	-11.0983
▁Kapilvastu	-11.0983
▁scenario	-11.0983
ators	-11.099
▁recommendations	-11.0991
▁disrupt	-11.0996
▁lion	-11.0998
nal	-11.0998
▁Abuse	-11.1001
▁governmental	-11.1002
eva	-11.1002
▁Case	-11.1003
▁advisor	-11.1003
▁Sunil	-11.1009
final	-11.101
▁extremist	-11.1011
▁solving	-11.1011
Resident	-11.1012
ls	-11.1012
▁conf	-11.1014
bra	-11.1016
▁scenes	-11.1016
▁organic	-11.1016
hr	-11.1017
▁flee	-11.1021
▁(2	-11.1024
▁awards	-11.1025
▁Kunwar	-11.1026
▁flock	-11.1027
▁2013	-11.1029
▁Feb	-11.1034
rich	-11.1036
hap	-11.1038
▁Doti	-11.1039
test	-11.1039
▁fate	-11.104
▁drew	-11.104
▁stuff	-11.104
▁Branch	-11.104
▁prohibited	-11.1041
43	-11.1044
▁deeply	-11.1044
▁documentary	-11.1047
▁Kul	-11.1049
tical	-11.1052
▁Box	-11.1052
▁muscle	-11.1055
▁thief	-11.1055
▁Gordon	-11.1055
▁lord	-11.1055
▁Eighth	-11.1056
▁53	-11.1058
▁$6	-11.1059
▁Entrepreneurs	-11.1064
▁thoughts	-11.1066
▁Kavre	-11.1069
▁dictatorship	-11.1069
▁undergoing	-11.1069
▁Rishi	-11.1071
▁oldest	-11.1073
▁unlikely	-11.1075
▁clo	-11.1077
▁rating	-11.1078
wang	-11.1079
▁papers	-11.1079
▁Mad	-11.108
▁Golden	-11.1081
▁unaware	-11.1084
▁absent	-11.1084
▁clinic	-11.1085
▁Employee	-11.1086
▁Windows	-11.1087
▁Lokman	-11.1094
▁$7	-11.1094
▁Scott	-11.1094
ural	-11.1096
reliant	-11.1098
tem	-11.1102
▁Nu	-11.1102
▁coverage	-11.1103
▁roots	-11.1105
▁Tent	-11.1105
hop	-11.1108
▁allegedly	-11.111
▁Institution	-11.1111
LO	-11.1112
▁Several	-11.1113
▁concert	-11.1113
▁goalkeeper	-11.1114
atory	-11.1115
limit	-11.1117
▁Game	-11.1119
holder	-11.1119
▁affects	-11.1119
▁bat	-11.1121
6,000	-11.1122
ND	-11.1123
▁impression	-11.1127
▁wedding	-11.1127
ibility	-11.1127
▁Delete	-11.113
▁400	-11.1133
▁ends	-11.1133
47	-11.1134
▁crossed	-11.1136
▁cool	-11.1136
▁defend	-11.1138
▁Command	-11.1139
▁brands	-11.114
▁chances	-11.1141
▁violation	-11.1141
▁extensive	-11.1142
▁variety	-11.1142
▁attacking	-11.1143
▁Promotion	-11.1144
kali	-11.1146
▁containing	-11.115
▁dear	-11.1151
▁answers	-11.1152
▁adopting	-11.1152
Yes	-11.1153
yu	-11.1153
▁Tam	-11.1153
por	-11.1156
▁Francisco	-11.1157
▁opponents	-11.116
▁turns	-11.1168
▁sacrifices	-11.1168
nor	-11.1168
▁insecurity	-11.1169
wise	-11.1169
▁perception	-11.1171
▁Andrew	-11.1171
▁URL	-11.1171
▁Kharel	-11.1173
▁throwing	-11.1182
▁nursing	-11.1185
▁prominent	-11.1185
▁citing	-11.1186
▁Object	-11.1186
▁vital	-11.1187
▁dig	-11.1188
sign	-11.1196
Ch	-11.1197
▁elephants	-11.1197
▁Frank	-11.12
▁Gandhi	-11.12
▁Shan	-11.1201
rav	-11.1202
LA	-11.1202
52	-11.1209
▁Deep	-11.1209
ancy	-11.1209
get	-11.1212
▁resist	-11.1213
▁dies	-11.1214
▁Jonathan	-11.1215
▁packages	-11.1217
▁disc	-11.1219
▁Savi	-11.1226
▁ANFA	-11.1229
▁covenant	-11.1229
▁impeachment	-11.1229
▁Khotang	-11.123
-10	-11.123
▁client	-11.1231
▁wages	-11.1232
Bo	-11.1233
agar	-11.1238
EN	-11.1243
▁artificial	-11.1244
▁Itahari	-11.1244
▁Sab	-11.1249
that	-11.1252
kins	-11.1255
▁luxury	-11.1259
ential	-11.126
▁barrel	-11.126
▁Nam	-11.1263
▁hopeful	-11.1267
jha	-11.127
owned	-11.127
nam	-11.1273
▁Spokesperson	-11.1274
▁Visit	-11.1274
▁mood	-11.1275
TE	-11.1277
cip	-11.1279
▁shock	-11.128
▁Class	-11.1286
▁primarily	-11.1288
▁residential	-11.129
▁Tony	-11.129
fall	-11.1291
▁Angel	-11.1296
▁Try	-11.1296
▁NRN	-11.1299
friendly	-11.1301
▁arise	-11.1302
▁bombing	-11.1303
▁Afghan	-11.1303
▁copies	-11.1303
▁proponent	-11.1303
▁Drinking	-11.1303
▁guardian	-11.1308
gas	-11.1317
▁faster	-11.1317
39	-11.1318
▁vulnerable	-11.1318
▁Page	-11.1318
▁Tiwari	-11.1318
▁prejudice	-11.1333
▁secretaries	-11.1333
▁disability	-11.1335
▁Nine	-11.1343
▁premium	-11.1348
▁dancing	-11.1348
▁End	-11.1358
▁canal	-11.136
▁occupied	-11.1363
▁romantic	-11.1363
▁dimension	-11.1363
dri	-11.1364
▁outbreak	-11.1368
▁absolutely	-11.1369
▁Mala	-11.1373
▁Babu	-11.1374
▁imagine	-11.1376
ught	-11.1377
▁Literature	-11.1377
▁WASHINGTON	-11.1377
esteem	-11.1377
▁Canadian	-11.1377
▁underlying	-11.1379
▁Beth	-11.138
▁transform	-11.1383
▁edited	-11.1383
most	-11.1386
▁uncle	-11.139
▁findings	-11.1391
▁62	-11.1392
▁intensified	-11.1392
▁mentioning	-11.1394
▁organizational	-11.1395
92	-11.1399
▁Democracy	-11.1407
▁divorce	-11.1407
▁financing	-11.1407
▁secretariat	-11.1407
▁Rapti	-11.1407
▁biological	-11.1408
jur	-11.1414
isa	-11.1418
ING	-11.1421
▁Industries	-11.1422
▁Studies	-11.1422
▁determining	-11.1422
▁width	-11.1422
▁Care	-11.1423
▁quota	-11.1425
Un	-11.1432
style	-11.1437
▁strategies	-11.1437
BA	-11.144
▁Rat	-11.144
▁obstruct	-11.1442
63	-11.1446
life	-11.145
▁Gaza	-11.145
▁lying	-11.1451
▁printer	-11.1452
▁panchayat	-11.1452
▁Euro	-11.1454
▁arrives	-11.1455
▁restore	-11.1457
▁Nobel	-11.1457
▁installment	-11.1459
▁measurement	-11.1459
▁Suman	-11.146
▁trends	-11.1461
ananda	-11.1462
▁supplied	-11.1467
▁transparency	-11.1467
▁1959.	-11.147
▁morality	-11.1471
▁Levi	-11.1475
AM	-11.1483
▁native	-11.1486
▁indeed	-11.1486
▁formulated	-11.1489
hem	-11.1492
▁feeding	-11.1496
▁vast	-11.1497
▁promises	-11.1497
▁Benjamin	-11.1497
▁detain	-11.1498
ough	-11.1499
see	-11.1499
▁56	-11.15
▁Bell	-11.1504
▁hits	-11.1505
▁2020	-11.1505
▁Dhanusha	-11.1513
▁hasn	-11.1513
lop	-11.1518
cade	-11.1519
▁Mana	-11.1519
89	-11.1521
▁Hold	-11.1522
▁Patel	-11.1523
▁flame	-11.1523
▁troubled	-11.1524
▁organisations	-11.1524
▁assume	-11.1527
▁lodge	-11.1528
▁Mustang	-11.1528
▁precious	-11.1529
plan	-11.1532
chaur	-11.1534
▁technicians	-11.1536
▁threats	-11.1536
-9	-11.1537
gger	-11.1539
54	-11.1542
mile	-11.1543
▁Dolakha	-11.1543
▁Kedar	-11.1544
▁Notification	-11.1545
▁refuge	-11.1546
▁basically	-11.1546
lung	-11.1547
▁Mary	-11.1553
ties	-11.1554
▁rec	-11.1554
▁Jay	-11.1555
▁Week	-11.1556
open	-11.156
▁nice	-11.1565
▁Tal	-11.1566
▁suspend	-11.1566
▁$8	-11.1566
▁Switzerland	-11.1573
▁cubits	-11.1573
stein	-11.1578
▁renewed	-11.1579
▁deleted	-11.158
west	-11.1582
▁expiry	-11.1588
▁Watch	-11.1589
▁Kir	-11.1591
▁Experts	-11.1597
chal	-11.16
gha	-11.1604
▁lease	-11.1605
▁volunteers	-11.1606
▁computers	-11.1606
corp	-11.1615
▁99	-11.1616
▁bell	-11.1618
▁curse	-11.1618
▁McCain	-11.1619
▁gesture	-11.1619
iro	-11.162
46	-11.1621
▁commissions	-11.1622
▁bike	-11.1623
▁shifted	-11.1627
▁exceed	-11.1628
▁forwarded	-11.1629
▁enthusiastic	-11.1632
▁Annapurna	-11.1634
▁overseas	-11.1634
kal	-11.1637
▁linguistic	-11.1642
▁retailer	-11.1643
▁disputes	-11.1649
▁Stephen	-11.165
aeda	-11.1652
nish	-11.1652
▁unfortunate	-11.1655
▁accepting	-11.1655
▁Madhu	-11.166
▁hanging	-11.1663
▁fighters	-11.1664
▁squad	-11.1665
ich	-11.1665
▁orange	-11.1666
▁($	-11.167
▁Ly	-11.1672
▁Tara	-11.1676
▁preserve	-11.168
▁cautious	-11.168
▁satisfactory	-11.168
▁arose	-11.1681
▁Anand	-11.1683
pers	-11.1683
▁kiss	-11.1685
bl	-11.1685
▁wins	-11.1687
▁Hat	-11.1689
▁embrace	-11.1695
▁negligence	-11.1696
▁depth	-11.1696
▁blessed	-11.1697
▁Player	-11.17
▁condemn	-11.1704
▁disasters	-11.1707
ivity	-11.171
▁rope	-11.1711
hill	-11.1717
▁1979,	-11.1718
▁rituals	-11.1719
▁adj	-11.1724
▁Dhungana	-11.1727
▁convenience	-11.1727
▁turmoil	-11.1727
▁snake	-11.1727
▁Rasuwa	-11.1727
▁Ci	-11.1731
government	-11.1734
how	-11.1736
bearer	-11.174
LE	-11.1741
struction	-11.1742
▁multitude	-11.1742
▁epic	-11.1745
▁greatest	-11.1745
▁snap	-11.1745
▁Sara	-11.1749
▁designer	-11.1751
▁MW	-11.1754
mad	-11.1756
▁Fifty	-11.1757
▁kerosene	-11.1757
▁removal	-11.1757
▁jeep	-11.1757
▁charity	-11.1759
OS	-11.1759
▁sealed	-11.176
▁constitute	-11.1762
▁Million	-11.1768
▁senator	-11.1773
▁Achham	-11.1773
99	-11.1776
▁Maya	-11.1777
▁unexpected	-11.1778
▁pet	-11.1779
▁editing	-11.1787
flow	-11.1787
▁universal	-11.1788
▁friendship	-11.1791
▁comedy	-11.1791
▁Senator	-11.1793
▁Upper	-11.1795
▁Abu	-11.18
▁hired	-11.18
▁Sol	-11.1803
▁guy	-11.1804
▁centuries	-11.1804
▁offspring	-11.1804
▁Dean	-11.1805
vol	-11.1806
ova	-11.1807
▁DNA	-11.1808
▁coat	-11.1808
fra	-11.181
tics	-11.1811
▁Burma	-11.1812
▁witnesses	-11.1813
pm	-11.1815
▁Constitutional	-11.1815
▁horn	-11.1816
▁canceled	-11.1816
▁Tour	-11.1817
▁Bud	-11.1818
64	-11.1818
▁adjusted	-11.1819
▁Adam	-11.1819
▁Diego	-11.182
▁hunt	-11.1824
▁justification	-11.1824
▁Ger	-11.1826
▁Fo	-11.1827
▁progressive	-11.1831
▁lessons	-11.1831
▁conscious	-11.1833
▁brick	-11.1835
▁wilderness	-11.1835
▁GM	-11.1836
▁Samuel	-11.1836
▁00	-11.1837
▁Olympics	-11.1837
mus	-11.1838
▁Cri	-11.1841
DP	-11.1842
▁Khu	-11.1846
▁Hydropower	-11.1851
▁unemployment	-11.1852
▁Maybe	-11.1852
▁battery	-11.1854
▁2012	-11.1855
▁Jeff	-11.1857
dro	-11.1858
▁acceptable	-11.1861
▁liquid	-11.1862
85	-11.1864
▁nurse	-11.1864
▁asks	-11.1865
▁nationalist	-11.1866
▁Sindhuli	-11.1866
▁commodities	-11.1866
▁container	-11.1869
▁Reserved	-11.1869
▁Eight	-11.1873
▁prompt	-11.1876
▁McC	-11.1876
▁Cy	-11.1877
▁advised	-11.1878
media	-11.1878
▁illness	-11.1881
▁Representative	-11.1882
▁emphasize	-11.1882
▁Appeal	-11.1882
▁Saving	-11.1883
▁Others	-11.1883
equi	-11.1896
▁identifying	-11.1899
TC	-11.1902
lai	-11.1902
cut	-11.1906
▁intends	-11.1908
▁Pen	-11.191
▁Reuters	-11.1913
▁restoration	-11.1914
▁pleasant	-11.1914
▁Sciences	-11.1919
▁sticks	-11.1921
▁professionals	-11.1924
▁shots	-11.1925
abad	-11.1925
▁ego	-11.1928
CE	-11.1929
▁emerging	-11.1929
▁Kala	-11.1932
▁bones	-11.1935
▁ki	-11.1935
▁pressured	-11.1936
▁plus	-11.1937
▁homework	-11.1939
▁bearers	-11.1943
▁SP	-11.1945
▁compulsory	-11.1945
PO	-11.1945
▁chaos	-11.1946
▁Ryan	-11.1948
▁Saying	-11.1951
▁searched	-11.1953
▁mourning	-11.1959
▁disciples	-11.1961
▁History	-11.1961
▁escaped	-11.1963
mir	-11.1964
town	-11.1966
▁Khal	-11.1966
nny	-11.1973
▁requests	-11.1973
ological	-11.1974
auli	-11.1975
▁crack	-11.1976
▁optimistic	-11.1977
▁satisfaction	-11.1977
▁Brexit	-11.1977
▁outcome	-11.1978
phone	-11.1981
▁scr	-11.1982
▁renew	-11.1983
8,000	-11.1989
▁qua	-11.1991
▁Competition	-11.1993
▁Liverpool	-11.1993
▁Kuwait	-11.1993
▁deems	-11.1993
▁dying	-11.1994
▁produces	-11.1999
▁Jr	-11.2002
▁Tar	-11.2002
▁objection	-11.2003
▁metropolis	-11.2008
ease	-11.2008
▁sugarcane	-11.2008
▁womb	-11.2008
▁Ah	-11.2013
▁Grant	-11.2015
▁cooperatives	-11.2016
▁personally	-11.2018
ky	-11.2023
▁practitioner	-11.2024
▁Jewish	-11.2025
group	-11.2026
rie	-11.2035
▁enjoying	-11.2038
▁tries	-11.2038
▁tire	-11.2039
▁valuable	-11.204
▁verdict	-11.204
▁throat	-11.204
▁Den	-11.2041
▁edit	-11.2043
▁cho	-11.2045
▁insist	-11.2051
▁Bai	-11.2052
nger	-11.2054
▁patrol	-11.2056
▁obstruction	-11.2059
▁wireless	-11.2059
100	-11.2059
gent	-11.2062
▁wherever	-11.2062
▁outstanding	-11.2064
hila	-11.2064
▁Run	-11.2066
▁compound	-11.2073
▁Padma	-11.2077
SP	-11.208
▁Ty	-11.2084
has	-11.2086
▁risky	-11.2087
▁Michigan	-11.2088
▁lovers	-11.2089
TO	-11.2091
▁Thai	-11.2095
▁playoff	-11.2096
nah	-11.2098
▁destinations	-11.21
▁Hundreds	-11.2101
fire	-11.2101
tech	-11.2102
▁violated	-11.2103
▁Simpson	-11.2104
▁cottage	-11.2104
▁desperate	-11.2104
▁Did	-11.211
41	-11.2118
▁reflected	-11.2119
▁truly	-11.212
▁blog	-11.2121
▁resistance	-11.2122
GA	-11.2123
uka	-11.2128
rov	-11.2131
bling	-11.2134
▁Marc	-11.2135
iness	-11.2136
▁privilege	-11.2136
▁buyers	-11.2141
▁lamb	-11.2143
▁Total	-11.2145
born	-11.2147
▁Communications	-11.2148
▁originally	-11.2152
▁Cabinet	-11.2152
▁operates	-11.2153
▁tu	-11.2153
▁tiny	-11.2153
▁balanced	-11.2154
▁bath	-11.2155
PL	-11.216
▁cor	-11.2162
Man	-11.2162
zar	-11.2168
khar	-11.2168
▁Manoj	-11.2169
▁magic	-11.217
▁crude	-11.2172
▁disturbed	-11.2175
▁brokers	-11.2175
▁stopping	-11.2176
▁Mau	-11.2179
▁disagree	-11.2181
▁Sox	-11.2183
▁tobacco	-11.2185
▁Santosh	-11.2185
An	-11.2186
▁extracted	-11.2189
▁Remember	-11.2191
Be	-11.2192
▁Mul	-11.2196
▁hitting	-11.2196
▁lab	-11.2199
▁modified	-11.2201
▁Natural	-11.2201
▁hunting	-11.2201
▁lamp	-11.2204
▁Roman	-11.2211
▁jet	-11.2213
▁059	-11.2218
fr	-11.222
▁Additional	-11.2223
▁Swa	-11.2228
▁cargo	-11.2228
▁economically	-11.2231
Sa	-11.2233
▁Newspaper	-11.2233
▁composed	-11.2233
▁birthplace	-11.2234
▁deserve	-11.2235
▁probe	-11.2235
▁Chitra	-11.2239
94	-11.224
km	-11.2241
▁immovable	-11.225
▁steel	-11.225
rum	-11.225
Reuters	-11.2251
page	-11.2253
▁hang	-11.226
▁Message	-11.2266
game	-11.2266
▁demonstrate	-11.2266
▁Voice	-11.2266
▁borrower	-11.2268
hani	-11.2269
▁commandment	-11.227
▁threatening	-11.227
72	-11.2272
CA	-11.2281
▁Summit	-11.2282
▁grandchildren	-11.2282
▁timber	-11.2282
▁Fin	-11.2283
▁4-	-11.2284
minute	-11.2285
▁replacement	-11.2287
▁tariff	-11.229
riya	-11.2298
▁dissolution	-11.2299
▁testimony	-11.2299
▁abundant	-11.2299
▁variable	-11.2299
gun	-11.2299
NE	-11.2299
▁guess	-11.2299
▁wives	-11.23
▁bases	-11.2304
▁wooden	-11.2306
Upon	-11.2311
▁temples	-11.2312
▁Hy	-11.2313
▁duplicate	-11.2315
▁Coordinator	-11.2315
▁midnight	-11.2316
▁classified	-11.2318
▁guru	-11.2318
▁mighty	-11.232
▁spin	-11.2327
rick	-11.2327
▁Building	-11.2331
▁propaganda	-11.2331
▁Clear	-11.2332
amp	-11.2332
▁wards	-11.2332
CH	-11.2333
▁Gun	-11.2334
▁expense	-11.234
▁providers	-11.2344
Sh	-11.2345
Ar	-11.2345
▁marijuana	-11.2348
eng	-11.2349
TH	-11.2349
▁cruel	-11.235
▁Dha	-11.235
▁Bimal	-11.235
▁detail	-11.2351
▁Sudan	-11.2355
▁Chh	-11.2356
▁54	-11.2356
▁Gul	-11.236
mel	-11.2363
▁Standing	-11.2365
▁Miami	-11.2365
▁mindset	-11.2369
▁titles	-11.237
lio	-11.2372
▁belong	-11.2377
▁Sabha	-11.2377
rad	-11.2379
▁Baluwatar	-11.2381
▁Treasury	-11.2381
▁dengue	-11.2381
▁Kishore	-11.2381
▁define	-11.2381
▁preview	-11.2382
ington	-11.2387
▁breathing	-11.2388
dam	-11.2389
▁categories	-11.2397
▁rhythm	-11.2397
ES	-11.24
high	-11.24
▁instrument	-11.2401
▁Bus	-11.2403
▁Fre	-11.2403
▁Mill	-11.2405
▁officially	-11.2406
▁Find	-11.241
▁Republica	-11.2411
▁rainy	-11.2413
▁ghost	-11.2414
▁faithful	-11.2416
91	-11.2416
61	-11.2423
▁filmmaker	-11.2427
▁PC	-11.2427
NG	-11.2427
▁diplomacy	-11.243
scale	-11.2432
▁stipulated	-11.2433
▁reportedly	-11.2434
▁Rawal	-11.2434
▁successor	-11.2435
▁Jatra	-11.2436
ele	-11.2443
▁1998	-11.245
keeper	-11.2458
400	-11.2461
FA	-11.2461
▁Swiss	-11.2463
▁semifinals	-11.2463
▁thread	-11.2463
▁Default	-11.2464
type	-11.2471
athi	-11.2471
▁meter	-11.2479
These	-11.248
▁immense	-11.248
bul	-11.248
▁rarely	-11.2483
▁7:	-11.2483
unc	-11.2486
▁Stra	-11.2492
▁Accounts	-11.2492
duce	-11.2493
▁Fox	-11.2495
▁voluntary	-11.2497
▁yourselves	-11.2497
▁ceiling	-11.2497
▁admission	-11.2497
▁actors	-11.2498
▁Wo	-11.2498
▁trick	-11.2499
▁2005,	-11.2502
▁dismiss	-11.2502
83	-11.2503
▁viewer	-11.2503
link	-11.2505
▁trusted	-11.2506
▁flows	-11.251
▁jumped	-11.2511
ender	-11.2511
▁craft	-11.2511
▁hydro	-11.2513
▁overcome	-11.2514
▁Chha	-11.2514
andi	-11.2516
▁hail	-11.2516
bri	-11.2516
▁Rak	-11.2523
▁limits	-11.2526
▁camps	-11.2527
▁63	-11.2527
")	-11.253
▁Independent	-11.253
▁Sindhupalchowk	-11.253
95	-11.253
▁radical	-11.2531
▁carpet	-11.2531
▁nationalism	-11.2535
▁pipeline	-11.2535
ense	-11.254
▁voices	-11.2544
▁arises	-11.2544
▁carefully	-11.2546
▁constituency	-11.2547
▁pleasure	-11.2547
▁attending	-11.2548
▁disk	-11.2548
▁Fair	-11.2557
▁legally	-11.2559
ison	-11.256
▁thank	-11.256
▁gates	-11.2562
▁Atlanta	-11.2564
▁divide	-11.2564
▁Cu	-11.2564
▁righteousness	-11.2566
Com	-11.2566
▁Moab	-11.2567
▁substantial	-11.2572
▁grave	-11.2572
▁affecting	-11.2577
EC	-11.2577
▁righteous	-11.2579
▁Santa	-11.258
▁franchise	-11.258
▁rotating	-11.258
▁subscribe	-11.2581
China	-11.2585
▁wage	-11.2587
grad	-11.2589
▁indicates	-11.2591
▁Dailekh	-11.2597
▁disabilities	-11.2597
▁violate	-11.2598
▁exception	-11.2599
▁hook	-11.2599
▁1991	-11.26
other	-11.26
▁Southern	-11.2601
Behold	-11.2601
▁founding	-11.2602
▁winners	-11.2602
▁warming	-11.2603
▁Gulmi	-11.2604
▁condemned	-11.2605
▁cows	-11.2605
▁locations	-11.2605
sey	-11.2611
▁regulation	-11.2612
Ho	-11.2613
▁Thank	-11.2614
▁Dipendra	-11.2614
▁Philadelphia	-11.2614
▁decreasing	-11.2614
▁Maryland	-11.2615
kill	-11.2619
▁1.5	-11.2619
ene	-11.2619
▁Islam	-11.2619
▁ultimately	-11.2621
▁actively	-11.2624
▁ambitious	-11.2631
▁violations	-11.2632
800	-11.2632
▁latter	-11.2633
▁Fred	-11.2633
rous	-11.2636
Mi	-11.2638
▁sang	-11.2643
▁3:	-11.2646
▁unhealthy	-11.2648
▁Rizal	-11.2648
▁Tokyo	-11.2648
▁discretion	-11.2648
▁fewer	-11.2648
▁availability	-11.2648
▁dump	-11.265
▁belt	-11.265
▁Simon	-11.2655
▁rivals	-11.2656
7,000	-11.2658
iling	-11.266
▁landing	-11.2661
▁warehouse	-11.2665
▁Vinod	-11.2665
▁unite	-11.2666
▁Sandeep	-11.2666
▁stealing	-11.2667
aki	-11.2668
▁fines	-11.2673
CT	-11.2674
▁render	-11.2677
▁Portugal	-11.2682
▁defensive	-11.2682
▁psychology	-11.2682
▁Bahun	-11.2684
▁Dur	-11.2684
▁Amrit	-11.2684
▁echo	-11.2685
▁Anderson	-11.2685
▁speaks	-11.2686
▁maize	-11.2686
▁umbrella	-11.2691
42	-11.2691
▁civilians	-11.2692
▁boss	-11.2693
ching	-11.2694
Ja	-11.2696
ette	-11.2696
▁flourish	-11.2698
mati	-11.2703
▁measured	-11.2703
▁58	-11.2703
▁Panch	-11.2703
quest	-11.2706
▁lung	-11.2707
▁Seti	-11.2707
▁Hor	-11.2708
▁nest	-11.2714
Fi	-11.2714
yl	-11.2715
▁urging	-11.2716
▁famine	-11.2716
▁ignore	-11.2717
▁classroom	-11.2719
▁surgeon	-11.2722
▁Citizens	-11.2725
▁organised	-11.2726
▁Table	-11.2729
Al	-11.2733
▁Bob	-11.2734
▁bride	-11.2734
▁remind	-11.2735
51	-11.2736
▁mask	-11.2737
▁AD	-11.274
▁Til	-11.2741
▁garments	-11.2744
▁acknowledge	-11.2747
▁capitalist	-11.2749
▁Document	-11.275
▁Hampshire	-11.275
▁satisfy	-11.275
▁Product	-11.2763
▁normally	-11.2763
▁wings	-11.2765
▁comprehensive	-11.2767
▁negotiating	-11.2767
▁Gharti	-11.2767
▁bombs	-11.2769
▁DDC	-11.2769
▁Suk	-11.2771
74	-11.2773
▁suburb	-11.2779
▁links	-11.2779
▁kha	-11.278
▁Mil	-11.2781
RE	-11.2783
▁fool	-11.2784
cul	-11.2784
▁smoking	-11.2784
▁examining	-11.2784
▁Purana	-11.2786
▁employed	-11.2786
▁healthcare	-11.2786
▁deals	-11.2787
▁Kum	-11.2787
▁suppress	-11.2799
▁activism	-11.2802
▁candidacy	-11.2802
▁tremendous	-11.2802
▁ensuring	-11.2802
▁Colorado	-11.2802
▁aged	-11.2803
▁205	-11.2803
▁Fee	-11.2813
▁Kam	-11.2815
▁Taiwan	-11.2819
▁Upreti	-11.2819
▁DSP	-11.2821
▁airports	-11.2823
July	-11.2824
▁experiment	-11.2826
blo	-11.2827
▁Base	-11.2834
▁Procurement	-11.2836
▁frustration	-11.2836
▁mirror	-11.2836
even	-11.284
▁suggestion	-11.2842
cies	-11.2851
▁Ren	-11.2851
▁accountable	-11.2852
space	-11.2854
▁diplomats	-11.2854
▁harassment	-11.2854
▁maker	-11.2862
▁contributions	-11.2863
▁separately	-11.2864
▁beds	-11.2865
▁Ohio	-11.2871
▁outfit	-11.2871
▁parameter	-11.2871
▁Bhusal	-11.2871
▁Gagan	-11.2871
▁Ce	-11.2873
▁Review	-11.2873
▁Gore	-11.2876
kala	-11.2878
▁Fall	-11.2886
▁loyal	-11.2887
▁competing	-11.2888
▁qualify	-11.2888
▁colour	-11.2888
▁foolish	-11.2889
▁eliminate	-11.2889
▁priorities	-11.2891
▁singers	-11.2893
American	-11.2896
▁oversee	-11.2898
▁shaking	-11.2906
▁jailed	-11.2907
▁spare	-11.2907
▁donkey	-11.2909
vati	-11.291
▁pal	-11.2917
▁extract	-11.292
▁exact	-11.2922
▁demonstrated	-11.2922
▁refers	-11.2923
▁Cooperation	-11.2924
▁proven	-11.2927
hana	-11.293
shot	-11.2935
▁inaugura	-11.2936
▁Military	-11.294
▁preferred	-11.2941
▁Prabha	-11.2942
▁expertise	-11.2942
▁ballot	-11.2943
▁rebound	-11.2943
▁sections	-11.2944
▁obstacle	-11.2945
▁Howard	-11.2951
▁techniques	-11.2952
▁withdrawal	-11.2953
▁slip	-11.2954
▁capita	-11.2956
▁Arizona	-11.2958
▁beloved	-11.2958
▁drove	-11.2958
▁ghee	-11.2958
▁Space	-11.2958
▁sensor	-11.2958
▁Nir	-11.2958
▁trekking	-11.2958
▁elite	-11.2958
▁Consumers	-11.2959
▁pending	-11.2963
OM	-11.2965
▁outer	-11.2967
58	-11.2969
▁Gam	-11.297
store	-11.2972
▁bamboo	-11.2975
aida	-11.2977
vat	-11.2983
▁managers	-11.2986
▁locked	-11.2987
▁enterprises	-11.2988
▁Cat	-11.2988
hon	-11.2988
Ro	-11.2993
▁cleared	-11.2995
Me	-11.2997
▁guaranteed	-11.2998
eh	-11.2999
▁Bala	-11.3
▁ruin	-11.3
▁indicate	-11.3
▁Chure	-11.3006
iko	-11.3009
▁Dixit	-11.301
▁recipient	-11.301
▁charging	-11.3011
▁Choose	-11.3011
▁AP	-11.3011
▁Ishwar	-11.3012
▁reserves	-11.3013
▁2063	-11.3013
▁intent	-11.3018
▁cheaper	-11.3018
▁breach	-11.3026
▁credibility	-11.3028
▁flexible	-11.3028
▁Sitaula	-11.3028
confidence	-11.3034
▁10,000	-11.3037
▁Trans	-11.3037
▁associations	-11.3039
▁Netherlands	-11.3045
▁monument	-11.3045
▁possibly	-11.3045
▁odd	-11.3046
▁abducted	-11.3052
▁receives	-11.3055
Po	-11.3056
▁rely	-11.3058
ui	-11.3058
▁Job	-11.3059
▁communications	-11.3062
▁Mahottari	-11.3063
▁permanently	-11.3063
▁Sheikh	-11.3064
▁Himal	-11.3066
uality	-11.307
▁dish	-11.3072
▁glad	-11.3076
▁cleaning	-11.3077
yam	-11.3078
▁Establishment	-11.3081
▁Abi	-11.3083
ifying	-11.3094
▁Shambhu	-11.3098
▁Field	-11.3098
▁patent	-11.3099
lib	-11.31
▁samples	-11.3102
▁loaded	-11.3104
▁Citizen	-11.3106
def	-11.311
▁musician	-11.3115
▁dissatisfied	-11.3116
▁somewhat	-11.3119
▁1997	-11.3119
akar	-11.312
▁executed	-11.3121
▁exile	-11.3121
▁mud	-11.3127
▁Tell	-11.3129
die	-11.3131
▁buttons	-11.3131
▁bacteria	-11.3134
▁Armies	-11.3134
▁Cro	-11.3135
dah	-11.3138
▁Appellate	-11.3139
▁Baj	-11.3143
▁anymore	-11.3147
cat	-11.3147
range	-11.3148
▁Baitadi	-11.3152
▁sophisticated	-11.3152
▁civilian	-11.3152
arch	-11.3152
▁county	-11.3153
▁Guard	-11.3153
▁tomb	-11.3156
▁transformed	-11.316
▁Yo	-11.3165
▁lender	-11.3167
yang	-11.3168
▁stem	-11.3168
▁remarkable	-11.3169
▁patience	-11.3169
▁Invalid	-11.3169
▁smugglers	-11.317
▁Del	-11.317
▁restored	-11.3171
▁Level	-11.3171
▁laughter	-11.3172
fic	-11.3173
▁motorcycles	-11.3174
▁Production	-11.3174
▁57	-11.3178
▁Mus	-11.3179
▁Pass	-11.3182
posed	-11.3186
▁ambition	-11.3187
▁reinstatement	-11.3188
She	-11.3189
▁defender	-11.3191
▁speakers	-11.3191
▁medals	-11.3195
▁oppressed	-11.3197
▁Siddhartha	-11.3205
▁distinguish	-11.3205
▁explanation	-11.3205
▁lunch	-11.3205
▁discharge	-11.3207
▁liquidity	-11.3207
86	-11.3209
▁leftist	-11.3209
▁bookmark	-11.321
▁scan	-11.3212
77	-11.3214
▁flash	-11.3216
gon	-11.3217
nga	-11.3218
▁Au	-11.3221
▁Ephraim	-11.3223
▁Ramechhap	-11.3223
▁commented	-11.3225
piece	-11.3231
▁transitional	-11.3231
▁shouting	-11.3231
FC	-11.3235
▁nearest	-11.3237
▁dowry	-11.3241
▁sensation	-11.3241
▁hurry	-11.3241
▁Bridge	-11.3243
▁Narayani	-11.3247
▁quake	-11.3248
▁sake	-11.325
PC	-11.3258
▁arbitrator	-11.3259
▁universe	-11.3259
▁crown	-11.3259
▁Tro	-11.326
And	-11.326
▁Kevin	-11.326
ranging	-11.3261
▁Money	-11.3263
▁Shar	-11.3265
▁attempted	-11.3273
▁errors	-11.3273
▁improvements	-11.3275
▁desired	-11.3275
▁Library	-11.3277
▁Pokhrel	-11.3277
▁cameras	-11.328
sheet	-11.328
▁chase	-11.3281
▁abused	-11.3285
▁61	-11.3289
▁Manhattan	-11.3295
▁butterflies	-11.3295
▁altitude	-11.3295
▁Teaching	-11.3295
▁CO	-11.3295
▁Path	-11.3296
▁Bish	-11.3297
writer	-11.3302
▁ABC	-11.3304
▁wicket	-11.3308
▁NCP	-11.3308
▁levied	-11.3313
▁portfolio	-11.3313
▁protocol	-11.3313
▁Umesh	-11.3318
▁physically	-11.3321
▁backed	-11.3322
week	-11.3323
▁resulting	-11.3325
hn	-11.3325
▁hardly	-11.3326
pokhari	-11.3331
▁Contact	-11.3331
▁loving	-11.3331
▁brutal	-11.3331
▁dressed	-11.3332
▁charter	-11.3333
EA	-11.3344
▁checking	-11.3344
pid	-11.3345
▁basket	-11.3349
▁collateral	-11.3349
▁possibilities	-11.3349
▁replied	-11.3349
▁unfair	-11.3349
▁modify	-11.335
▁preventing	-11.3351
▁10:	-11.3352
lang	-11.3353
hel	-11.3353
will	-11.3353
▁Ghale	-11.3354
▁Lan	-11.3354
▁pressing	-11.3355
▁hint	-11.3359
▁sells	-11.3361
▁classical	-11.3363
▁moments	-11.3365
▁Darfur	-11.3368
▁Mahabharata	-11.3368
▁72	-11.337
▁$9	-11.3371
MB	-11.3373
▁birthday	-11.3374
bla	-11.3374
bury	-11.3374
▁Ful	-11.3377
▁Democrat	-11.3377
▁resulted	-11.3383
▁mature	-11.3385
▁Square	-11.3386
▁geography	-11.3386
▁distinct	-11.3386
▁Geneva	-11.3387
▁preference	-11.3387
▁creditor	-11.3388
600	-11.3388
▁torn	-11.3391
▁wash	-11.3392
dol	-11.3394
▁grid	-11.3397
▁8:	-11.3399
▁Higher	-11.3399
2)	-11.3399
▁component	-11.34
▁privacy	-11.3404
▁corn	-11.3405
▁stamp	-11.3406
▁64	-11.3407
▁bowed	-11.3409
ulation	-11.3411
phi	-11.3418
▁Campaign	-11.3422
▁caution	-11.3422
▁Ac	-11.3422
▁stroke	-11.3422
tho	-11.3423
▁Bro	-11.3423
▁feast	-11.3424
▁banner	-11.3426
TV	-11.3427
▁Being	-11.3427
▁outrage	-11.343
▁Zion	-11.3434
▁volunteer	-11.3438
▁Mak	-11.3438
awa	-11.3439
▁consultancy	-11.3441
ore	-11.3441
▁utilize	-11.3443
▁poured	-11.3444
With	-11.345
▁Rajan	-11.3455
▁Holi	-11.3455
▁Send	-11.3456
▁header	-11.3457
▁Panchthar	-11.3459
▁taxpayer	-11.3459
71	-11.346
▁dual	-11.3461
▁NEA	-11.3461
▁riding	-11.3463
▁instructions	-11.3463
▁mantra	-11.3467
▁launching	-11.3471
▁manual	-11.3472
▁kit	-11.3475
▁holidays	-11.3477
een	-11.3477
▁devastating	-11.3477
▁Sanjay	-11.3478
▁Spring	-11.3479
▁mountainous	-11.3483
▁crush	-11.3484
▁assisted	-11.3489
▁Suresh	-11.349
▁tail	-11.3491
used	-11.3492
▁Belgium	-11.3496
▁disappointment	-11.3496
▁gambling	-11.3496
py	-11.3503
▁substances	-11.3503
▁regulator	-11.3506
300	-11.3508
▁cadre	-11.3513
▁choosing	-11.3514
▁suspicious	-11.3514
▁breed	-11.3515
▁accuse	-11.3517
▁prisoner	-11.3521
▁tariffs	-11.3524
▁frequently	-11.3524
▁tar	-11.3524
▁Gau	-11.3525
▁paint	-11.3527
▁FY	-11.3529
▁tracks	-11.3532
▁Columbia	-11.3533
▁archaeological	-11.3533
▁eldest	-11.3533
▁ignorance	-11.3533
▁Kolkata	-11.3533
▁oppression	-11.3534
operative	-11.3534
▁Brian	-11.3535
▁Def	-11.3539
▁examined	-11.3545
▁Ann	-11.3549
▁Steven	-11.355
49	-11.3551
▁monastery	-11.3551
▁resolving	-11.3551
▁subsidiary	-11.3551
▁shedding	-11.3552
▁fault	-11.3552
▁inheritance	-11.3552
▁pillars	-11.3553
bazar	-11.3555
▁struggled	-11.3555
▁Dhami	-11.3556
ddle	-11.3558
▁disputed	-11.3563
bre	-11.3565
claim	-11.3566
▁monks	-11.3567
▁parallel	-11.357
▁significance	-11.357
▁stalled	-11.3571
SD	-11.3571
▁Bond	-11.3574
▁Asked	-11.3574
▁traditions	-11.3575
wari	-11.3587
▁Log	-11.3588
▁Bajracharya	-11.3588
▁Mohammad	-11.3588
▁summon	-11.359
▁titled	-11.3593
▁rush	-11.3594
national	-11.3598
▁Person	-11.36
lick	-11.3604
▁zones	-11.3606
▁sessions	-11.3607
▁Lamjung	-11.3607
▁awakened	-11.3607
sky	-11.3611
▁quarterback	-11.3611
▁besides	-11.3614
ius	-11.3614
▁survivors	-11.3614
▁Mari	-11.3614
▁balls	-11.3615
profit	-11.3616
▁Put	-11.3617
▁elect	-11.3618
▁reflects	-11.3618
▁Rupa	-11.3619
▁85	-11.3619
▁sounds	-11.362
▁allocation	-11.3626
▁streams	-11.3626
▁guys	-11.3629
▁Journal	-11.3638
▁dynasty	-11.3644
▁furniture	-11.3644
New	-11.3645
▁Captain	-11.3645
▁usual	-11.3645
▁analyze	-11.3647
▁GDP	-11.3647
▁arisen	-11.3652
▁photographs	-11.366
▁walks	-11.3662
NP	-11.3662
▁Jajarkot	-11.3663
▁Support	-11.3663
▁frozen	-11.3663
kumari	-11.3663
▁random	-11.3664
▁dramatic	-11.3665
▁layers	-11.3667
▁stored	-11.3668
▁entirely	-11.3672
▁backup	-11.3672
vic	-11.368
ij	-11.3681
▁phrase	-11.3682
▁reluctant	-11.3682
▁Animal	-11.3682
▁Ravi	-11.3682
▁vow	-11.3683
▁strikes	-11.3685
position	-11.3686
▁whereas	-11.3697
▁Municipal	-11.3699
▁certified	-11.3701
▁virgin	-11.3701
▁forehead	-11.3701
▁Engineering	-11.3702
aran	-11.3703
▁formulation	-11.3704
900	-11.3705
▁prosecuted	-11.3707
▁assert	-11.3708
▁sudden	-11.3709
▁dense	-11.3714
▁delight	-11.3714
▁emotions	-11.3715
▁handling	-11.3716
▁Generally	-11.3716
▁inclusion	-11.3717
▁leak	-11.3719
▁innovative	-11.3719
▁convey	-11.372
▁vagina	-11.372
▁architecture	-11.372
▁tele	-11.3726
qna	-11.3727
▁weaken	-11.3729
FirstC	-11.3729
▁alternatives	-11.373
▁upgrade	-11.3731
cell	-11.3732
▁Tin	-11.3733
▁sponsor	-11.3734
▁shed	-11.3736
3,000	-11.3736
▁Enterprise	-11.3738
▁Greek	-11.3738
▁excavation	-11.3738
▁coincidence	-11.3738
▁arrow	-11.3739
hung	-11.3741
▁vowed	-11.3742
▁Alan	-11.3745
▁Ag	-11.3746
▁potentially	-11.3748
▁Jen	-11.3749
tent	-11.3752
anti	-11.3756
▁halt	-11.3757
▁Reconstruction	-11.3757
▁inadequate	-11.3757
▁plaintiff	-11.3757
▁dare	-11.3758
▁shouted	-11.3759
▁momentum	-11.3762
▁harmful	-11.3763
season	-11.3767
apa	-11.3767
▁Reg	-11.3768
▁allies	-11.3776
▁rejoice	-11.3776
▁eleven	-11.3776
▁Clark	-11.3777
▁Friends	-11.3777
Some	-11.3779
▁expenditures	-11.3781
▁presenting	-11.3782
hwa	-11.3783
▁1960	-11.3784
▁belongs	-11.3787
▁Remove	-11.3792
sari	-11.3792
undi	-11.3792
▁Carl	-11.3793
RR	-11.3794
▁obliged	-11.3795
▁Basant	-11.3805
nne	-11.3806
▁sovereign	-11.3813
▁defence	-11.3814
▁Bhairav	-11.3814
▁boast	-11.3814
▁outline	-11.3815
▁respected	-11.3815
▁offender	-11.3817
▁Provide	-11.382
makers	-11.3821
▁visual	-11.3823
▁cultivated	-11.3826
▁Satya	-11.3828
▁Dick	-11.3828
▁honesty	-11.3829
▁Gov	-11.383
▁Maj	-11.3831
▁cheating	-11.3831
road	-11.3835
▁Sitting	-11.3835
▁stepped	-11.3837
FO	-11.3838
▁strip	-11.3839
▁rear	-11.384
▁prevail	-11.3841
face	-11.3842
▁bullets	-11.3846
▁toilets	-11.3849
▁Dh	-11.3851
Ex	-11.3851
▁literacy	-11.3852
▁bra	-11.3854
rite	-11.3855
▁keyboard	-11.3856
▁Close	-11.3857
▁prince	-11.3858
▁Match	-11.3859
84	-11.386
▁bore	-11.3863
count	-11.3863
▁100,000	-11.3866
eta	-11.3867
▁eggs	-11.3867
▁dug	-11.387
▁accurate	-11.3871
SL	-11.3872
▁coup	-11.3872
▁5,000	-11.3874
▁paintings	-11.3877
pana	-11.3878
▁pig	-11.3879
▁frequent	-11.388
▁Down	-11.3882
▁poles	-11.3883
tress	-11.3884
▁exploit	-11.3886
▁tube	-11.3886
▁Nag	-11.3887
▁Tank	-11.3887
▁Site	-11.389
▁functioning	-11.389
▁Configure	-11.3891
▁Evolution	-11.3891
▁Language	-11.3891
▁clarify	-11.3891
▁ashamed	-11.3891
▁Blackwater	-11.3891
▁unemployed	-11.3892
▁Border	-11.3893
▁remembering	-11.3894
▁recall	-11.3895
▁dishes	-11.3897
▁demonstrations	-11.39
▁bind	-11.3902
▁Code	-11.3903
kant	-11.3905
▁prosecutors	-11.3905
▁effectiveness	-11.3906
▁cultivation	-11.391
door	-11.391
amba	-11.3913
▁Coast	-11.3917
▁Channel	-11.3922
Vi	-11.3923
▁payable	-11.3926
▁66	-11.3926
▁clinical	-11.3927
▁Conservative	-11.3929
▁Sydney	-11.3929
53	-11.3929
▁Jag	-11.3931
▁Davis	-11.3932
▁boil	-11.3932
▁Bhagwati	-11.3934
▁Kath	-11.3936
▁Directorate	-11.3937
▁Harry	-11.3937
TI	-11.3937
▁Rome	-11.3938
▁Town	-11.3943
pil	-11.3943
▁euros	-11.3944
ariya	-11.3946
vit	-11.3947
▁Paudel	-11.3948
▁queue	-11.3948
▁boom	-11.3951
adevi	-11.3953
81	-11.3954
▁Coach	-11.3954
▁Monitoring	-11.3955
▁Dai	-11.3956
IR	-11.3958
▁scar	-11.3959
▁immortal	-11.3966
▁remarks	-11.3968
▁emerge	-11.3971
▁spell	-11.3974
wat	-11.3976
lem	-11.3979
▁Gol	-11.3981
▁periodic	-11.3981
▁folders	-11.3981
▁Asa	-11.3985
▁reservation	-11.3987
▁reservoir	-11.3987
▁Bye	-11.3987
Related	-11.3987
▁subordinate	-11.3988
▁Tej	-11.3991
word	-11.3991
82	-11.3993
▁interviews	-11.3994
▁washed	-11.3994
▁Rup	-11.3996
IP	-11.3997
▁Wang	-11.3997
▁9:	-11.4
▁Colombia	-11.4006
▁movable	-11.4006
▁stove	-11.4006
▁Dallas	-11.4006
▁insisted	-11.4014
▁Live	-11.4016
▁Whereas	-11.4017
mini	-11.4019
▁Help	-11.402
▁socialism	-11.4024
▁Emirates	-11.4026
▁dried	-11.4026
▁Gorkhapatra	-11.4026
▁employ	-11.4026
▁Dum	-11.4027
▁Nik	-11.4027
▁1996	-11.4029
▁communicate	-11.4029
▁alter	-11.4031
ato	-11.4033
▁Rob	-11.4035
dir	-11.4038
▁Mahadev	-11.4039
market	-11.4044
▁flour	-11.4044
▁sexually	-11.4045
▁appreciated	-11.4045
▁Damascus	-11.4045
▁physician	-11.4045
▁Folder	-11.4045
▁Title	-11.4046
▁infant	-11.4047
▁wing	-11.4049
bol	-11.405
▁Salyan	-11.4055
▁rebuild	-11.4055
▁Purna	-11.4059
▁accusing	-11.4065
▁perpetrator	-11.4065
............	-11.4068
▁photographer	-11.4068
▁Sunni	-11.407
▁Div	-11.4078
human	-11.408
▁Commercial	-11.4084
▁swimming	-11.4084
▁promulgation	-11.4085
▁Tech	-11.4089
▁abide	-11.4089
▁sharply	-11.409
▁59	-11.409
resident	-11.409
Mar	-11.4092
▁relieved	-11.4095
▁commands	-11.4098
87	-11.4099
▁Age	-11.41
▁tensions	-11.41
▁furnish	-11.4101
▁Pet	-11.4102
▁Austria	-11.4104
▁bricks	-11.4106
▁Mama	-11.4107
▁grace	-11.4107
▁Peru	-11.4109
▁Talk	-11.4112
▁Assam	-11.4112
cular	-11.4118
▁Considering	-11.4118
lock	-11.4118
▁treasury	-11.4123
▁Ocean	-11.4123
▁Nothing	-11.4124
▁retire	-11.4125
▁PA	-11.4126
eko	-11.413
One	-11.4133
now	-11.4134
▁legs	-11.414
▁Cultural	-11.4143
▁incense	-11.4143
mmer	-11.4143
▁1995	-11.4146
▁Interest	-11.4146
▁scrap	-11.4148
▁Jeremiah	-11.4151
▁fighter	-11.4156
AD	-11.4157
▁pour	-11.4158
▁liver	-11.4158
▁ge	-11.4159
▁Sak	-11.4162
▁consuming	-11.4163
▁legitimate	-11.4163
▁uninterrupted	-11.4163
itude	-11.4163
▁joke	-11.4164
▁scores	-11.4164
dhan	-11.4168
▁expressions	-11.417
▁golf	-11.4171
▁destroying	-11.4175
▁Maharaj	-11.4175
dham	-11.4177
▁Miller	-11.4177
establish	-11.4178
▁deity	-11.418
▁transplant	-11.418
▁Treaty	-11.4182
▁crazy	-11.4182
▁indicating	-11.4182
▁serial	-11.4183
▁yoga	-11.4183
chin	-11.4184
▁Garden	-11.4184
▁unclear	-11.4186
ado	-11.419
imi	-11.4192
rid	-11.4193
aver	-11.4195
▁Jal	-11.4195
stitution	-11.4198
▁toys	-11.4199
SU	-11.4199
▁Bhag	-11.4199
idi	-11.42
▁corporations	-11.4201
▁250	-11.4201
▁NFL	-11.4202
▁dictionary	-11.4202
▁ignoring	-11.4202
▁knife	-11.4202
▁murdered	-11.4202
referring	-11.4204
▁weakened	-11.4207
▁partial	-11.4207
▁defeating	-11.4208
▁Dhu	-11.4213
▁internationally	-11.4215
▁None	-11.4215
▁partly	-11.4216
▁Gyan	-11.4216
sufficient	-11.4217
▁bone	-11.4218
▁Couldn	-11.4219
▁Av	-11.4222
▁Country	-11.4222
▁Infrastructure	-11.4222
▁inhabitants	-11.4222
▁reception	-11.4222
▁leaf	-11.4223
▁058	-11.4223
78	-11.4226
elo	-11.4228
▁flags	-11.4229
▁avoided	-11.4232
▁Kaji	-11.4235
away	-11.4237
▁Dun	-11.4237
▁Thu	-11.4241
▁ji	-11.4241
iva	-11.4242
▁GNOME	-11.4242
▁Myagdi	-11.4242
▁Taylor	-11.4242
▁wrath	-11.4242
▁Urban	-11.4242
▁aviation	-11.4242
▁Kafle	-11.4243
chowk	-11.4243
▁Cap	-11.4246
eshwor	-11.4246
assi	-11.4246
▁Gauri	-11.4247
▁Sto	-11.4249
▁Hand	-11.4251
▁scholar	-11.4254
▁Math	-11.426
uma	-11.426
▁4:	-11.4261
▁disadvantage	-11.4262
▁militia	-11.4262
▁structural	-11.4262
▁brush	-11.4262
▁Wilson	-11.4263
▁Return	-11.4265
▁chairmanship	-11.4265
▁1970	-11.4268
haru	-11.4268
▁risen	-11.4269
▁Text	-11.4272
▁Hamas	-11.4273
▁Doctors	-11.4275
adh	-11.4276
▁Houston	-11.4282
59	-11.4282
▁Disease	-11.4282
88	-11.4284
▁Poland	-11.4287
▁Load	-11.4288
▁IP	-11.429
▁borne	-11.4293
▁Vedas	-11.4296
▁freight	-11.4302
▁Population	-11.4302
▁abduction	-11.4303
▁poisonous	-11.4303
▁disappearance	-11.4304
▁treating	-11.4305
▁misuse	-11.4307
▁kid	-11.4308
▁offset	-11.431
▁revised	-11.431
jah	-11.4317
▁Moti	-11.4318
▁empowered	-11.4318
▁Kurdish	-11.4322
▁Philippines	-11.4322
▁prostitute	-11.4322
▁Duties	-11.4322
WA	-11.4323
▁Crime	-11.4324
▁Full	-11.4324
▁discourage	-11.4326
▁Clo	-11.4328
▁Mission	-11.4329
▁Gor	-11.4329
▁Point	-11.4332
▁reverse	-11.4333
eshwari	-11.4337
▁Mass	-11.4338
▁CP	-11.434
▁Gha	-11.434
▁accusation	-11.4342
▁funeral	-11.4342
▁characteristic	-11.4344
▁cri	-11.4349
▁freed	-11.4352
▁Mugu	-11.4355
bur	-11.4356
▁raped	-11.4358
▁Brad	-11.4359
hya	-11.436
▁arriving	-11.4362
▁clarification	-11.4362
▁assurance	-11.4362
▁protested	-11.4362
▁restricted	-11.4363
▁browser	-11.4364
▁Hay	-11.4364
terior	-11.4366
▁Give	-11.437
▁colorful	-11.4372
▁Off	-11.4376
........	-11.4379
ware	-11.4381
▁module	-11.4382
▁pepper	-11.4382
▁Kalikot	-11.4383
▁alongside	-11.4393
▁preach	-11.4393
kka	-11.4395
▁Ahmed	-11.4395
▁gay	-11.4399
▁Bet	-11.44
▁accomplished	-11.44
▁Rayamajhi	-11.4402
▁applicable	-11.4402
▁envoy	-11.4402
▁Concern	-11.4402
▁extraordinary	-11.4402
▁Annual	-11.4402
▁ads	-11.4406
vor	-11.4406
mag	-11.4408
▁evaluated	-11.4408
▁idol	-11.4412
▁constructing	-11.4415
▁Catholic	-11.4422
▁Detroit	-11.4422
▁instant	-11.4423
▁Janak	-11.4423
▁minerals	-11.4425
▁Allow	-11.4439
Where	-11.444
▁rein	-11.4442
▁Udaipur	-11.4442
▁disposal	-11.4442
▁humble	-11.4442
▁mosque	-11.4443
▁Switch	-11.4444
och	-11.4445
▁handful	-11.4446
▁staged	-11.4449
grade	-11.445
sang	-11.4452
▁2,000	-11.4455
▁wounds	-11.4455
▁Bat	-11.4456
▁gene	-11.4456
ona	-11.4462
▁Mobile	-11.4463
▁surveillance	-11.4463
▁licence	-11.4463
▁forefront	-11.4463
▁promoter	-11.4463
walk	-11.4467
▁Dilli	-11.4467
▁twin	-11.4468
▁char	-11.4473
indra	-11.4478
▁trainer	-11.4478
▁planting	-11.4479
ifi	-11.4479
Because	-11.448
▁Torre	-11.4481
▁inventory	-11.4483
▁tragedy	-11.4483
▁Laxmi	-11.4483
▁tennis	-11.4483
▁explains	-11.4484
▁Maville	-11.4484
▁Cam	-11.4486
uth	-11.4492
▁Parliamentary	-11.4495
▁rotated	-11.4495
▁Rick	-11.4495
▁sixty	-11.45
▁Jh	-11.4501
▁Canaan	-11.4503
▁waist	-11.4504
▁attribute	-11.4508
▁Users	-11.4512
▁refugee	-11.4513
▁lending	-11.4522
▁uniform	-11.4522
▁Picture	-11.4524
▁fascinating	-11.4524
▁stir	-11.4525
▁Brazilian	-11.4526
▁Hinduism	-11.4532
rud	-11.4533
30,000	-11.4534
▁obligations	-11.4537
▁importer	-11.4542
date	-11.4542
emi	-11.4543
▁Saptarshi	-11.4544
▁wagon	-11.4544
▁Insurer	-11.4544
▁cre	-11.4545
▁leap	-11.4546
uting	-11.4546
▁Tourist	-11.4546
▁Roger	-11.4548
▁scholarships	-11.4553
mac	-11.4556
ahi	-11.456
▁threaten	-11.4561
▁winds	-11.4562
▁Goal	-11.4564
▁Circuit	-11.4565
▁anonymity	-11.4565
▁sewage	-11.4565
▁ideology	-11.4565
▁vacation	-11.4565
▁accountability	-11.4568
▁exploded	-11.4568
▁Fal	-11.4569
▁Editor	-11.4573
▁Sundar	-11.4574
▁Bor	-11.458
▁Rajya	-11.4581
▁asset	-11.4585
▁cylinder	-11.4585
▁neutral	-11.4585
▁warn	-11.4586
▁Denmark	-11.4586
▁Using	-11.4587
match	-11.4587
para	-11.4588
▁exploited	-11.4589
▁components	-11.4589
▁manufacturer	-11.459
▁Nick	-11.4594
▁SA	-11.4595
▁Jose	-11.4601
▁Anti	-11.4604
▁Humla	-11.4606
kara	-11.4606
cil	-11.4606
▁diverse	-11.4607
▁interval	-11.4608
rti	-11.4611
▁inches	-11.4611
▁prompted	-11.4615
▁cooked	-11.4615
▁shout	-11.4616
▁Sharan	-11.4618
▁hip	-11.4619
▁arch	-11.4621
▁Does	-11.4622
General	-11.4624
▁Assyria	-11.4627
▁Identity	-11.4627
▁exposure	-11.4627
▁venue	-11.4627
▁Alexander	-11.4627
▁snowfall	-11.4627
▁loose	-11.4627
▁Ajay	-11.4628
▁refund	-11.4629
▁landscape	-11.463
▁Tea	-11.463
▁witnessed	-11.4634
▁investigators	-11.4635
▁importing	-11.4643
▁foreigner	-11.4645
▁Shortly	-11.4646
▁waited	-11.4646
▁Arsenal	-11.4647
▁iniquity	-11.4647
▁innovation	-11.4647
▁Video	-11.4647
▁Alliance	-11.4647
▁Little	-11.4648
GB	-11.465
▁reviewed	-11.4652
▁Sky	-11.4653
▁Morcha	-11.4655
▁FA	-11.466
tika	-11.4661
▁columns	-11.4665
▁Script	-11.4668
▁ambulance	-11.4668
▁exciting	-11.4668
▁BA	-11.4669
▁Cancer	-11.4669
backed	-11.4671
▁Nirmala	-11.4672
▁diary	-11.4673
▁UNESCO	-11.4678
▁missions	-11.4683
nation	-11.4686
▁predicted	-11.4686
▁Sabbath	-11.4689
▁translation	-11.4689
▁generating	-11.4689
▁Pratap	-11.4689
▁rotation	-11.469
▁Trading	-11.469
▁matching	-11.4692
▁Legal	-11.4693
▁trademark	-11.4693
▁consulting	-11.4694
▁Kamala	-11.4695
▁endorsed	-11.4697
MS	-11.4706
AT	-11.4709
▁chronic	-11.4709
▁predecessor	-11.4709
▁digging	-11.471
▁Bohara	-11.4711
▁Uma	-11.4711
▁monitored	-11.4715
▁shirt	-11.4717
ride	-11.4721
▁photograph	-11.4724
▁Fifteen	-11.473
▁Manasseh	-11.473
▁THE	-11.473
▁Wildlife	-11.473
ivers	-11.4731
▁Oh	-11.4731
▁confrontation	-11.4732
▁057	-11.4732
▁cheer	-11.4732
▁Cook	-11.4738
bound	-11.4739
▁obvious	-11.4741
liv	-11.4746
▁expired	-11.4746
▁coaches	-11.4746
▁McG	-11.4747
▁Marine	-11.4749
▁contender	-11.4749
▁shameful	-11.475
▁irregular	-11.475
▁Dow	-11.4751
▁Buddhism	-11.4751
▁Cambodia	-11.4751
▁pulses	-11.4751
▁Bol	-11.4753
▁selecting	-11.4762
yana	-11.4763
iri	-11.4766
pel	-11.4768
▁Kau	-11.4771
▁Calcutta	-11.4772
▁arguing	-11.4772
▁enacted	-11.4772
▁messenger	-11.4772
▁supervisor	-11.4772
▁Credit	-11.4772
▁dragged	-11.4773
▁Station	-11.4774
DE	-11.4777
▁euro	-11.4777
wali	-11.4781
▁challenged	-11.4785
wai	-11.4786
ora	-11.4787
▁Vin	-11.4787
Su	-11.4788
▁prohibit	-11.4789
▁stubborn	-11.4791
▁Kennedy	-11.4793
▁abundance	-11.4793
▁autocratic	-11.4793
▁indirectly	-11.4793
▁counting	-11.4794
▁advise	-11.4794
▁batting	-11.4796
▁1992	-11.4796
▁colon	-11.4796
▁2048	-11.4796
▁brave	-11.4799
TP	-11.48
hab	-11.4808
▁Current	-11.4814
Look	-11.4814
▁Should	-11.4814
▁mystery	-11.4814
▁regret	-11.4814
▁saint	-11.4814
▁600	-11.4815
▁Dolpa	-11.4816
▁Toggle	-11.4818
ening	-11.4831
▁restrict	-11.4832
EL	-11.4832
▁bless	-11.4833
shore	-11.4835
▁grandparents	-11.4835
▁Henry	-11.4835
▁associate	-11.484
gel	-11.4841
asur	-11.4843
▁financially	-11.4844
▁absconding	-11.4844
NR	-11.4845
▁laughed	-11.4845
▁Kill	-11.4851
▁morale	-11.4856
▁Pyuthan	-11.4856
▁Would	-11.4856
▁deciding	-11.4856
▁1)	-11.4857
▁imm	-11.4857
▁weren	-11.486
standing	-11.4861
▁gear	-11.4863
▁prestigious	-11.4877
▁sensitivity	-11.4877
▁Oscar	-11.4877
▁mechanisms	-11.4878
▁Overall	-11.4879
▁realistic	-11.4881
▁accelerate	-11.4882
▁makers	-11.4883
election	-11.4883
uta	-11.4888
ured	-11.4891
▁practiced	-11.4893
erson	-11.4894
▁endure	-11.4894
▁ocean	-11.4899
▁unchanged	-11.4899
▁uterus	-11.4899
▁Present	-11.4899
▁Giants	-11.4899
▁Juli	-11.49
▁Whoever	-11.4901
▁classification	-11.4901
oph	-11.4902
▁resume	-11.4904
▁travelers	-11.4907
▁Govinda	-11.491
late	-11.4913
eather	-11.4913
▁offensive	-11.492
▁poultry	-11.492
▁flew	-11.492
▁Dutch	-11.492
▁Sweden	-11.492
▁Authorities	-11.492
weight	-11.4922
▁$100	-11.4923
▁intend	-11.4924
uel	-11.4925
▁hire	-11.4928
▁Than	-11.4928
▁Disable	-11.4928
aja	-11.493
▁Hamal	-11.4933
▁crashed	-11.4934
▁Tool	-11.4934
▁rocket	-11.4935
▁registering	-11.4937
▁Study	-11.4941
▁excitement	-11.4941
▁Demand	-11.4941
▁Baneshwar	-11.4942
▁baseball	-11.4943
▁filename	-11.4945
very	-11.4945
▁Chat	-11.4946
▁affection	-11.495
hiya	-11.4953
▁ranked	-11.4953
▁Jun	-11.4953
▁socialist	-11.4955
-12	-11.496
▁municipal	-11.496
▁mathematics	-11.4962
▁syndicate	-11.4962
▁stranger	-11.4967
ional	-11.4968
ualification	-11.497
▁Farm	-11.4972
▁Ul	-11.4972
▁advertisements	-11.4973
abi	-11.4981
only	-11.4981
economic	-11.4984
▁domain	-11.4984
▁trace	-11.4984
▁keen	-11.4985
▁differently	-11.4986
▁Sand	-11.4987
▁MA	-11.4988
▁stall	-11.4989
cin	-11.499
elli	-11.4991
▁thereto	-11.4991
▁lesson	-11.4994
▁Gil	-11.4998
▁Shiite	-11.4998
▁vent	-11.5
▁argues	-11.5003
▁landlord	-11.5005
▁Lahore	-11.5005
▁(6)	-11.5006
▁unification	-11.501
▁Roshan	-11.5013
▁proceeded	-11.5018
▁adapt	-11.5024
▁continent	-11.5025
▁temp	-11.5025
SO	-11.5026
asse	-11.5027
▁behaviour	-11.5027
▁virtue	-11.5027
▁urine	-11.5027
▁Seattle	-11.5027
▁duration	-11.5027
▁flooding	-11.5031
oz	-11.5036
eu	-11.5039
▁VP	-11.5041
▁favour	-11.5041
gai	-11.5042
▁describe	-11.5045
▁helpless	-11.5046
▁Insert	-11.5049
▁qualifications	-11.5051
▁killer	-11.5057
▁pole	-11.5059
▁greeted	-11.5063
▁voter	-11.5069
▁sequence	-11.507
▁evident	-11.507
▁disturbance	-11.507
▁commits	-11.5072
Ka	-11.5072
▁moderate	-11.5077
deep	-11.5078
▁Sy	-11.5079
▁colleague	-11.5081
▁Lam	-11.5082
▁Vick	-11.5084
▁Sales	-11.5086
num	-11.5086
MI	-11.5089
▁Pul	-11.5089
▁Said	-11.509
▁contributing	-11.5091
▁drill	-11.5091
▁mixture	-11.5092
▁humanity	-11.5092
▁Bhutanese	-11.5092
mitted	-11.5092
▁forgive	-11.5094
▁Joab	-11.5095
▁comply	-11.5097
▁expire	-11.5097
69	-11.5098
▁67	-11.5098
▁Spec	-11.51
▁veto	-11.5104
▁appealed	-11.5105
▁benefited	-11.5107
two	-11.5108
▁Tap	-11.511
▁enhancing	-11.5113
▁vegetation	-11.5113
▁monkey	-11.5113
▁exposed	-11.5114
▁boats	-11.5116
mina	-11.5117
Na	-11.5117
mid	-11.5118
▁workforce	-11.5119
flo	-11.5123
cel	-11.5125
▁bold	-11.5128
▁utilized	-11.5132
▁Cleveland	-11.5135
▁swept	-11.5135
▁crackdown	-11.5135
▁referee	-11.5135
▁everybody	-11.514
▁Okhaldhunga	-11.5156
▁deteriorating	-11.5156
▁disappointing	-11.5156
▁epidemic	-11.5156
▁rhinoceros	-11.5156
▁stumble	-11.5156
▁tribunal	-11.5156
ago	-11.5156
▁girlfriend	-11.5157
▁Think	-11.5157
▁compare	-11.5163
▁Night	-11.5164
liter	-11.5166
▁servicemen	-11.5167
▁Rich	-11.5172
▁RA	-11.5175
▁Electronic	-11.5178
▁evaluating	-11.5178
▁density	-11.5178
▁Vegas	-11.5178
▁Ojha	-11.5181
leg	-11.5185
▁cigarettes	-11.5186
▁dismissal	-11.5186
▁specification	-11.5186
▁delivering	-11.519
▁loading	-11.5196
▁entrusted	-11.52
▁situated	-11.52
▁unhappy	-11.52
▁swallow	-11.52
▁rumor	-11.52
gress	-11.52
rink	-11.5205
▁doubled	-11.5208
DC	-11.521
▁Ron	-11.521
▁sink	-11.5211
▁Zu	-11.5217
▁Tel	-11.5219
▁sweep	-11.5222
▁Mohammed	-11.5222
▁Shukla	-11.5222
▁demolition	-11.5222
▁purchasing	-11.5222
▁Liberation	-11.5222
▁NASA	-11.5222
▁subcontinent	-11.5222
▁Yemen	-11.5223
▁Cham	-11.5223
▁imagined	-11.5223
▁copper	-11.5225
▁Pay	-11.5225
▁deadly	-11.5226
code	-11.5228
▁Warner	-11.523
▁subsequent	-11.5234
▁tolerance	-11.5236
▁Multi	-11.5239
ique	-11.5242
▁classic	-11.5243
▁manufacturers	-11.5243
▁junior	-11.5244
▁racial	-11.5244
▁halted	-11.5248
▁greedy	-11.5248
▁discovery	-11.5251
▁fame	-11.5252
▁Mir	-11.5255
▁bowler	-11.5258
zy	-11.5258
▁symbolic	-11.5261
hri	-11.5263
▁identification	-11.5266
▁Amended	-11.5266
▁transmitted	-11.5267
▁uncertainty	-11.5267
▁boundary	-11.5267
▁cease	-11.5268
RS	-11.5268
maker	-11.5271
trick	-11.5276
▁76	-11.5277
▁lobby	-11.528
▁Netra	-11.5282
▁demolish	-11.5287
▁Agarwal	-11.5288
▁congregation	-11.5288
▁nephew	-11.5288
▁babies	-11.5288
▁cited	-11.5288
▁dependence	-11.529
ET	-11.5291
▁mat	-11.5292
▁(11	-11.5292
▁Ven	-11.5293
map	-11.5295
ista	-11.5302
▁Ek	-11.5302
gad	-11.5304
▁Wild	-11.5305
ome	-11.5308
▁tactical	-11.5309
▁guidance	-11.531
▁diamond	-11.531
▁laptop	-11.531
▁hike	-11.5314
▁Window	-11.5327
▁Challenge	-11.5332
▁impressive	-11.5332
▁thrill	-11.5332
▁recruitment	-11.5335
ella	-11.534
▁Kush	-11.534
vari	-11.5344
inter	-11.5344
▁barrier	-11.5349
▁addresses	-11.5349
▁assessed	-11.535
▁strain	-11.535
▁pile	-11.535
▁experiencing	-11.5354
▁intensive	-11.5354
▁Prison	-11.5355
▁Ranjit	-11.5355
▁upliftment	-11.5355
▁Draw	-11.5359
▁Unfortunately	-11.5361
▁Budha	-11.5364
▁Vidya	-11.5365
▁clouds	-11.5367
▁harder	-11.5368
▁Subash	-11.5373
▁drain	-11.5375
First	-11.5376
▁Examination	-11.5376
▁exploration	-11.5376
▁athlete	-11.5376
▁Isaac	-11.5376
▁Statistics	-11.5376
▁indicators	-11.5379
▁Bla	-11.538
▁11:	-11.538
▁Pol	-11.538
▁rushed	-11.5381
▁Jane	-11.5381
▁Sony	-11.5382
▁startup	-11.5383
▁treasurer	-11.5383
▁Band	-11.5383
▁Penn	-11.5387
▁Common	-11.5387
1,000	-11.5388
wala	-11.5395
▁Sarkozy	-11.5399
▁slaughter	-11.5399
▁straw	-11.5399
▁Girl	-11.5399
▁Nigeria	-11.5399
▁wrap	-11.5399
ille	-11.5399
▁Manmohan	-11.5399
▁Journalist	-11.54
▁lump	-11.54
▁peacekeeping	-11.54
▁safely	-11.5401
▁Kid	-11.5403
ffer	-11.5406
▁$10	-11.5407
3)	-11.5411
▁Male	-11.5413
▁Siddh	-11.5416
▁den	-11.5417
▁Gilead	-11.5421
▁Nowadays	-11.5421
craft	-11.5422
▁defending	-11.5422
▁journal	-11.5424
▁Ari	-11.5424
mol	-11.5426
▁Hira	-11.5428
PG	-11.5429
dur	-11.5429
▁schemes	-11.543
▁Venezuela	-11.5435
▁borrowing	-11.5442
▁Design	-11.5443
▁occupation	-11.5443
▁minimize	-11.5443
▁Binod	-11.5444
inch	-11.5444
▁68	-11.5445
▁AC	-11.545
▁77	-11.5452
LL	-11.5455
▁mechanical	-11.5455
▁71	-11.5459
▁homer	-11.546
▁insert	-11.5462
▁chu	-11.5462
▁analyzed	-11.5462
▁Regarding	-11.5466
▁2)	-11.5468
ppy	-11.5468
▁contacted	-11.547
▁Asar	-11.547
▁cru	-11.5472
▁wasted	-11.5474
▁exceeded	-11.5476
OU	-11.5477
▁surprising	-11.5478
▁Belt	-11.5482
gie	-11.5483
▁pillar	-11.5488
▁PR	-11.5488
▁midfielder	-11.5488
▁supervise	-11.5489
jana	-11.5491
▁employer	-11.5498
▁cheated	-11.5503
▁rows	-11.5504
▁demon	-11.5504
▁uncertain	-11.5509
▁Sagarmatha	-11.5511
▁grandmother	-11.5511
▁penalties	-11.5511
▁measuring	-11.5511
▁depart	-11.5511
▁thorns	-11.5511
▁subprime	-11.5511
▁shortcut	-11.5513
▁banana	-11.5514
▁rays	-11.5515
▁lacking	-11.5516
▁refine	-11.5518
Cha	-11.5519
zen	-11.5521
▁Large	-11.5525
▁runway	-11.5526
▁Max	-11.5529
▁broader	-11.553
▁Cru	-11.5532
▁Computer	-11.5533
▁Vedic	-11.5534
▁Plus	-11.5534
▁Rudra	-11.5535
▁span	-11.5539
▁socket	-11.554
▁rank	-11.5546
▁wished	-11.5546
▁explosives	-11.5548
▁Melamchi	-11.5556
▁oxygen	-11.5556
▁rhino	-11.5556
▁Corn	-11.5557
▁Server	-11.5557
▁liters	-11.5557
▁manifesto	-11.5558
nate	-11.5559
▁95	-11.5564
far	-11.5565
central	-11.5565
▁appointing	-11.5568
▁fixing	-11.5569
OP	-11.5575
▁assisting	-11.5576
▁Bio	-11.5576
▁teaches	-11.5577
▁mushroom	-11.5579
▁promising	-11.5579
▁Pariyar	-11.5579
▁template	-11.5579
▁Dol	-11.5579
▁confess	-11.5579
▁nurses	-11.558
▁hatred	-11.5581
pine	-11.5583
thali	-11.5584
▁800	-11.5588
▁sail	-11.5589
entrepreneurship	-11.5593
▁appreciate	-11.5594
fri	-11.5597
person	-11.5598
eni	-11.5601
▁Illinois	-11.5601
▁synonymous	-11.5601
▁superior	-11.5601
▁revive	-11.5601
▁jungle	-11.5601
▁vineyard	-11.5602
▁Mainali	-11.5602
▁Jon	-11.5603
▁alteration	-11.5605
▁Jason	-11.5611
▁Wagle	-11.5613
▁User	-11.5614
▁Baal	-11.5616
▁independently	-11.5619
▁pressed	-11.5621
uro	-11.5622
▁helicopters	-11.5623
▁Kamaiya	-11.5624
▁Pennsylvania	-11.5624
▁terrain	-11.5624
▁tragic	-11.5624
▁Punjab	-11.5624
▁riot	-11.5625
▁speculation	-11.5627
metropolitan	-11.5628
▁validity	-11.5631
▁mentally	-11.5632
▁Bon	-11.5632
▁Malaysian	-11.5633
lak	-11.5635
udha	-11.5636
▁consists	-11.5637
▁worshiping	-11.5637
▁NGOs	-11.5638
▁dung	-11.5639
▁bonus	-11.5642
▁Avenue	-11.5647
▁Explanation	-11.5647
▁widget	-11.5647
▁Samsung	-11.5647
▁interface	-11.5648
▁scientist	-11.5648
▁Given	-11.5648
▁Stop	-11.5656
struct	-11.5657
▁treasure	-11.5663
▁Vas	-11.5664
CP	-11.5666
▁Producer	-11.567
▁Yesterday	-11.567
▁announcing	-11.567
▁ladder	-11.567
▁cursor	-11.567
▁Artist	-11.567
▁Progress	-11.567
▁trumpet	-11.5671
lating	-11.5673
▁spark	-11.5679
▁pose	-11.568
▁Nara	-11.5682
▁Shr	-11.5683
▁Environmental	-11.5686
▁whenever	-11.569
▁Ethiopia	-11.5693
▁Punishment	-11.5693
▁economies	-11.5693
▁Hanuman	-11.5693
▁soccer	-11.5693
IG	-11.5696
▁Link	-11.5697
▁Mangal	-11.5703
▁musicians	-11.5708
▁Eric	-11.5708
▁CAN	-11.571
▁Vehicle	-11.5716
▁incorporating	-11.5716
▁survival	-11.5716
▁merely	-11.5716
▁potatoes	-11.5719
▁contradiction	-11.572
▁CIA	-11.5722
President	-11.5723
▁extending	-11.5725
▁fined	-11.5725
▁obviously	-11.5727
ndra	-11.5734
▁Analysts	-11.5739
▁depression	-11.5739
▁recognise	-11.5739
▁scriptures	-11.5739
▁okay	-11.5739
▁Saroj	-11.5739
▁appearing	-11.5743
▁translated	-11.5749
▁handled	-11.5754
burn	-11.5759
▁Kirtipur	-11.5762
▁Petroleum	-11.5762
▁farms	-11.5762
metric	-11.5763
▁surrender	-11.5763
▁sinned	-11.5764
▁Around	-11.5764
▁align	-11.5765
▁1989	-11.5766
▁Chad	-11.5767
▁boxes	-11.5767
▁CC	-11.5767
lav	-11.5768
▁Jagat	-11.5768
▁logo	-11.5771
vision	-11.5772
▁Dhaka	-11.5773
chen	-11.578
▁gar	-11.5781
▁Sat	-11.5781
▁autonomy	-11.5785
▁brilliant	-11.5785
UR	-11.5796
▁Jin	-11.5797
▁continuously	-11.5805
▁Allen	-11.5806
▁Ball	-11.5807
▁Category	-11.5808
▁Maldives	-11.5808
▁Necessary	-11.5808
▁dairy	-11.5808
▁connectivity	-11.5809
▁Barack	-11.5813
▁typically	-11.5817
▁tigers	-11.5817
▁swear	-11.5818
▁Leg	-11.5822
▁honour	-11.5831
▁Gates	-11.5833
▁1994	-11.5835
tax	-11.5838
▁hostage	-11.5838
▁shareholder	-11.5839
▁dominate	-11.5839
▁Subject	-11.584
▁Sources	-11.5849
▁seminars	-11.585
▁introducing	-11.5855
▁plague	-11.5856
▁metres	-11.5856
▁urgent	-11.5856
▁afterwards	-11.5856
▁dropping	-11.5858
▁grams	-11.5858
▁Source	-11.586
▁wh	-11.5865
▁anybody	-11.5875
▁Teachers	-11.5876
▁Naka	-11.5877
▁shell	-11.5878
▁liberation	-11.5878
▁streak	-11.5878
▁Filter	-11.5878
▁curb	-11.5878
▁Bheri	-11.5878
▁Pashupatinath	-11.588
▁Theater	-11.588
▁commissioner	-11.5884
▁devoted	-11.5888
NT	-11.589
▁describes	-11.589
▁glasses	-11.5891
▁exclusive	-11.5892
▁Cou	-11.5894
▁discover	-11.5897
▁Scotsman	-11.5898
▁expecting	-11.5899
▁engaging	-11.5902
▁prosecution	-11.5902
▁thunder	-11.5902
▁GOP	-11.5904
mil	-11.5905
effective	-11.5908
nupar	-11.5911
▁Format	-11.5911
▁calculated	-11.5913
▁licensed	-11.5914
▁absolute	-11.5915
▁Manag	-11.5915
▁operational	-11.5915
▁positively	-11.5922
▁rented	-11.5924
▁Serbia	-11.5925
▁insurgent	-11.5925
▁striking	-11.5925
▁propagate	-11.5925
▁indication	-11.5925
▁blacklist	-11.5929
ksha	-11.5932
from	-11.5933
ature	-11.5938
9,000	-11.5942
▁detect	-11.5945
▁declaring	-11.5949
▁requiring	-11.5949
▁cyber	-11.5949
▁pornographic	-11.5949
▁Index	-11.5949
▁Sharif	-11.5949
▁Kandel	-11.595
▁2049	-11.5952
rio	-11.5953
▁parse	-11.5953
▁repaired	-11.5954
Chairperson	-11.5955
▁pledge	-11.5956
▁commerce	-11.5967
▁quietly	-11.5969
▁wider	-11.5971
VI	-11.5971
▁campuses	-11.5971
▁DVD	-11.5972
▁Glasgow	-11.5972
▁Hezekiah	-11.5972
▁marginal	-11.5973
hro	-11.5975
▁Step	-11.5986
▁Chan	-11.5991
▁Audit	-11.5992
▁deploy	-11.5994
▁genuine	-11.5996
▁continuity	-11.5996
▁nut	-11.5999
▁genetic	-11.6
▁Listen	-11.6
▁APF	-11.6002
CO	-11.6005
▁garment	-11.6006
chandra	-11.6006
Star	-11.6007
▁slaves	-11.6014
cum	-11.6016
wick	-11.6018
▁spices	-11.6019
▁Magazine	-11.6019
▁memorable	-11.6019
▁Always	-11.602
▁yen	-11.6025
▁feared	-11.6026
says	-11.6027
▁Postal	-11.6028
▁travelling	-11.603
▁Lind	-11.6032
▁ultimate	-11.6033
▁reporter	-11.6035
▁Gorkhali	-11.6042
▁clipboard	-11.6044
▁knock	-11.6044
0)	-11.6046
▁login	-11.6047
▁patterns	-11.6048
pol	-11.6049
▁deeper	-11.6049
▁employers	-11.605
▁chart	-11.6052
pet	-11.6054
bh	-11.6056
▁(3	-11.6056
kind	-11.6061
▁pesticides	-11.6063
▁Ref	-11.6063
uru	-11.6064
▁6:	-11.6065
▁Corporate	-11.6067
▁capabilities	-11.6067
▁certification	-11.6067
▁glorious	-11.6067
▁Period	-11.6067
▁inequality	-11.6067
▁confidential	-11.6069
▁1,900	-11.6069
VA	-11.6072
which	-11.6075
lace	-11.6077
DF	-11.6077
▁Jar	-11.6079
▁hub	-11.608
▁virtual	-11.6081
▁1950	-11.6082
▁socio	-11.6082
fle	-11.6084
▁featured	-11.6084
▁Store	-11.6086
▁74	-11.6087
rog	-11.6088
▁deducted	-11.6088
▁Fra	-11.609
▁sacrificed	-11.609
▁automatic	-11.6091
▁combining	-11.6091
uous	-11.6093
▁Nil	-11.6093
▁Sector	-11.6093
▁prospects	-11.6095
▁Morgan	-11.6096
▁dia	-11.6097
case	-11.6098
izer	-11.6099
▁correctly	-11.6101
pun	-11.6103
▁vested	-11.6103
▁motivated	-11.6106
▁tile	-11.6112
▁Minnesota	-11.6115
▁ammunition	-11.6115
▁circuit	-11.6115
▁integral	-11.6115
▁maternity	-11.6115
▁exclud	-11.6116
▁Sitaram	-11.6117
▁mock	-11.6118
▁corrected	-11.6123
▁Tanahun	-11.6123
▁awake	-11.6124
▁disclosed	-11.6128
▁fairly	-11.613
ground	-11.6134
miss	-11.6135
▁Further	-11.6139
▁Elizabeth	-11.6139
▁envisaged	-11.6139
▁newsletters	-11.6139
▁occupy	-11.6139
▁persuade	-11.6139
▁pixels	-11.6139
▁violating	-11.6139
▁Bajhang	-11.6139
▁Made	-11.614
▁pedestrians	-11.6142
▁Ye	-11.6144
▁bedroom	-11.6145
LC	-11.6145
▁whoever	-11.6146
▁mixing	-11.6147
income	-11.6147
▁Abbas	-11.6147
bank	-11.6149
▁ensured	-11.6151
▁Rose	-11.6152
▁defended	-11.6152
▁apparent	-11.6153
▁donated	-11.6155
▁Nim	-11.6156
ache	-11.6161
chok	-11.6162
▁monopoly	-11.6163
▁Screen	-11.6163
▁airplane	-11.6163
nge	-11.6164
▁placing	-11.6164
▁Madhya	-11.6164
▁lady	-11.6167
▁differ	-11.6168
▁Gro	-11.6172
▁martyrs	-11.6174
uku	-11.6177
▁Salman	-11.6177
kai	-11.6183
▁Authentication	-11.6187
▁Medicine	-11.6187
▁crocodile	-11.6187
▁banquet	-11.6187
▁insects	-11.6187
▁Tikapur	-11.6188
▁Compar	-11.6189
▁tanker	-11.6189
▁inspire	-11.619
▁waterfall	-11.6194
▁NRNA	-11.6195
Every	-11.6196
EP	-11.6202
lv	-11.6203
▁workplace	-11.6204
▁authentic	-11.6207
hali	-11.6208
▁Bear	-11.621
▁Ukraine	-11.6211
▁tuberculosis	-11.6211
▁Fifth	-11.6211
▁trillion	-11.6211
▁Taking	-11.6218
▁barely	-11.6218
▁unified	-11.6218
▁propose	-11.622
gain	-11.6222
▁consult	-11.6223
▁Charge	-11.6224
▁sir	-11.6226
▁mad	-11.6231
▁horizon	-11.6234
▁Massachusetts	-11.6235
▁expiration	-11.6235
▁abstract	-11.6235
▁78	-11.6236
▁strictly	-11.6239
▁restart	-11.6242
▁Bam	-11.625
▁bud	-11.6255
vana	-11.6258
▁Beni	-11.6259
▁Climate	-11.626
▁Nepse	-11.626
▁leisure	-11.626
▁ginger	-11.626
▁encroachment	-11.6261
▁slowdown	-11.6261
▁Collection	-11.6264
▁Veda	-11.6264
▁Pawan	-11.6268
▁mentality	-11.627
Come	-11.6272
▁Ok	-11.6274
▁somebody	-11.6275
▁Aid	-11.6279
mara	-11.628
▁HTML	-11.6284
▁mess	-11.6287
▁committing	-11.6287
▁legend	-11.6287
▁bidding	-11.6287
▁Lead	-11.6289
▁Nature	-11.629
▁Badri	-11.6294
▁Bang	-11.6295
▁promulgated	-11.6296
▁chocolate	-11.6308
Brother	-11.6308
▁Implementation	-11.6309
▁rental	-11.631
action	-11.631
third	-11.631
▁tweet	-11.631
gadi	-11.6313
▁Lar	-11.6321
▁AFC	-11.6325
pathy	-11.6326
kul	-11.6328
▁cord	-11.633
▁casual	-11.6333
▁Edinburgh	-11.6333
▁liabilities	-11.6333
▁Revolution	-11.6333
▁seventy	-11.6336
▁costume	-11.6336
▁roughly	-11.634
▁reminded	-11.6343
appropriate	-11.6343
3.5	-11.6343
▁ark	-11.6344
▁Kami	-11.6345
trust	-11.6345
▁math	-11.6345
MO	-11.6345
bah	-11.6346
▁Heart	-11.6348
▁cigarette	-11.6349
▁1,500	-11.6353
▁accomplish	-11.6354
▁Metro	-11.6354
▁nobody	-11.6355
▁Bowl	-11.6355
▁compatible	-11.6357
▁spear	-11.6357
▁memories	-11.6358
▁Palace	-11.6358
core	-11.636
▁Tru	-11.6366
▁Cuba	-11.6375
▁Sai	-11.6378
▁alleviation	-11.6382
▁proxy	-11.6382
▁headache	-11.6384
▁Singer	-11.6387
hl	-11.6396
UN	-11.6397
▁Song	-11.6399
▁extracting	-11.64
▁prop	-11.6401
▁transported	-11.6403
▁lane	-11.6406
▁Jyoti	-11.6406
▁Prohibition	-11.6406
▁Zimbabwe	-11.6406
▁Raghu	-11.6406
▁hijack	-11.6406
▁congressional	-11.6407
chancellor	-11.6407
▁assumed	-11.6408
▁Comm	-11.6408
▁Stone	-11.6411
▁Gri	-11.6412
▁locally	-11.6416
▁Cost	-11.6422
western	-11.6423
lash	-11.6427
▁speedy	-11.6428
▁Investors	-11.643
Nasdaq	-11.6431
▁Chepang	-11.6431
▁substitute	-11.6431
▁untouchability	-11.6431
▁monster	-11.6431
▁guitar	-11.6431
▁issuance	-11.6431
▁Lamsal	-11.6431
▁Transfer	-11.6432
▁sung	-11.6433
▁1988	-11.6434
aro	-11.6436
ule	-11.6437
▁Tamil	-11.6439
▁facto	-11.6439
▁shaken	-11.6445
▁Lila	-11.6446
erie	-11.6447
▁fertilizer	-11.645
▁opponent	-11.645
▁sectoral	-11.6451
abh	-11.6454
step	-11.6455
▁Range	-11.6456
▁Cameron	-11.6456
▁miracle	-11.6456
▁blend	-11.6456
▁Lekhnath	-11.6456
▁buck	-11.6458
▁Residents	-11.6458
▁Mahendranagar	-11.6458
▁Yoga	-11.646
▁Shanti	-11.6463
▁Advisory	-11.6464
▁reflection	-11.6464
▁83	-11.6465
▁shouldn	-11.6466
▁88	-11.6469
▁recalls	-11.6472
paid	-11.6475
habi	-11.6478
▁cardamom	-11.6481
▁addiction	-11.6484
▁specifically	-11.6484
▁barriers	-11.6486
▁Death	-11.6487
▁creatures	-11.6492
kov	-11.6496
▁riches	-11.6497
dak	-11.6499
▁Nike	-11.65
▁triggered	-11.6503
▁therapy	-11.6503
4.5	-11.6505
▁Libya	-11.6505
▁Distribution	-11.6506
▁Tehran	-11.6506
▁presidency	-11.6506
▁reproductive	-11.6506
▁Chhagas	-11.6506
▁Arm	-11.6506
▁firing	-11.6508
▁Rohit	-11.6508
ault	-11.6514
horn	-11.6515
▁merged	-11.6517
▁Wor	-11.6517
oid	-11.6517
jal	-11.6518
▁dispose	-11.6519
▁Wil	-11.6523
▁buffalo	-11.6525
▁Dadeldhura	-11.6531
▁Pentagon	-11.6531
▁slept	-11.6531
▁trigger	-11.6533
kel	-11.6536
▁Often	-11.6537
▁poetic	-11.654
wadi	-11.6541
▁freely	-11.6546
ambi	-11.655
▁enforce	-11.6555
▁explaining	-11.6555
▁departed	-11.6555
▁LONDON	-11.6556
▁Orleans	-11.6556
▁Primary	-11.6556
▁guerrilla	-11.6556
▁reply	-11.6556
▁Direct	-11.6557
▁noticed	-11.6557
▁cancelled	-11.6558
▁Against	-11.6562
▁limitation	-11.6562
chairperson	-11.6567
▁soap	-11.6577
ography	-11.6578
▁sanctuary	-11.6581
▁surplus	-11.6581
▁Digital	-11.6581
▁encoding	-11.6581
▁historian	-11.6581
▁Lewis	-11.6581
▁Housing	-11.6581
Your	-11.6582
▁Update	-11.6583
▁Norway	-11.6583
▁undermine	-11.6583
▁Bhakta	-11.6584
▁Ammon	-11.6588
▁rendered	-11.6589
▁Someone	-11.6595
▁Sagar	-11.6597
▁eradicate	-11.6606
▁pleaded	-11.6606
▁trash	-11.6606
▁array	-11.6606
▁Irish	-11.6606
...............	-11.6608
▁relax	-11.6609
being	-11.6609
▁transferring	-11.661
▁mineral	-11.6611
etic	-11.6614
urge	-11.6614
▁concessions	-11.662
▁reminder	-11.662
▁legacy	-11.6631
PM	-11.6632
▁dramatically	-11.6632
▁horizontal	-11.6632
▁unsafe	-11.6633
▁Bhimsen	-11.6633
▁healed	-11.6636
▁Cold	-11.6649
▁BJP	-11.6656
▁Niraula	-11.6656
▁Taekwondo	-11.6656
▁mysterious	-11.6656
▁cream	-11.6658
▁Leave	-11.6659
▁clay	-11.666
▁depot	-11.666
▁developers	-11.6661
fold	-11.6664
▁tolerate	-11.6666
▁traditionally	-11.6667
▁forcing	-11.6668
▁mediator	-11.667
▁shrink	-11.6677
▁Found	-11.6678
▁2.5	-11.6678
▁pretext	-11.6682
▁Acc	-11.6684
▁Tama	-11.6688
▁unveiled	-11.6693
▁acceptance	-11.6696
▁Dilip	-11.671
▁engagement	-11.6715
▁Congo	-11.6721
BM	-11.6723
▁rebuilding	-11.6724
▁Calif	-11.6724
▁Bull	-11.6728
▁withdrawing	-11.6729
usa	-11.673
▁Gachhadar	-11.6732
▁Petraeus	-11.6732
▁qualitative	-11.6732
▁refer	-11.6734
resistant	-11.6735
▁beach	-11.6737
▁Ground	-11.6737
▁clip	-11.6738
▁Sushila	-11.6738
▁fastest	-11.674
danda	-11.6741
tol	-11.6742
▁Indo	-11.6753
▁culprit	-11.6758
▁destiny	-11.6758
▁repression	-11.6758
▁Teej	-11.6758
▁Target	-11.6758
▁Parvati	-11.6758
▁plantation	-11.6761
▁confirmation	-11.6764
Powerful	-11.6766
jam	-11.6766
▁reserved	-11.6767
▁2058	-11.677
▁royalty	-11.677
Pacific	-11.6771
uf	-11.6775
rug	-11.6781
▁deduct	-11.6783
▁Dream	-11.6783
▁warrior	-11.6784
▁BRI	-11.6784
▁Ansari	-11.6786
700	-11.6787
▁turnover	-11.6788
▁cough	-11.679
chair	-11.6791
▁86	-11.6794
▁passion	-11.6795
▁scared	-11.6797
ously	-11.68
▁Naresh	-11.6801
▁upload	-11.6802
▁slide	-11.6802
▁AM	-11.6802
▁lover	-11.6804
evolution	-11.6807
dari	-11.6808
BC	-11.6808
▁compelled	-11.6809
▁renovation	-11.6809
▁unsuccessful	-11.6809
▁cheek	-11.6809
▁FBI	-11.6809
▁harsh	-11.6809
▁Muktinath	-11.681
▁embraced	-11.681
▁editorial	-11.6812
ility	-11.6812
▁Khar	-11.6812
▁Rangers	-11.6813
▁pill	-11.6816
MP	-11.6818
▁Bhatta	-11.6819
Mart	-11.6823
▁ranking	-11.6824
odge	-11.6831
▁Ayurvedic	-11.6835
▁coconut	-11.6835
▁thanked	-11.6845
▁pulling	-11.6848
-11	-11.685
rench	-11.6851
▁Revolutionary	-11.6852
▁Ferr	-11.6854
ashi	-11.6856
▁incentives	-11.686
▁Abdul	-11.686
▁Rabindra	-11.6861
▁declining	-11.6861
▁Fiscal	-11.6861
▁abusing	-11.6861
▁Boeing	-11.6861
▁tightened	-11.6861
▁distress	-11.6862
▁vector	-11.6862
VE	-11.6868
▁Way	-11.687
ulate	-11.6872
▁Megh	-11.6872
gna	-11.6874
▁considerable	-11.6877
▁Rara	-11.6881
-13	-11.6884
▁External	-11.6886
▁Rodriguez	-11.6886
▁bureau	-11.6886
▁exporter	-11.6895
wor	-11.69
▁sprinkled	-11.6902
▁sorry	-11.6903
fix	-11.6905
▁interact	-11.6908
▁120	-11.6908
look	-11.691
▁Toyota	-11.6912
▁matched	-11.6913
▁Lohani	-11.6913
▁coordinated	-11.6919
▁shine	-11.6923
▁Gita	-11.6924
▁incorporated	-11.6927
▁ashes	-11.693
▁Manu	-11.6937
▁unstable	-11.6938
▁Understanding	-11.6939
▁Blair	-11.694
▁Nidhi	-11.694
▁Pram	-11.6941
▁Cement	-11.6948
▁passage	-11.6949
DO	-11.695
▁partially	-11.6952
▁weakening	-11.6954
▁mediation	-11.6955
▁sparked	-11.6964
▁Baltimore	-11.6964
▁Hamilton	-11.6964
▁hymn	-11.6964
▁Spears	-11.6964
▁contradictory	-11.6964
▁Kansas	-11.6965
▁NATO	-11.6965
▁Hai	-11.6966
▁laborers	-11.6966
▁cache	-11.6967
scribe	-11.697
▁collectively	-11.6972
▁Moon	-11.6977
▁ranks	-11.6978
▁Brahma	-11.698
▁credited	-11.6982
▁gaze	-11.6982
▁honestly	-11.6989
▁Gang	-11.699
▁equipped	-11.699
▁expedient	-11.699
▁Balakrishna	-11.699
dhara	-11.6994
▁deepen	-11.6995
▁Tika	-11.7002
▁Barr	-11.7003
▁12:	-11.7003
century	-11.7005
▁objected	-11.7008
▁Advisor	-11.7009
▁Jeth	-11.7013
▁Cole	-11.7013
▁dealt	-11.7015
▁Atlantic	-11.7017
▁Empire	-11.7017
▁Sankhuwasabha	-11.7017
▁coordinating	-11.7017
▁curtain	-11.7017
▁illiterate	-11.7017
▁legislative	-11.7017
▁remnant	-11.7017
▁shook	-11.7017
▁readymade	-11.7019
▁bearing	-11.7019
▁supportive	-11.7023
▁sole	-11.7025
▁tension	-11.7027
▁postpone	-11.7027
▁Sap	-11.7028
▁hosted	-11.7033
▁competitors	-11.7039
▁Mall	-11.7043
▁Advocate	-11.7043
▁corridor	-11.7043
▁decoration	-11.7043
▁mobilizing	-11.7043
▁practicing	-11.7043
▁rickshaw	-11.7043
▁imposing	-11.7043
▁entries	-11.7043
▁Thamel	-11.7045
▁Anyone	-11.7047
mari	-11.7047
▁DC	-11.7049
▁attendance	-11.7052
▁Kol	-11.7053
▁cultivate	-11.7053
gene	-11.706
▁Kho	-11.7061
▁spy	-11.7061
▁unlike	-11.7067
▁flexibility	-11.7069
▁separating	-11.7069
▁solidarity	-11.7069
▁unnatural	-11.7069
▁Multipurpose	-11.7069
Not	-11.7071
▁Shekhar	-11.7074
▁Official	-11.7076
▁Nava	-11.7078
▁Parents	-11.708
screen	-11.7084
▁Maria	-11.7085
khi	-11.7086
rating	-11.7088
▁consistent	-11.7089
dale	-11.7091
▁sect	-11.7093
▁illusion	-11.7096
▁nowadays	-11.7096
▁Citizenship	-11.7096
▁Dho	-11.7101
▁fulfillment	-11.7105
▁Manali	-11.7106
▁apologize	-11.7106
▁sprinkle	-11.7106
▁convince	-11.7106
PD	-11.7111
uick	-11.7116
▁Jean	-11.7118
▁Arghakhanchi	-11.7122
▁recession	-11.7122
▁Bamdev	-11.7122
▁Controller	-11.7124
acharya	-11.7127
ube	-11.7128
▁complexity	-11.7131
▁briefly	-11.7134
▁Consul	-11.7134
▁cake	-11.7135
▁mut	-11.7137
▁Tak	-11.7138
▁Fel	-11.7138
storm	-11.7142
Most	-11.7144
▁Disaster	-11.7149
▁Preliminary	-11.7149
▁anxiety	-11.7149
▁chaotic	-11.7149
▁Syangja	-11.7149
▁cotton	-11.7149
riff	-11.7149
where	-11.715
▁1993	-11.7151
▁Devendra	-11.7151
▁exporting	-11.7151
▁Reading	-11.7153
▁projection	-11.7153
ggle	-11.7154
oma	-11.7155
▁outlook	-11.7159
BO	-11.7162
handed	-11.7163
▁capitalism	-11.7164
uga	-11.7165
bie	-11.7168
lp	-11.7169
▁lone	-11.7169
▁Chin	-11.7171
▁Mexican	-11.7175
▁irrigate	-11.7175
▁legislature	-11.7175
▁necessarily	-11.7175
▁compassion	-11.7175
▁capability	-11.7176
▁NBC	-11.7177
▁fleeing	-11.7177
▁Manju	-11.7179
▁receiver	-11.7185
▁Burn	-11.7185
▁Kashi	-11.7186
▁swing	-11.7186
▁Syn	-11.7191
kaji	-11.7195
▁Jogi	-11.7196
▁Low	-11.7199
▁Bhadra	-11.7202
▁Maithili	-11.7202
▁refusing	-11.7202
▁lecture	-11.7202
▁Mithila	-11.7202
▁digest	-11.7203
▁Safety	-11.7203
▁drum	-11.7204
▁endorsement	-11.7204
▁robot	-11.7205
▁polit	-11.7208
▁Brand	-11.7209
asta	-11.7209
▁triple	-11.7209
▁undertake	-11.7211
▁Kelly	-11.7211
▁complaining	-11.7212
▁Sud	-11.7216
▁decent	-11.7218
▁Personal	-11.7222
ridge	-11.7222
pla	-11.7222
priv	-11.7224
Nepali	-11.7227
▁casino	-11.7229
▁Luis	-11.7229
atta	-11.723
-15	-11.723
▁songwriter	-11.723
▁conviction	-11.723
▁Nation	-11.7232
empt	-11.7233
▁Bajura	-11.7234
▁permitted	-11.7238
▁sanction	-11.7238
▁essentially	-11.7239
▁Definitions	-11.7239
▁Model	-11.7247
▁Steel	-11.7248
▁seasonal	-11.7253
▁Rita	-11.7254
▁Dhungel	-11.7255
▁zonal	-11.7255
▁meanwhile	-11.7256
▁Jinping	-11.7256
▁Opera	-11.7257
▁2061	-11.7259
▁motivation	-11.726
▁memo	-11.7261
kg	-11.7263
▁fade	-11.7265
▁Sharad	-11.7265
▁quarterly	-11.7271
▁Chile	-11.7277
▁Ahmadinejad	-11.7282
▁dispatch	-11.7282
▁batsman	-11.7282
▁tractor	-11.7282
UL	-11.7283
▁leakage	-11.7284
track	-11.7285
▁Guide	-11.7286
▁revision	-11.7287
▁machinery	-11.7289
▁adoption	-11.7291
▁gotten	-11.7292
rab	-11.7293
2.1	-11.7295
▁profitable	-11.7296
▁attracting	-11.7298
▁BK	-11.7298
udge	-11.7299
khel	-11.7304
▁Rev	-11.7306
▁commodity	-11.7309
▁Toronto	-11.7309
▁backbone	-11.7309
▁Access	-11.7309
▁tech	-11.731
▁empower	-11.7313
▁brass	-11.7316
gli	-11.7317
▁82	-11.7319
arian	-11.7321
▁slot	-11.7326
▁modest	-11.7327
▁lament	-11.7327
mouth	-11.7328
logy	-11.7329
BAR	-11.733
▁Lot	-11.7331
▁Coalition	-11.7336
▁hybrid	-11.7336
▁vocabulary	-11.7336
▁malaria	-11.7336
▁transmit	-11.7336
▁Vishwa	-11.7337
▁benchmark	-11.7337
▁shore	-11.7338
1.1	-11.7343
▁technician	-11.7348
ghar	-11.7349
▁Problem	-11.7351
▁typical	-11.7353
cycle	-11.7356
▁dealers	-11.7359
▁descend	-11.7362
▁magnitude	-11.7363
▁Smart	-11.7364
▁verses	-11.7367
shirt	-11.7369
▁talented	-11.7369
▁Jana	-11.7373
▁rotate	-11.7374
lish	-11.7375
uki	-11.7379
▁Pot	-11.7381
▁Anna	-11.7381
▁recovering	-11.7381
▁Half	-11.7385
-14	-11.7386
▁LA	-11.7388
▁Darchula	-11.739
▁Desktop	-11.739
▁dedication	-11.739
▁pilgrims	-11.739
▁presiding	-11.739
lier	-11.7391
▁hardware	-11.7392
1.2	-11.7401
▁Thakuri	-11.7403
stand	-11.7405
script	-11.7409
▁prevented	-11.7411
▁Rio	-11.7412
▁judged	-11.7414
▁curfew	-11.7418
▁pursuing	-11.7418
▁cubic	-11.7418
▁Samaria	-11.7419
▁wrapped	-11.7419
▁Silwal	-11.7419
▁Profile	-11.7419
wani	-11.7423
▁2066	-11.7424
▁grip	-11.7425
bid	-11.7426
▁reinstated	-11.7428
▁cater	-11.7429
▁honorable	-11.7433
HP	-11.7434
▁Tur	-11.7435
city	-11.7436
▁initiate	-11.7436
▁Michel	-11.7439
▁Past	-11.7442
▁nail	-11.7443
▁Dance	-11.7443
▁chop	-11.7444
▁Mukherjee	-11.7445
▁unauthorized	-11.7445
▁Johan	-11.7446
reliance	-11.7446
▁Convert	-11.7447
▁Manpower	-11.7448
▁encouragement	-11.7453
▁Hard	-11.7456
▁69	-11.7457
500	-11.746
▁listened	-11.7466
▁Arya	-11.7466
▁critic	-11.7467
▁bowling	-11.7467
good	-11.747
Certifying	-11.7472
▁overwhelming	-11.7472
▁hinder	-11.7472
▁Campbell	-11.7473
▁temptation	-11.7473
▁Cisco	-11.7473
▁viral	-11.7474
wind	-11.7476
▁Bik	-11.7479
▁stain	-11.748
▁Transportation	-11.7481
▁Cash	-11.7483
▁smoothly	-11.7484
▁Edom	-11.7484
bhi	-11.749
▁Traders	-11.7494
mann	-11.7495
▁inserted	-11.75
▁Efforts	-11.75
▁Intelligence	-11.75
▁memorial	-11.75
▁Micro	-11.7501
▁Haz	-11.7502
▁desk	-11.7504
▁Soon	-11.7505
▁Kab	-11.7507
▁2060	-11.751
▁fourteen	-11.7513
▁affair	-11.7516
▁Gate	-11.752
▁Tab	-11.7522
▁Lib	-11.7526
▁1989/90	-11.7527
▁inevitable	-11.7527
▁steer	-11.7528
▁verbal	-11.7528
▁perish	-11.7537
▁fishing	-11.7538
▁Laden	-11.7538
cate	-11.7539
▁Bijay	-11.7542
connect	-11.7546
▁observers	-11.7551
abha	-11.7553
▁Kosovo	-11.7555
▁contravention	-11.7555
▁steady	-11.7555
cup	-11.7561
▁81	-11.7565
▁allocate	-11.7567
▁Madi	-11.7569
▁firstborn	-11.7569
▁responding	-11.757
▁Ask	-11.7575
moth	-11.7575
start	-11.7581
▁Kohalpur	-11.7583
▁compensate	-11.7583
▁virtually	-11.7595
master	-11.7602
▁restriction	-11.7603
dhya	-11.7605
cient	-11.7606
▁Author	-11.7608
▁grateful	-11.7611
▁hormone	-11.7611
▁cartoon	-11.7611
▁karma	-11.7611
▁fortune	-11.7611
▁dragging	-11.7612
▁Buy	-11.7615
▁hospitality	-11.7617
▁fasting	-11.762
▁EC	-11.762
jara	-11.7621
▁Mit	-11.7628
patra	-11.7634
deal	-11.7636
▁encroach	-11.7637
winning	-11.7638
▁firefighters	-11.7638
▁fraternal	-11.7638
▁Yahoo	-11.7638
▁Rescue	-11.7638
▁Opposition	-11.7639
▁Indeed	-11.7639
▁fold	-11.7639
▁Saint	-11.7639
▁lean	-11.7642
▁greenhouse	-11.7643
2.5	-11.7644
▁RE	-11.7646
▁drowning	-11.7651
▁(16	-11.7654
yani	-11.7655
▁verify	-11.7661
▁Description	-11.7666
▁Tuladhar	-11.7666
▁threshold	-11.7666
▁spoil	-11.7666
▁captive	-11.7667
▁inviting	-11.7667
▁Engineer	-11.7668
▁homeless	-11.7671
force	-11.7675
▁87	-11.7676
▁Ol	-11.7678
▁kilograms	-11.7685
▁corresponding	-11.7687
▁lens	-11.7693
▁Fish	-11.7694
▁Hussein	-11.7694
▁Companies	-11.7694
▁Politics	-11.7694
▁gallon	-11.7694
▁curve	-11.7694
▁comedian	-11.7695
▁playground	-11.7697
▁DIG	-11.7697
▁Preparation	-11.7698
▁displaying	-11.7703
▁Sign	-11.7704
▁Late	-11.7705
vali	-11.7706
FF	-11.7712
▁Virgin	-11.7713
worth	-11.7714
correct	-11.7715
▁flowed	-11.7716
▁Agent	-11.772
▁fossil	-11.7722
▁overwhelmed	-11.7722
▁thorough	-11.7722
▁vitamin	-11.7722
▁intensity	-11.7722
hane	-11.7723
▁Owen	-11.7724
▁shrinking	-11.7728
-16	-11.7728
▁2064	-11.7729
ifies	-11.7734
izz	-11.7736
▁bomber	-11.7739
digit	-11.7741
owner	-11.7746
▁specifying	-11.7748
▁Hurricane	-11.7751
▁frequency	-11.7751
▁erosion	-11.7751
▁Rajasthan	-11.7751
▁condoms	-11.7751
▁Regulation	-11.7751
▁colonial	-11.7751
CD	-11.7752
▁Ancient	-11.7753
raha	-11.7753
▁jacket	-11.7754
▁disable	-11.7757
▁endangered	-11.7758
▁networking	-11.7758
▁Patriots	-11.7758
▁portray	-11.7758
▁specialty	-11.7761
▁grab	-11.7762
▁Frame	-11.7762
hala	-11.7763
▁jh	-11.7764
▁informing	-11.7764
▁casting	-11.7769
▁organise	-11.7771
system	-11.7772
▁Arrangements	-11.7774
▁Dub	-11.7775
uarter	-11.7778
▁Entertainment	-11.7779
▁celebrity	-11.7779
▁Purnima	-11.7779
aram	-11.7779
▁Elijah	-11.7779
▁Sugar	-11.7785
▁forgetting	-11.7786
▁conductor	-11.7789
▁Mitt	-11.7791
▁Word	-11.7792
▁prescribe	-11.7792
mah	-11.7796
Lord	-11.7801
onic	-11.7801
▁Lalit	-11.7802
▁usage	-11.7803
▁Bhat	-11.7806
▁Stewart	-11.7807
▁Tennessee	-11.7807
▁Universal	-11.7807
▁chamber	-11.7807
▁steep	-11.7807
▁AFP	-11.7807
▁Everything	-11.7807
▁wool	-11.7807
▁woke	-11.7808
▁Formation	-11.7809
▁Almost	-11.7809
Pre	-11.781
▁opener	-11.7813
▁CBS	-11.7814
duction	-11.7818
▁palm	-11.7818
▁researcher	-11.7819
▁deer	-11.7822
hard	-11.7823
▁packed	-11.7824
▁heroes	-11.7826
▁correction	-11.7828
▁requesting	-11.783
MD	-11.7831
TU	-11.7832
▁bathing	-11.7832
▁Tihar	-11.7833
quality	-11.7834
▁Earthquake	-11.7836
Prescribed	-11.7836
▁vendor	-11.7836
▁basketball	-11.7836
▁Claim	-11.7839
▁attachment	-11.7839
lessness	-11.7839
▁vine	-11.784
▁Chak	-11.7843
▁premier	-11.7849
▁Statement	-11.7852
seventh	-11.7857
▁Hence	-11.786
▁Devakota	-11.7864
▁imbalance	-11.7864
▁incumbent	-11.7864
▁Brooklyn	-11.7864
▁dominance	-11.7864
▁protein	-11.7864
▁scroll	-11.7864
▁courtesy	-11.7864
▁pound	-11.7866
▁Patrick	-11.7866
▁Rimal	-11.7868
▁Tek	-11.7874
▁elder	-11.7878
▁DA	-11.7881
▁Kel	-11.7886
▁dealer	-11.7886
▁confront	-11.7891
▁adjacent	-11.7893
▁dilemma	-11.7893
▁precise	-11.7893
▁junta	-11.7893
▁abolish	-11.7893
▁suggesting	-11.7893
▁toolbar	-11.7895
▁Silver	-11.7895
▁testified	-11.7896
▁bass	-11.7896
uja	-11.7899
▁Hart	-11.7903
▁lobbying	-11.7903
gol	-11.7904
▁Bun	-11.7904
▁mono	-11.7907
▁laying	-11.791
▁Anu	-11.7911
▁Malik	-11.7911
▁Suraj	-11.7912
rung	-11.7916
▁straightforward	-11.7921
▁vocational	-11.7921
▁orientation	-11.7921
▁Writing	-11.7921
▁invisible	-11.7921
▁Cut	-11.7924
▁dirty	-11.7927
▁hack	-11.7937
▁masses	-11.7939
▁Victoria	-11.7941
▁Salt	-11.7942
affected	-11.7944
ander	-11.7946
▁indicator	-11.7947
▁Greece	-11.795
▁Janamorcha	-11.795
▁Solukhumbu	-11.795
▁sewerage	-11.795
▁increment	-11.795
▁grabbed	-11.795
▁biography	-11.795
▁instructed	-11.795
▁safeguard	-11.7951
▁applies	-11.7951
▁fragmentation	-11.7952
▁stance	-11.7953
▁renewable	-11.7954
▁affordable	-11.7955
▁eco	-11.7955
▁plum	-11.7958
▁applying	-11.7961
▁granting	-11.7969
▁drying	-11.797
rice	-11.7974
▁Process	-11.7979
decentralization	-11.7979
▁shocking	-11.798
▁Unlike	-11.7981
▁interpret	-11.7982
▁formulating	-11.7984
▁Dham	-11.7985
▁Deal	-11.7987
▁SSP	-11.7987
▁Mode	-11.7994
▁Never	-11.7994
ordination	-11.8005
▁Vol	-11.8007
▁Huckabee	-11.8008
▁Raxaul	-11.8008
▁fabric	-11.8008
▁Banepa	-11.8008
▁interfere	-11.8008
▁longest	-11.8009
▁norms	-11.801
▁Side	-11.8016
▁thereby	-11.8019
▁Rajkumar	-11.8023
▁Bru	-11.8027
▁GMT	-11.8027
▁pertain	-11.8028
uant	-11.8029
▁MS	-11.803
uestion	-11.803
▁Ayurveda	-11.8037
▁mortality	-11.8037
▁sympathy	-11.8037
▁Shree	-11.8038
▁slopes	-11.8038
▁Naya	-11.804
▁donate	-11.8041
lift	-11.8043
▁sage	-11.8044
▁nominate	-11.805
▁fed	-11.805
▁20,000	-11.8051
▁Sport	-11.8051
▁solicit	-11.8054
▁diplomat	-11.8055
RP	-11.8057
after	-11.8058
hawa	-11.8061
▁Cast	-11.8062
▁Honor	-11.8065
▁Pittsburgh	-11.8066
▁ascertain	-11.8066
▁dignified	-11.8066
▁pharmaceutical	-11.8066
▁yogurt	-11.8066
▁Mangsir	-11.8066
▁trek	-11.8067
60,000	-11.8069
EG	-11.8072
God	-11.8073
▁Hit	-11.8074
▁disclose	-11.8079
▁rename	-11.808
▁ATM	-11.808
▁clearance	-11.8081
▁gaining	-11.8083
kri	-11.8085
▁Chrysler	-11.8095
▁Expenditure	-11.8095
▁assumption	-11.8095
▁barracks	-11.8095
▁imprisoned	-11.8095
▁ingredient	-11.8095
▁qualities	-11.8095
▁ipso	-11.8095
▁blaze	-11.8095
▁empowerment	-11.8097
▁guided	-11.8097
▁assignment	-11.8099
▁Truth	-11.8101
▁screening	-11.8102
▁enhanced	-11.811
chha	-11.811
kra	-11.8112
▁cured	-11.8113
▁reviewing	-11.8115
shree	-11.8121
▁linen	-11.8123
▁Southeast	-11.8124
▁Antonio	-11.8124
▁abusive	-11.8124
▁grammar	-11.8124
▁rafting	-11.8124
▁behave	-11.8125
▁wore	-11.8125
▁subtle	-11.8126
▁Rockies	-11.8127
▁entertain	-11.8128
▁spice	-11.8129
▁Poor	-11.8129
▁Chakra	-11.8131
▁bun	-11.8132
▁Veer	-11.8133
▁Medi	-11.8134
▁migrated	-11.8135
▁Ahab	-11.8143
▁Ever	-11.8144
▁dresses	-11.8145
olo	-11.8148
▁Connect	-11.8151
▁Initiative	-11.8154
▁Khagendra	-11.8154
▁Mukasey	-11.8154
▁Strengthen	-11.8154
▁dominant	-11.8154
▁fortunate	-11.8154
▁hesitate	-11.8154
▁(4	-11.8154
▁Carlos	-11.8155
▁Morris	-11.8155
▁authentication	-11.8156
▁solo	-11.8165
▁touching	-11.8172
▁Elisha	-11.8177
Face	-11.8179
▁cope	-11.818
▁Phoenix	-11.8183
▁consumables	-11.8183
NYSE	-11.8183
▁Issue	-11.8185
▁rob	-11.8185
▁finishing	-11.8188
continu	-11.8191
▁painter	-11.8197
▁Safe	-11.8198
▁approached	-11.82
▁dating	-11.82
wear	-11.8201
▁parade	-11.8202
RD	-11.8203
▁Amit	-11.8209
▁Paper	-11.821
tered	-11.8211
▁commence	-11.8212
▁Harvard	-11.8212
▁Professional	-11.8212
▁Resort	-11.8212
▁licensing	-11.8212
▁valuation	-11.8212
▁calculation	-11.8212
▁Previous	-11.8212
▁nominee	-11.8213
▁farewell	-11.8213
▁eighteen	-11.8214
▁circumstance	-11.8215
▁plunge	-11.8215
▁Berlin	-11.8216
▁confiscated	-11.8216
boy	-11.8217
▁Mira	-11.8223
▁Motion	-11.8226
▁Hunt	-11.8226
▁Fear	-11.8227
▁disruption	-11.8227
▁Gaj	-11.8237
people	-11.8237
▁worthy	-11.824
▁Decision	-11.8242
▁Instagram	-11.8242
▁Jharkhand	-11.8242
▁leprosy	-11.8242
▁separation	-11.8242
▁volleyball	-11.8242
▁curious	-11.8242
▁upgrading	-11.8242
▁console	-11.8242
▁Jesse	-11.8243
▁Nico	-11.8244
▁telecom	-11.8245
▁Rani	-11.8246
▁pursued	-11.8246
sharing	-11.8249
▁Guest	-11.8251
▁hedge	-11.8252
▁Kalika	-11.8257
▁picking	-11.8265
▁notified	-11.8266
CNN	-11.8267
Today	-11.827
▁Matthew	-11.8272
▁Nebuchadnezzar	-11.8272
▁tropical	-11.8272
▁communal	-11.8272
▁reigned	-11.8275
▁Income	-11.8277
▁sponsored	-11.8277
▁Larry	-11.8277
OT	-11.8278
▁activate	-11.8279
▁Jit	-11.828
▁deputed	-11.828
▁Need	-11.8284
cost	-11.8288
cca	-11.829
oka	-11.8292
ranking	-11.8294
[...]
