<s>	0
</s>	0
<unk>	0
<pad>	0
।	-3.45719
,	-3.86193
को	-3.87514
▁र	-4.08724
मा	-4.16946
ले	-4.43827
▁छ	-4.60636
का	-4.64012
▁	-4.9855
लाई	-5.04271
▁गर्न	-5.18404
▁पनि	-5.22721
▁(	-5.39431
)	-5.40746
.	-5.49808
बाट	-5.52705
▁गर्ने	-5.55567
▁छन्	-5.60228
-	-5.6246
▁हो	-5.66874
▁लागि	-5.74776
▁थियो	-5.75525
▁यो	-5.76731
▁भएको	-5.77464
▁तर	-5.81474
▁वा	-5.82412
हरू	-5.84795
▁"	-5.85225
▁आफ्नो	-5.93607
▁भने	-5.95003
▁।	-5.97105
▁गरेको	-5.99682
▁एक	-6.03604
सँग	-6.09595
न	-6.11739
▁थिए	-6.16109
▁तथा	-6.16813
र	-6.18191
▁गरिएको	-6.25098
ी	-6.25349
▁म	-6.26778
▁रूपमा	-6.33263
क	-6.36706
▁नै	-6.4037
▁छैन	-6.40691
▁काम	-6.43845
▁केही	-6.44175
▁कुनै	-6.45752
▁गरे	-6.46101
▁हुने	-6.47173
▁भन्ने	-6.47496
▁यस	-6.48395
▁नेपाल	-6.53649
े	-6.55962
▁मा	-6.56567
▁सबै	-6.57338
▁मात्र	-6.57375
म	-6.57397
स	-6.58094
▁हुन	-6.5956
▁धेरै	-6.62783
▁'	-6.64317
▁कुरा	-6.69343
▁“	-6.7132
▁उनले	-6.72062
▁गरेका	-6.72285
▁बढी	-6.72802
▁को	-6.73218
▁गरी	-6.73827
▁अनि	-6.73871
:	-6.75036
ा	-6.75753
ल	-6.75884
▁हुन्छ	-6.76177
▁दिन	-6.78186
▁के	-6.79201
▁त	-6.81139
?	-6.8195
▁त्यो	-6.82036
▁नेपाली	-6.83533
▁रहेको	-6.8365
▁भयो	-6.8388
▁अन्य	-6.84267
▁दुई	-6.84672
▁प्रयोग	-6.88634
▁भए	-6.8895
द्वारा	-6.8905
▁कि	-6.89633
▁गर्दै	-6.90349
ु	-6.90486
हरु	-6.91047
▁हामी	-6.918
भन्दा	-6.92112
▁उनी	-6.93313
▁विकास	-6.93631
▁एउटा	-6.93642
▁नयाँ	-6.93757
कालागि	-6.95151
'	-6.95274
▁गर्नुहोस्	-6.96458
▁भन्नुभयो	-6.96655
▁गर्नु	-6.98603
▁प्राप्त	-7.0055
▁–	-7.01129
हरूले	-7.01269
ै	-7.02445
१	-7.03475
▁भएका	-7.07246
▁वर्ष	-7.07446
▁गर्दा	-7.0753
▁कारण	-7.08862
पछि	-7.09691
ता	-7.10262
सम्म	-7.1135
▁सेवा	-7.11725
"	-7.12372
▁बताए	-7.12466
▁अहिले	-7.13491
त	-7.13737
▁हुनेछ	-7.14549
▁न	-7.15036
▁गर्दछ	-7.15163
▁ठूलो	-7.16164
,"	-7.17018
हरूको	-7.18089
देखि	-7.18783
▁अ	-7.18928
▁आवश्यक	-7.19054
▁मैले	-7.19488
▁सो	-7.20849
▁मेरो	-7.21409
▁१	-7.22025
▁प्रमुख	-7.22172
–	-7.22772
ज	-7.23279
▁हुन्	-7.25928
▁ः	-7.2613
▁ती	-7.27294
▁निर्माण	-7.2757
२	-7.28382
ग	-7.28449
▁यी	-7.28493
प	-7.30064
छ	-7.30903
▁कार्य	-7.313
▁बमोजिम	-7.32139
ँ	-7.32727
▁स्थानीय	-7.34587
ट	-7.35509
▁समय	-7.35879
▁हाम्रो	-7.36654
▁गरेर	-7.37381
▁तीन	-7.38202
▁सरकारले	-7.38225
▁उहाँले	-7.38452
ि	-7.38609
ं	-7.38693
▁मलाई	-7.38878
ह	-7.39589
▁योजना	-7.39833
▁अर्को	-7.40189
▁घर	-7.4055
/	-7.40924
▁उनको	-7.41421
ब	-7.41606
की	-7.41808
▁यसको	-7.41842
▁राष्ट्रिय	-7.4273
▁गर्यो	-7.4301
▁पहिलो	-7.4303
▁”	-7.4331
▁जिल्ला	-7.44032
▁होइन	-7.44106
▁व्यवस्था	-7.45243
▁राज्य	-7.45398
▁पूर्व	-7.45502
▁सुरु	-7.45695
▁२	-7.45941
▁राम्रो	-7.46506
ख	-7.46527
▁नाम	-7.46564
▁सञ्चालन	-7.4715
▁‘	-7.47656
हरूलाई	-7.47793
▁५	-7.48543
ो	-7.48767
ड	-7.49202
▁विभिन्न	-7.49273
▁अधिकार	-7.49931
▁राजनीतिक	-7.51264
▁पर्ने	-7.51417
▁श्री	-7.51744
▁निर्णय	-7.51767
▁आर्थिक	-7.51894
च	-7.52342
▁क्षेत्रमा	-7.52582
▁प्रतिशत	-7.52724
कै	-7.52974
ला	-7.53087
▁सहयोग	-7.53606
▁अध्यक्ष	-7.53938
▁त्यस	-7.54625
▁सन्	-7.54634
▁कार्यक्रम	-7.54832
▁समेत	-7.55819
न्	-7.56231
री	-7.56533
▁जसले	-7.56586
▁यसले	-7.57654
▁स	-7.59254
्	-7.59291
▁कम	-7.59721
बारे	-7.6071
▁उत्पादन	-7.60873
▁आएको	-7.60928
ना	-7.61212
▁३	-7.61833
द	-7.62127
▁अब	-7.63321
३	-7.6378
माथि	-7.64235
▁जुन	-7.64414
▁दिने	-7.64419
▁यस्तो	-7.65612
▁प्रत्येक	-7.65646
▁रुपमा	-7.6661
▁उपलब्ध	-7.66678
▁सक्छ	-7.66735
▁अमेरिकी	-7.67116
य	-7.67669
▁प्रहरी	-7.68449
▁आ	-7.69291
ेर	-7.69484
▁सक्ने	-7.69621
▁समस्या	-7.69714
▁बन्द	-7.70434
▁जारी	-7.70712
▁प्रयास	-7.70807
▁पहिले	-7.71538
▁तिनीहरू	-7.71863
भ	-7.71885
▁डलर	-7.72263
▁परिवर्तन	-7.72309
▁ऐन	-7.73235
▁सम्बन्धित	-7.73677
▁क्षेत्र	-7.73935
▁हामीले	-7.74003
हरूमा	-7.74609
▁यदि	-7.74967
▁ले	-7.75064
▁उच्च	-7.75268
▁सरकार	-7.75398
▁प्रस्ताव	-7.75703
▁संयुक्त	-7.75712
हरुको	-7.75755
▁खेल	-7.76074
▁स्वास्थ्य	-7.76242
स्	-7.76288
▁माग	-7.77204
▁१०	-7.77577
▁जानकारी	-7.77662
रा	-7.77689
▁गत	-7.77738
▁विश्वास	-7.77814
▁त्यसपछि	-7.77818
▁सबैभन्दा	-7.7782
।"	-7.78209
▁सुरक्षा	-7.78363
▁यसलाई	-7.78672
िक	-7.7925
▁उनीहरूले	-7.79552
▁मानिसहरू	-7.79788
▁सूचना	-7.80283
▁छु	-7.80587
▁जब	-7.8065
▁त्यस्तो	-7.80935
▁चार	-7.8096
▁सदस्य	-7.81142
मध्ये	-7.81153
▁महिला	-7.81259
▁का	-7.81442
व	-7.81584
▁सार्वजनिक	-7.82118
▁नेपालको	-7.82294
बीच	-7.82539
▁पर्छ	-7.83219
▁४	-7.8399
▁वि	-7.84014
▁आफ्ना	-7.84033
्ने	-7.84633
ित	-7.85244
▁विशेष	-7.85476
▁सरकारी	-7.85562
▁छौं	-7.85862
ः	-7.8619
▁मन	-7.86481
;	-7.86615
▁घोषणा	-7.86766
▁त्यसैले	-7.86997
▁त्यहाँ	-7.87832
▁मूल्य	-7.8824
▁थप	-7.88377
▁दिए	-7.88519
▁अनुसार	-7.886
▁रकम	-7.888
▁राजा	-7.89163
▁जीवन	-7.89378
्न	-7.89491
▁नेपालमा	-7.8953
▁बाहिर	-7.89831
▁भन्छन्	-7.90072
▁अनुसन्धान	-7.90224
▁खर्च	-7.90347
यो	-7.9042
▁भनेर	-7.90507
▁गरिरहेका	-7.9068
▁पटक	-7.90699
▁काठमाडौं	-7.90742
▁जस्तै	-7.91078
विरुद्ध	-7.91183
▁कानुन	-7.91952
▁बजार	-7.92299
▁६	-7.92385
▁कसरी	-7.9239
▁पानी	-7.92433
▁देखिन्छ	-7.92865
▁दिएको	-7.93712
▁शक्ति	-7.93726
ली	-7.93902
▁गर्नेछ	-7.94215
▁पूरा	-7.94466
▁थाहा	-7.94537
▁लगानी	-7.94553
▁शिक्षा	-7.94559
▁मुख्य	-7.94586
▁कार्यालय	-7.94696
▁यहाँ	-7.94935
▁व्यक्ति	-7.95434
▁पर्नेछ	-7.95448
सी	-7.95449
▁भाग	-7.95532
▁स्थापना	-7.95799
▁रहेका	-7.95987
▁अवस्था	-7.96107
▁ए	-7.96196
▁इ	-7.96246
▁नीति	-7.96266
▁भन्दा	-7.96357
▁’	-7.96416
▁प्रधानमन्त्री	-7.96439
▁भारतीय	-7.96484
▁उनलाई	-7.96576
▁आज	-7.96767
!	-7.96855
▁प्रतिवेदन	-7.96868
ङ	-7.97384
▁सकिन्छ	-7.97405
▁नेता	-7.97611
▁बनाउन	-7.97772
▁थिएन	-7.97875
▁अझै	-7.97908
▁अन्तर्राष्ट्रिय	-7.98147
वा	-7.98212
िङ	-7.98266
▁रु	-7.9864
▁डा	-7.99095
फ	-7.9929
▁तयार	-7.994
▁जो	-7.99434
▁प	-7.99672
▁लिन	-7.99729
▁किन	-7.99766
मै	-8.00524
भित्र	-8.00949
▁सु	-8.01073
▁लामो	-8.01272
▁पछि	-8.01395
▁अलि	-8.01453
▁दुवै	-8.01536
▁व्यवस्थापन	-8.02851
▁२०	-8.02863
▁किनभने	-8.03198
ौ	-8.03269
▁बिक्री	-8.03364
▁कर	-8.03611
▁पाँच	-8.03653
▁आदेश	-8.03952
▁सडक	-8.04012
अनुसार	-8.04376
▁भइरहेको	-8.05246
इ	-8.05287
▁पार्टी	-8.05601
▁गरिरहेको	-8.05704
▁विदेशी	-8.05804
▁अध्ययन	-8.05884
▁क	-8.06042
▁अन्तिम	-8.06044
▁लक्ष्य	-8.06356
▁सामाजिक	-8.06377
सँगै	-8.06549
▁या	-8.06686
प्रति	-8.06788
४	-8.07413
िन	-8.07502
▁दर्ता	-8.07619
▁हजार	-8.07947
▁सिर्जना	-8.08302
▁सुधार	-8.08488
▁समिति	-8.08945
▁हुनु	-8.08955
थ	-8.09524
▁देश	-8.09631
▁विश्व	-8.09999
ने	-8.10088
▁अवस्थामा	-8.10136
▁मानिस	-8.1029
▁१९	-8.10526
▁आफ्नै	-8.10528
▁नि	-8.10574
▁गर्नुभयो	-8.10682
श	-8.10757
▁फेरि	-8.10828
▁तपाईँले	-8.11088
▁आयोजना	-8.11139
▁संविधान	-8.11153
▁करिब	-8.11346
▁राष्ट्रपति	-8.11351
▁दोस्रो	-8.11445
▁माओवादी	-8.11544
▁आएका	-8.11786
▁ओ	-8.11837
▁स्थान	-8.11878
▁बाटो	-8.12082
ाई	-8.12208
▁०००	-8.12312
▁समयमा	-8.12336
▁जे	-8.12461
जस्ता	-8.12525
िएको	-8.13175
▁१५	-8.13422
५	-8.13524
र्	-8.13761
▁७	-8.13823
▁स्पष्ट	-8.13864
▁तिनीहरूले	-8.14247
▁अगाडि	-8.14374
▁क्रममा	-8.15005
▁पूर्ण	-8.1552
नी	-8.15564
▁गरिनेछ	-8.15692
▁भएपछि	-8.15708
▁भारत	-8.1591
▁उत्तर	-8.16019
▁स्थिति	-8.16946
▁अनुमति	-8.16997
▁अघि	-8.1711
ू	-8.17179
तर्फ	-8.17495
ेको	-8.17599
▁नियम	-8.1763
ए	-8.178
▁बैंक	-8.18165
▁सि	-8.18337
समेत	-8.18384
▁चयन	-8.18431
▁समूह	-8.18812
▁छैनन्	-8.18918
▁विषय	-8.18964
▁गरिएका	-8.19061
ई	-8.19113
▁जान	-8.19197
▁उनका	-8.1934
▁हुँदा	-8.19442
हरुले	-8.19525
▁फाइल	-8.19707
▁अर्थ	-8.19771
▁सक्छन्	-8.19886
▁निकै	-8.19951
अ	-8.20044
िने	-8.20174
▁नागरिक	-8.20187
▁प्रभाव	-8.20232
▁निम्ति	-8.20254
▁८	-8.20264
▁सुविधा	-8.20287
▁संरक्षण	-8.20352
▁राख्न	-8.20443
जस्तो	-8.20484
जी	-8.21081
▁समावेश	-8.21141
सा	-8.2122
▁हाल	-8.2173
▁मुद्दा	-8.21892
▁जहाँ	-8.21978
▁उक्त	-8.22095
▁बेला	-8.22768
डी	-8.22875
▁राष्ट्र	-8.23
▁मिलियन	-8.23119
▁कार्यान्वयन	-8.23172
लगायत	-8.23395
ियो	-8.23487
▁साथै	-8.24002
▁विवरण	-8.24096
▁विस्तार	-8.24171
▁विषयमा	-8.24179
▁ब	-8.2446
▁कर्मचारी	-8.24505
▁भन्दै	-8.24564
वि	-8.2471
िया	-8.24721
▁प्रदान	-8.2494
घ	-8.24959
्स	-8.24972
▁हुँदैन	-8.25193
▁बनाउने	-8.25253
▁केन्द्र	-8.25463
’	-8.25538
▁बताउनुभयो	-8.25646
▁बारेमा	-8.25849
▁गरिने	-8.2585
▁नेतृत्व	-8.25955
▁माथि	-8.262
▁उपदफा	-8.26268
▁फेला	-8.26307
▁जाने	-8.26351
▁खरिद	-8.26574
▁वृद्धि	-8.26862
▁लिएर	-8.27116
▁भएर	-8.27149
▁प्रक्रिया	-8.27162
छन्	-8.27198
तिर	-8.27244
▁सम्बन्धी	-8.27362
▁विचार	-8.27409
▁गरिन्छ	-8.27446
▁गएको	-8.27465
▁सम्बन्ध	-8.27638
▁ह	-8.27682
▁सम्भावना	-8.27703
▁बा	-8.27772
उ	-8.27894
▁छोरा	-8.27901
▁प्रणाली	-8.27936
▁उल्लेख	-8.27968
▁१२	-8.27985
▁११	-8.2802
टी	-8.28197
▁बि	-8.28265
▁कुल	-8.28467
▁सुन	-8.28524
▁ऋण	-8.28541
या	-8.28546
▁ग	-8.28558
▁विद्यालय	-8.28662
▁९	-8.2867
▁प्रति	-8.28817
▁मन्त्री	-8.29363
▁पैसा	-8.29374
▁तिमी	-8.29851
▁दिनु	-8.3
▁आधारमा	-8.30214
्दा	-8.30217
▁लाख	-8.30357
▁छलफल	-8.307
▁सक्नेछ	-8.30737
▁मृत्यु	-8.30775
▁समाधान	-8.31222
▁सामान्य	-8.31229
▁जंगली	-8.31251
▁निजी	-8.31633
लो	-8.31754
▁शहर	-8.31768
▁नियन्त्रण	-8.31817
ौं	-8.31987
्दै	-8.32012
▁परमप्रभु	-8.32476
▁पार्न	-8.32587
▁कति	-8.32763
रो	-8.33081
▁दक्षिण	-8.33085
▁गाउँ	-8.33304
”	-8.33365
▁नभएको	-8.33728
हरुलाई	-8.34132
▁उनीहरूको	-8.34486
▁उद्योग	-8.34591
▁गर्नुपर्छ	-8.34592
▁हात	-8.34615
▁संशोधन	-8.34673
▁कम्पनी	-8.34817
▁अरू	-8.35024
▁प्रदर्शन	-8.3508
ण	-8.35133
▁सैनिक	-8.3516
▁सम्झौता	-8.3609
▁३०	-8.36155
▁उपचार	-8.3626
▁संस्था	-8.36342
दा	-8.36483
अन्तर्गत	-8.36549
▁युवा	-8.36637
▁ख	-8.36715
▁लागेको	-8.36831
नि	-8.37024
्यो	-8.3718
▁त्यसको	-8.37221
▁केन्द्रीय	-8.3742
▁उसले	-8.37447
▁बाँकी	-8.3748
▁एवं	-8.37699
▁सय	-8.37737
▁प्र	-8.37763
▁देखि	-8.37795
▁अपेक्षा	-8.37822
▁कृषि	-8.37953
▁सहमति	-8.37961
▁गर	-8.38004
▁आउने	-8.3813
▁भ्रमण	-8.38173
▁बस	-8.3823
▁परेको	-8.3828
▁समाप्त	-8.38422
▁वित्तीय	-8.38511
▁गर्छ	-8.38856
▁वर्षको	-8.39154
▁दफा	-8.39232
▁अमेरिका	-8.39663
▁आवश्यकता	-8.39785
▁गठन	-8.39901
▁ठूला	-8.39902
ओ	-8.39935
▁सरकारको	-8.40111
्य	-8.40218
▁शान्ति	-8.40246
राज	-8.40317
▁बल	-8.40321
▁प्रश्न	-8.40384
▁ल	-8.40537
▁आरोप	-8.4058
▁त्यही	-8.40808
▁गर्छन्	-8.40895
▁अन्त्य	-8.40952
▁मद्दत	-8.4114
▁१८	-8.41215
▁वन	-8.41333
▁ज	-8.41362
▁घटना	-8.4137
▁अधिकारी	-8.4157
▁यात्रा	-8.41746
▁सम्पूर्ण	-8.41947
▁महिना	-8.42021
६	-8.4219
ाउने	-8.42526
▁व्यवसाय	-8.42635
▁हामीलाई	-8.42842
▁संलग्न	-8.4318
पी	-8.43408
▁सेट	-8.43423
▁परिवार	-8.43488
▁मानव	-8.44099
▁स्रोत	-8.4419
।”	-8.4431
▁साथ	-8.44328
▁अनुभव	-8.44588
▁गराउन	-8.44773
▁बतायो	-8.44783
डा	-8.4488
▁लाग्छ	-8.45025
▁यस्ता	-8.45044
▁वितरण	-8.45468
ाउन	-8.45584
▁सचिव	-8.45742
▁यति	-8.45868
जा	-8.45956
▁तल	-8.46006
▁व्यापार	-8.46013
▁सम्बन्धमा	-8.46375
▁परीक्षण	-8.4653
▁पर्दछ	-8.46756
▁औषधि	-8.46845
▁तब	-8.46983
▁यसरी	-8.47189
▁पाउने	-8.47199
सम्बन्धी	-8.47288
▁प्रविधि	-8.47383
आ	-8.47483
▁गर्दछन्	-8.47555
▁भएमा	-8.4765
▁कसैले	-8.47674
▁संघ	-8.47826
वादी	-8.47891
▁निश्चित	-8.48028
▁आक्रमण	-8.48139
▁उ	-8.48172
▁१६	-8.48323
▁वस्तु	-8.48477
▁तापनि	-8.48721
▁जन्म	-8.48726
▁तिनीहरूलाई	-8.48995
▁तेस्रो	-8.49046
▁कायम	-8.49152
▁दाबी	-8.49154
▁प्रहरीले	-8.49176
पुर	-8.49192
▁हप्ता	-8.49238
▁च	-8.49249
▁समाचार	-8.4939
▁सम्पत्ति	-8.49393
▁आशा	-8.49591
▁भूमिका	-8.49613
▁करोड	-8.49642
▁आदि	-8.49961
▁भुक्तानी	-8.50009
ाइ	-8.50046
▁अनुमान	-8.50065
हरूसँग	-8.50076
▁संख्या	-8.50157
सित	-8.50192
▁व्यापक	-8.50314
▁देशको	-8.50326
▁लागू	-8.50576
बी	-8.5071
▁तपाईँ	-8.51045
▁गरेपछि	-8.5135
ीय	-8.51428
बहादुर	-8.51658
▁प्रवेश	-8.51695
▁कहिल्यै	-8.51763
▁गर्नुपर्ने	-8.51894
▁जनता	-8.52366
▁निर्देशक	-8.52395
▁दियो	-8.52403
संग	-8.52526
▁उहाँ	-8.52704
के	-8.52762
▁सहभागी	-8.52782
▁सम्पन्न	-8.53744
बा	-8.53777
ङ्ग	-8.54055
▁बैठक	-8.54238
▁असफल	-8.54294
िएका	-8.5433
▁जन	-8.5439
▁बमोजिमको	-8.54732
▁बचत	-8.54898
▁विद्यार्थी	-8.55008
▁जस्तो	-8.55217
▁मानिसहरूले	-8.55341
▁आधार	-8.55397
▁सफल	-8.55433
▁बन्न	-8.55484
▁भएकाले	-8.55566
▁प्रेम	-8.56109
▁सात	-8.56243
▁सं	-8.56284
▁भाषा	-8.56295
▁लिने	-8.56388
▁ध्यान	-8.56463
▁भित्र	-8.56603
▁यातायात	-8.56715
▁बनेको	-8.56735
▁सन्देश	-8.56771
▁मात्रै	-8.56957
▁युद्ध	-8.5712
▁हुँदै	-8.57193
▁जिल्लामा	-8.57313
▁समितिको	-8.57363
▁सा	-8.57434
ध	-8.57547
▁चलचित्र	-8.57824
▁१४	-8.58139
▁दिएका	-8.58238
▁गोली	-8.58367
▁बजेट	-8.58686
▁सी	-8.58733
्नु	-8.58744
...	-8.58802
▁देशमा	-8.58939
▁हुनुहुन्छ	-8.58954
▁हेर्न	-8.59102
▁सानो	-8.59179
▁गराउने	-8.59189
▁कारोबार	-8.59222
हरूका	-8.59397
▁मु	-8.59557
▁निर्वाचन	-8.59575
▁संघीय	-8.5979
▁परिणाम	-8.5985
▁जोड	-8.59902
▁पेश	-8.60019
▁अस्वीकार	-8.60148
▁खाली	-8.60207
ती	-8.60274
▁अभियान	-8.6031
िरहेको	-8.60333
▁आफू	-8.60374
▁आफूलाई	-8.60449
▁०	-8.60753
▁सम्म	-8.60818
▁गए	-8.61123
▁परियोजना	-8.61141
▁२५	-8.61182
▁उनीहरू	-8.61217
▁परमेश्वर	-8.61251
▁गीत	-8.61273
▁मे	-8.6128
▁वर्तमान	-8.61292
ाउ	-8.61498
▁यद्यपि	-8.61712
%	-8.61991
▁न्याय	-8.62176
▁ठाउँमा	-8.62218
▁कथा	-8.62432
▁तपाईँको	-8.62466
▁पछाडि	-8.62521
▁तिमीहरू	-8.62652
▁फिल्म	-8.62684
▁भन्न	-8.62701
▁निर्धारण	-8.62825
▁विवाह	-8.62897
▁रोग	-8.62909
▁सक्षम	-8.62918
▁सुरक्षित	-8.6293
▁यही	-8.63088
▁आगामी	-8.63095
▁सकेन	-8.63142
कर्ता	-8.63206
▁वार्ता	-8.63288
▁जनाएको	-8.63312
▁बजारमा	-8.634
▁१३	-8.63434
▁हे	-8.63479
▁पहिचान	-8.63532
▁निर्देशन	-8.6364
▁फरक	-8.63722
▁अधिकृत	-8.63745
▁उसको	-8.63788
७	-8.63804
▁प्रस्तुत	-8.63824
स्थित	-8.63983
▁सीमा	-8.64723
▁पुस्तक	-8.64732
▁व्यक्तिले	-8.64836
▁राख्ने	-8.64851
▁ना	-8.65009
०	-8.65011
▁विरोध	-8.6516
▁जति	-8.65229
▁द	-8.65271
▁यस्तै	-8.65668
▁कारबाही	-8.65866
▁मानिसहरूलाई	-8.6589
▁बे	-8.65931
्र	-8.6595
▁आन्दोलन	-8.65953
सहित	-8.66279
▁वातावरण	-8.66363
▁२००७	-8.6641
▁१७	-8.66606
▁परमप्रभुले	-8.66688
▁पद	-8.66736
▁कार्यक्रममा	-8.66738
▁मान	-8.66769
▁जग्गा	-8.6677
हामी	-8.66801
▁थिएँ	-8.66915
ति	-8.6751
▁अवसर	-8.67682
▁औं	-8.67764
▁मिति	-8.67774
▁त्यस्तै	-8.6795
▁चीन	-8.68069
▁भनी	-8.68141
▁लेख	-8.68263
▁जनताको	-8.68282
▁विकल्प	-8.68387
▁उद्देश्य	-8.68447
▁व	-8.68462
▁खण्ड	-8.68743
▁शुक्रबार	-8.68756
▁प्रशासन	-8.68837
▁सोमबार	-8.6887
▁कार्यकारी	-8.68871
▁ठीक	-8.68949
▁५०	-8.6897
▁क्षमता	-8.69023
▁भ	-8.69088
झ	-8.69207
▁श	-8.69245
▁खुला	-8.69318
▁कोष	-8.69357
▁पो	-8.695
▁स्वतन्त्र	-8.69549
▁तयारी	-8.69584
▁पुगेको	-8.69684
▁स्वीकार	-8.69934
▁समितिले	-8.702
▁दल	-8.70206
▁बुधबार	-8.70243
▁टिप्पणी	-8.70436
▁पत्रकार	-8.70451
▁फुटबल	-8.7051
▁गते	-8.70583
८	-8.70733
रे	-8.70797
▁कांग्रेस	-8.71051
▁पछिल्लो	-8.7108
▁तपाईं	-8.71094
▁पर्यटन	-8.71201
▁हाम्रा	-8.71312
▁जाँच	-8.71377
्छ	-8.71447
▁उपनियम	-8.71664
▁फिर्ता	-8.71732
▁प्रकाशित	-8.71846
▁दर	-8.72145
▁अस्पताल	-8.72273
काअनुसार	-8.72468
लि	-8.72496
▁पर्याप्त	-8.72631
▁नगर	-8.72724
▁टोली	-8.72791
▁स्थानमा	-8.72872
▁ठाउँ	-8.7297
▁पुनः	-8.73201
▁हत्या	-8.73296
▁ऊ	-8.73649
▁आइतबार	-8.73773
▁आग्रह	-8.73872
▁पक्ष	-8.74023
▁मन्त्रालय	-8.74036
▁चुनाव	-8.74043
▁रेकर्ड	-8.74077
▁क्षेत्रको	-8.74122
▁प्रतिक्रिया	-8.74124
▁पुरुष	-8.74214
▁कल	-8.74289
▁बाल	-8.743
▁शुल्क	-8.74344
▁अहिलेसम्म	-8.74407
▁पा	-8.74521
▁प्रजातन्त्र	-8.74533
जना	-8.74603
टा	-8.7475
कर	-8.74776
▁अपराध	-8.74787
▁गम्भीर	-8.74811
▁कु	-8.74943
▁व्यवसायी	-8.75167
▁अन्तर्गत	-8.7527
▁तिम्रो	-8.75303
▁हरेक	-8.75525
▁कालो	-8.75527
▁विवाद	-8.75638
▁कम्तीमा	-8.75699
▁आधारित	-8.75899
▁पुरानो	-8.75925
▁बस्ने	-8.75965
▁हुन्छन्	-8.76019
मार्फत	-8.76087
▁सम्मान	-8.76167
पा	-8.762
छु	-8.76203
▁व्यक्त	-8.76341
▁ला	-8.76568
▁पुरस्कार	-8.76649
▁प्राविधिक	-8.76848
▁पीडित	-8.7688
▁भई	-8.76954
▁उप	-8.77214
▁भेट	-8.7749
▁घरमा	-8.77676
▁आन्तरिक	-8.77715
▁परमेश्वरले	-8.77946
▁बलियो	-8.78157
हरुमा	-8.7819
क्स	-8.78212
▁समर्थन	-8.78322
▁कुरामा	-8.7834
▁अझ	-8.78512
▁पार्ने	-8.78534
▁सूची	-8.78627
▁गरियो	-8.78666
▁शुरु	-8.7874
▁बिहीबार	-8.78798
▁तेल	-8.788
▁फ	-8.78915
▁उनीहरूलाई	-8.78963
▁शाही	-8.79505
▁आधा	-8.79548
▁असर	-8.79607
जस्तै	-8.79697
▁राम	-8.79719
गा	-8.79945
हा	-8.80034
▁मेरा	-8.80034
▁सेयर	-8.80318
▁घण्टा	-8.80339
▁निकाय	-8.80427
▁स्थापित	-8.80534
▁प्रजातान्त्रिक	-8.80613
▁होला	-8.80709
▁नेपालका	-8.80801
▁तालिम	-8.80888
नन्	-8.8089
▁अरु	-8.81132
िरहेका	-8.81142
▁वर्षीय	-8.81153
▁मान्यता	-8.81196
▁विगत	-8.81278
▁पि	-8.81284
▁नदी	-8.81461
▁सकिने	-8.81471
▁सवारी	-8.81523
▁आउन	-8.8157
बाहेक	-8.81633
▁प्रायः	-8.8174
▁संकलन	-8.81884
▁व्यक्तिलाई	-8.81922
▁शब्द	-8.81939
▁दिन्छ	-8.81952
▁वर्षमा	-8.82031
▁खेलाडी	-8.82218
▁उपभोक्ता	-8.82313
▁अवधिमा	-8.82333
स्ट	-8.82419
▁अवस्थित	-8.8243
मान	-8.82466
ठ	-8.82477
वाद	-8.82522
▁अभाव	-8.82594
▁यसका	-8.82655
▁एमाले	-8.82802
▁भवन	-8.82811
▁यसमा	-8.82859
▁वर्ग	-8.82907
▁जना	-8.83148
▁कानून	-8.83191
▁सामग्री	-8.83263
▁धर्म	-8.83294
▁श्रेष्ठ	-8.83311
▁ल्याउन	-8.83315
▁ड	-8.83846
अघि	-8.84247
▁सोही	-8.84257
नु	-8.84409
▁कुराहरू	-8.84412
गत	-8.84415
ंग	-8.84427
▁भन्नाले	-8.8448
▁छिटो	-8.84664
▁कठिन	-8.84679
▁पत्र	-8.84726
▁नेपालले	-8.84749
▁शनिबार	-8.84931
▁चैत	-8.84944
▁वास्तविक	-8.85042
ेका	-8.85154
▁पश्चिम	-8.85162
िन्	-8.85189
▁नहुने	-8.85216
▁गलत	-8.85436
ौँ	-8.85455
▁सत्य	-8.85506
▁प्रमाण	-8.85634
▁पर्यो	-8.85698
▁जिम्मेवारी	-8.8571
▁सही	-8.85828
▁देखिएको	-8.85967
▁कम्पनीले	-8.86033
▁दैनिक	-8.8617
▁सक्नुहुन्छ	-8.862
▁लागत	-8.86212
▁पर	-8.86254
▁आँखा	-8.86646
▁परेका	-8.86661
▁प्रकाशन	-8.86687
▁एउटै	-8.8676
▁समाज	-8.86849
▁अधिकारीहरूले	-8.8686
▁लि	-8.86935
▁गाडी	-8.87068
रु	-8.8713
“	-8.87158
▁अङ्क	-8.87251
▁जा	-8.87344
▁com	-8.87427
िन्छ	-8.87482
▁प्रतिनिधि	-8.87646
▁यसै	-8.87829
▁बढाउन	-8.87883
िए	-8.87976
▁सेना	-8.88044
▁नगर्ने	-8.88098
▁कुन	-8.88166
न्ट	-8.8824
▁पाठ	-8.88256
▁कदम	-8.88272
▁तिमीहरूले	-8.88508
▁पाउन	-8.88608
▁जम्मा	-8.88689
▁पुग्यो	-8.88782
▁शासन	-8.88813
▁उपयुक्त	-8.88817
▁अधिकांश	-8.88914
▁उपकरण	-8.88988
▁कुञ्जी	-8.89042
▁ट	-8.89084
▁आम्दानी	-8.89228
रि	-8.8927
▁कागजात	-8.89279
▁सामना	-8.89304
▁व्यक्तिगत	-8.89458
▁वर्षअघि	-8.90055
▁पास	-8.90204
▁सम्पर्क	-8.90248
पूर्ण	-8.90266
▁भूमि	-8.90308
▁वास्तवमा	-8.90309
▁उपाध्यक्ष	-8.90384
▁डि	-8.90455
भरि	-8.90556
▁वार्षिक	-8.90642
▁साथी	-8.90812
▁जस्ता	-8.90845
ाएर	-8.90863
▁प्रमाणपत्र	-8.90866
▁कोही	-8.90884
▁आमा	-8.90899
मी	-8.90954
▁सुझाव	-8.9117
▁योगदान	-8.91171
▁चिन्ता	-8.91206
▁ग्रामीण	-8.9133
कार	-8.91398
▁मह	-8.91426
▁लेखक	-8.91448
▁२१	-8.91623
▁प्रभावित	-8.91642
▁दिइएको	-8.9168
▁आयो	-8.91704
▁ऊर्जा	-8.91759
ुपर्छ	-8.91782
▁बढेको	-8.91815
▁चुनौती	-8.91979
▁अतिरिक्त	-8.92269
▁डे	-8.92333
▁पक्षमा	-8.92338
▁एम	-8.92348
▁एस	-8.92474
▁रात	-8.92679
▁चिनियाँ	-8.92697
▁लगाउन	-8.92754
▁राखे	-8.929
▁खुशी	-8.92927
▁सक्दैन	-8.93059
▁आए	-8.93092
▁सम्बोधन	-8.93095
▁त्यसलाई	-8.93135
▁तह	-8.93209
पहिलो	-8.93223
▁सजाय	-8.93225
्छन्	-8.9323
▁बिहान	-8.93285
▁थिइन्	-8.93301
▁महसुस	-8.93532
▁गो	-8.93818
्या	-8.9386
▁भनाइ	-8.93876
▁अदालत	-8.9397
ण्ड	-8.94017
▁छवि	-8.94024
▁आपूर्ति	-8.94029
र्स	-8.94045
▁नजिक	-8.94086
प्रसाद	-8.94347
▁वर्षसम्म	-8.94399
▁खराब	-8.9443
सि	-8.94443
▁त्रुटि	-8.94448
▁मन्दिर	-8.9459
▁प्रभावकारी	-8.94668
▁महत्वपूर्ण	-8.94679
▁सिफारिस	-8.94822
▁मध्य	-8.94843
(	-8.94862
▁मिडिया	-8.95201
▁फाइदा	-8.95239
▁लाग्ने	-8.95254
▁अधिकारीले	-8.95303
आर	-8.95312
▁केन्द्रित	-8.95326
▁तर्क	-8.95441
▁विभाग	-8.95462
म्	-8.95527
▁खाना	-8.95541
▁एल	-8.95653
▁ज्ञान	-8.95678
नो	-8.95905
▁जसरी	-8.95961
▁हु	-8.96053
▁घाइते	-8.96119
प्र	-8.96198
▁बताउँछन्	-8.96257
▁विश्वव्यापी	-8.96273
▁यौन	-8.96308
▁अफ	-8.96376
▁होस्	-8.96453
▁भनेको	-8.96532
m	-8.96593
▁अथवा	-8.96777
s	-8.96818
▁भिडियो	-8.96854
सन	-8.96886
▁आठ	-8.9691
तर	-8.97087
▁लाइन	-8.97142
ेल	-8.97179
▁कर्तव्य	-8.97193
▁दबाब	-8.9729
▁दृश्य	-8.97512
▁बिना	-8.97633
▁सञ्चार	-8.97803
▁२४	-8.97891
▁प्रत्यक्ष	-8.98104
▁कतिपय	-8.98277
▁खान	-8.98291
▁भ्रष्टाचार	-8.9833
▁लगाउने	-8.98388
▁तत्काल	-8.98394
▁विधेयक	-8.98433
▁रहने	-8.98451
▁लग	-8.98524
▁हेरचाह	-8.98565
▁राजस्व	-8.98606
न्स	-8.98639
▁पुनर्स्थापना	-8.98699
▁कलेज	-8.98772
▁जसको	-8.98832
▁थापा	-8.98867
▁श्रम	-8.98918
▁प्राथमिकता	-8.98934
भर	-8.9908
▁साना	-8.99094
▁आयात	-8.99125
▁जोखिम	-8.99273
▁थोरै	-8.99355
▁बालबालिका	-8.99371
▁व्यवहार	-8.99419
▁पहुँच	-8.9949
▁हालै	-8.99493
▁नाममा	-8.99526
▁उसलाई	-8.99546
)-	-8.99573
▁कार्यकर्ता	-8.99751
▁पत्ता	-8.99771
▁भारतको	-8.99804
▁बनाएको	-8.99813
▁वरिष्ठ	-8.9982
▁उत्पन्न	-8.9982
▁शिक्षक	-8.99821
▁म्याक	-8.9993
▁भावना	-8.9994
▁छिमेकी	-9.00017
▁भएन	-9.00221
न्ड	-9.00224
▁बैठकमा	-9.00253
▁बोल	-9.00333
▁व्यावसायिक	-9.00442
▁सिंह	-9.0056
▁पक्राउ	-9.00568
▁बस्न	-9.00663
▁नियमित	-9.00729
▁दुःख	-9.00809
▁प्रकारको	-9.0089
▁अभ्यास	-9.00914
▁मूल्याङ्कन	-9.01074
▁जडान	-9.01092
पत्र	-9.01229
▁बिरामी	-9.01314
▁पार	-9.0133
एल	-9.01456
▁छोरी	-9.01558
▁मुलुक	-9.01837
▁भनिन्	-9.01859
मो	-9.0191
▁जवाफ	-9.02
▁नगरपालिका	-9.02004
टो	-9.02026
▁खोजी	-9.02277
▁टाढा	-9.02354
बि	-9.02409
▁हुनुपर्छ	-9.02452
▁शर्मा	-9.02469
▁कला	-9.02495
▁मार्ग	-9.02532
▁उपयोग	-9.02569
▁विश्वविद्यालय	-9.0263
▁बताएका	-9.02649
▁विजय	-9.02718
▁बाध्य	-9.02787
▁क्रिकेट	-9.02838
▁हस्ताक्षर	-9.02858
▁रक्षा	-9.02873
▁उडान	-9.02917
▁पिता	-9.02955
▁सकेको	-9.03021
▁प्रतिस्पर्धा	-9.03026
▁त्यति	-9.03075
▁रोक्न	-9.03204
▁ध	-9.03248
▁सर्वोच्च	-9.03251
सु	-9.03402
▁आगो	-9.03422
▁परीक्षा	-9.03627
▁राखेको	-9.03701
▁४०	-9.04087
▁करार	-9.04197
▁जि	-9.0422
▁गोल	-9.04228
▁इतिहास	-9.04338
▁संरचना	-9.04351
कोलागि	-9.04405
▁वरिपरि	-9.04585
चा	-9.04852
▁यु	-9.04905
▁आयोग	-9.04911
गो	-9.04976
▁फोन	-9.05023
▁लिएको	-9.0512
▁बाट	-9.05124
▁गृह	-9.05129
▁रहेछ	-9.05157
▁उचित	-9.05159
▁परामर्श	-9.05185
▁नम्बर	-9.05341
▁अनुदान	-9.05355
▁प्रेस	-9.05387
राम	-9.05402
▁पर्यटक	-9.057
से	-9.05702
▁कलाकार	-9.05782
▁भर्ना	-9.05841
▁पाए	-9.05942
▁तिमीले	-9.05996
▁जल	-9.06033
▁एन	-9.06213
▁क्लब	-9.06256
▁विज्ञान	-9.06388
▁होटल	-9.06486
▁हिजो	-9.06618
▁कहाँ	-9.06789
▁बीच	-9.0683
▁पवित्र	-9.06902
▁लेखिएको	-9.06975
नले	-9.0698
▁गुणस्तर	-9.06981
▁दश	-9.0704
▁शरीर	-9.07099
▁नौ	-9.07137
बाहिर	-9.0731
▁सक्रिय	-9.07333
ुर्ुर्ुर्ुर्ुर्	-9.07432
▁डिजाइन	-9.07446
▁तिमीलाई	-9.07487
▁चल	-9.07494
▁बढ्दो	-9.07511
▁भर	-9.07519
▁रे	-9.07626
▁प्रतिनिधित्व	-9.07645
ुहोस्	-9.07804
▁प्रवक्ता	-9.08022
▁गरि	-9.0803
▁तारा	-9.08065
▁नसक्ने	-9.08105
क्ष	-9.08163
▁नेकपा	-9.0825
▁पार्टीका	-9.08305
मु	-9.08387
▁प्रारम्भिक	-9.08421
▁पाइन्छ	-9.08509
▁बिन्दु	-9.0854
▁साधन	-9.08578
ेन	-9.08587
▁अनुगमन	-9.08609
▁सभा	-9.08657
▁सीमित	-9.08678
▁पोष्ट	-9.08757
▁संस्कृति	-9.08789
▁आउँछ	-9.08802
ताको	-9.08891
जन	-9.09035
▁जनताले	-9.09124
▁तिमीहरूलाई	-9.09184
▁आय	-9.09218
▁२२	-9.09282
▁त्यसो	-9.09344
▁यादव	-9.09386
९	-9.0942
▁न्युयोर्क	-9.09441
▁मो	-9.09466
▁जनतालाई	-9.09542
▁से	-9.09717
▁बन	-9.09754
▁विज्ञापन	-9.09782
▁सोच	-9.09948
▁डी	-9.09956
▁आवाज	-9.10003
▁भन	-9.10096
▁सजिलो	-9.10106
▁गरिन्	-9.10138
▁आई	-9.10196
▁कार	-9.10226
▁छनौट	-9.10234
▁रङ	-9.10312
▁संकट	-9.10339
िय	-9.10354
▁प्रमाणित	-9.10413
▁भू	-9.10689
▁आइ	-9.1074
▁य	-9.10771
▁बिलियन	-9.10894
▁भन्नु	-9.10907
▁पाएको	-9.10975
▁आकार	-9.10994
▁-	-9.11114
▁एकजना	-9.11157
▁पुग्न	-9.11225
▁हेर	-9.11366
▁अवधि	-9.11409
▁कोठा	-9.11459
▁२३	-9.11482
▁कर्जा	-9.11506
▁गरें	-9.1154
▁प्रकाश	-9.11618
▁जाति	-9.11627
▁ई	-9.11683
िम	-9.11748
▁बढ्दै	-9.11771
▁आफूले	-9.11809
ही	-9.11821
▁मूल	-9.11835
▁गर्छु	-9.11852
िस	-9.11908
कु	-9.12002
वे	-9.12007
जि	-9.12024
्क	-9.12035
▁रेडियो	-9.12174
▁त्यसै	-9.12224
▁मि	-9.12286
ुपर्ने	-9.12361
▁हुँ	-9.12416
▁सम्मेलन	-9.12492
▁गुनासो	-9.12502
▁युरोप	-9.12503
दी	-9.12513
▁चेतावनी	-9.12546
▁कारणले	-9.12553
▁सम्पादन	-9.12589
▁कार्यसम्पादन	-9.12813
▁खेलमा	-9.12866
▁सपना	-9.12889
▁पदार्थ	-9.13066
▁सहायक	-9.1321
▁गणतन्त्र	-9.13227
▁हक	-9.13231
▁सरकारलाई	-9.13262
▁स्तर	-9.13282
▁सह	-9.13376
▁पुल	-9.13483
▁झन्डै	-9.135
▁राजनीति	-9.13551
▁गरेमा	-9.13666
▁सम्झनु	-9.13761
▁कमजोर	-9.13823
▁पत्नी	-9.13849
▁क्षेत्रीय	-9.13867
▁सञ्जाल	-9.13996
ाएको	-9.14021
▁ओली	-9.14133
▁भन्नुहुन्छ	-9.14321
▁परमेश्वरको	-9.14332
▁दिनुभयो	-9.1434
▁चाल	-9.14395
▁हि	-9.14432
▁पी	-9.14538
ृ	-9.14597
▁धितोपत्र	-9.1464
▁स्टक	-9.14684
▁नियुक्त	-9.14695
▁बोर्ड	-9.14735
▁मालिक	-9.14808
▁प्राकृतिक	-9.14831
▁सहायता	-9.14846
▁मन्त्रालयले	-9.14977
▁गिरफ्तार	-9.15026
▁कठोर	-9.15061
▁तोकिएको	-9.15116
▁क्षति	-9.15231
▁१००	-9.15319
ात्मक	-9.15403
▁अनुरोध	-9.15434
▁अभिभावक	-9.1546
त्र	-9.1561
▁आलोचना	-9.15629
▁खाद्य	-9.15665
▁थाले	-9.15675
▁देखा	-9.15743
▁परमप्रभुको	-9.15758
▁हुनेछन्	-9.15786
▁डर	-9.1605
▁गा	-9.16114
कि	-9.16151
▁हतियार	-9.16159
▁धेरैजसो	-9.1629
▁प्रगति	-9.1635
▁सम्भव	-9.16365
▁निरन्तर	-9.1638
▁प्रवृत्ति	-9.16397
स्क	-9.1642
▁व्यक्तिको	-9.16447
शा	-9.16529
▁राजधानी	-9.16692
▁शाखा	-9.16714
▁अल	-9.16719
▁ने	-9.16728
▁मुलुकमा	-9.16829
▁तपाईंले	-9.16844
▁थालेको	-9.16953
ुवा	-9.17196
▁शैक्षिक	-9.17199
एन	-9.17259
▁जबकि	-9.17286
डो	-9.173
▁नष्ट	-9.17323
▁खासगरी	-9.17341
▁कार्यालयमा	-9.17354
रले	-9.17369
▁क्षेत्रका	-9.17427
▁कप	-9.1751
▁निवेदन	-9.17595
▁बो	-9.17673
▁सङ्केत	-9.17675
▁निर्यात	-9.17702
▁वटा	-9.17703
लाइ	-9.17729
▁चोट	-9.17784
▁कहिले	-9.17836
▁दु	-9.17966
▁लिग	-9.17969
▁द्वारा	-9.18011
ियन	-9.18037
ल्	-9.18153
▁सङ्गीत	-9.18195
▁जिल्लाको	-9.18246
▁पुन	-9.18336
▁धारणा	-9.18523
▁मतदान	-9.1853
▁जु	-9.18653
र्ड	-9.18686
▁पूर्वाधार	-9.18713
▁संगठन	-9.18728
▁नगरी	-9.18749
▁दौड	-9.1878
हि	-9.18845
▁प्रशिक्षण	-9.18854
▁विमानस्थल	-9.1907
▁ग्राहक	-9.19096
२०	-9.19097
हो	-9.19131
▁उहाँको	-9.1916
▁जान्छ	-9.19166
▁गर्नुहुन्छ	-9.1927
▁भइसकेको	-9.19275
▁संघर्ष	-9.1931
टर	-9.19332
डि	-9.19333
वटा	-9.19368
▁बाहेक	-9.19514
▁जहाज	-9.19529
▁तथ्य	-9.19586
▁धार्मिक	-9.19626
▁तरिका	-9.19725
▁भनिन्छ	-9.19753
▁मौका	-9.19767
▁राज	-9.19911
▁बी	-9.19942
ष	-9.19959
▁सकारात्मक	-9.20226
ष्ट	-9.20346
▁विद्युत	-9.20487
▁कम्प्युटर	-9.20513
▁जनसंख्या	-9.20597
▁महा	-9.20639
▁त्यस्ता	-9.20679
▁छुट	-9.20724
▁विभाजन	-9.20727
▁महत्त्वपूर्ण	-9.20924
▁वर्णन	-9.20948
▁माथिल्लो	-9.20976
▁सधैँ	-9.21043
▁रुपैया	-9.2112
ीकरण	-9.21183
▁प्रचलित	-9.21256
▁समन्वय	-9.21256
▁लाग्यो	-9.21263
▁सम्भावित	-9.21618
▁शर्त	-9.21629
▁राखिएको	-9.21637
▁विदेश	-9.21712
▁क्रम	-9.2174
▁तुलनामा	-9.21744
▁वे	-9.21766
▁प्रतिलिपि	-9.21837
▁पाएका	-9.22062
▁अन्त्यमा	-9.22068
खा	-9.22075
▁मान्छे	-9.22106
नाथ	-9.22151
फा	-9.22214
▁एकल	-9.22238
▁खेती	-9.22307
▁सञ्चालक	-9.22341
▁जसमा	-9.22498
▁उम्मेदवार	-9.22563
▁सङ्ख्या	-9.22655
▁समितिका	-9.22683
▁आम	-9.227
▁अंश	-9.22742
र्क	-9.22812
▁रगत	-9.22816
S	-9.22898
▁प्रश्वास	-9.23005
▁त्यसरी	-9.23203
▁द्वन्द्व	-9.23249
▁वाणिज्य	-9.23398
C	-9.23438
▁यसअघि	-9.23526
ाउँदै	-9.23561
▁गैर	-9.23566
▁२६	-9.23591
▁चि	-9.23618
▁स्थायी	-9.23666
▁आफैं	-9.23713
▁बजे	-9.23744
▁स्	-9.23745
▁उमेर	-9.23788
▁सँग	-9.23867
▁हडताल	-9.23892
▁टिकट	-9.23945
ुभयो	-9.24004
▁मिटर	-9.24011
▁उत्कृष्ट	-9.2419
▁न्यायाधीश	-9.24265
▁उदाहरण	-9.24348
▁टोलीले	-9.24388
▁फोटो	-9.24427
▁बढ	-9.24461
िङ्ग	-9.24476
▁पहाड	-9.24506
▁दायित्व	-9.24536
ाउनु	-9.24651
ान	-9.24716
▁गु	-9.24722
योग्य	-9.24739
▁सेतो	-9.24805
▁प्रदेश	-9.24812
▁२८	-9.24908
▁प्रारम्भ	-9.24918
▁प्रसारण	-9.24942
▁फर्म	-9.24968
▁गणना	-9.24987
▁स्वीकृति	-9.25037
▁तपाईंको	-9.25121
▁त्यसमा	-9.25159
▁रोजगारी	-9.2516
▁अघिल्लो	-9.25269
▁इस्राएलका	-9.25282
▁जुनसुकै	-9.2555
ाल	-9.25585
▁यसकारण	-9.25668
सो	-9.25782
्रो	-9.25871
▁तरिकाले	-9.25929
▁कस्तो	-9.25943
▁भि	-9.26031
▁सचेत	-9.26173
िका	-9.26294
▁परिषद्	-9.26327
▁खाता	-9.26336
▁हस्तान्तरण	-9.26369
▁एकपटक	-9.26429
▁विभागले	-9.26437
पो	-9.26487
▁२७	-9.26505
अगाडि	-9.26595
ार	-9.26627
▁देशका	-9.26656
ेज	-9.26675
▁पर्दा	-9.26678
▁सल्लाह	-9.26865
▁सिद्धान्त	-9.26903
▁धनी	-9.26965
▁चिकित्सा	-9.27024
▁कविता	-9.27047
▁आर	-9.27097
▁क्या	-9.27133
▁नियुक्ति	-9.2722
मि	-9.27241
▁ल्याउने	-9.27246
▁सम	-9.27289
▁कार्ड	-9.27323
▁पु	-9.27329
▁पहल	-9.27403
▁विपक्षी	-9.27438
जु	-9.27553
▁कम्पनीको	-9.27683
▁साधारण	-9.27746
मन	-9.27863
▁<	-9.27918
▁गर्नुभएको	-9.27963
▁आनन्द	-9.27976
▁पुनर्निर्माण	-9.27978
▁साल	-9.28071
▁मौसममा	-9.28134
्रा	-9.28143
▁हित	-9.28164
▁प्रधान	-9.28165
▁कसैलाई	-9.28226
मे	-9.2824
▁विशेषता	-9.28256
म्प	-9.28261
बल	-9.28318
▁गति	-9.28366
▁क्रियाकलाप	-9.28499
भा	-9.28617
▁सट्टा	-9.2863
▁यसो	-9.28654
▁अति	-9.28743
▁दिनमा	-9.28761
▁कटौती	-9.28805
▁संस्थाको	-9.28826
▁पाल	-9.2891
▁परम्परागत	-9.28973
▁विश्लेषण	-9.29027
▁उठ	-9.29054
▁बार	-9.29079
▁बर्	-9.29128
▁चौथो	-9.29202
▁पुग्ने	-9.29306
▁झ	-9.29489
▁काठमाडौँ	-9.29506
▁प्राप्ताङ्क	-9.29536
▁तोकिए	-9.29538
द्ध	-9.29618
▁थिएनन्	-9.29638
▁मध्ये	-9.29669
▁टेलिभिजन	-9.29692
पर	-9.29747
▁प्रतिज्ञा	-9.29748
▁टाउको	-9.29794
▁सहज	-9.29844
▁सबैले	-9.30136
▁हवाई	-9.30251
▁रहन्छ	-9.30292
▁गर्छौं	-9.30421
▁लगभग	-9.30477
▁प्रवाह	-9.30478
▁आयोगले	-9.30492
हे	-9.30536
जे	-9.30564
▁तिनीहरूको	-9.3059
लु	-9.30629
हु	-9.30644
▁बढाउने	-9.30672
▁व्याख्या	-9.30746
▁विरोधी	-9.30772
▁भन्सार	-9.30825
▁येशू	-9.30833
▁मङ्गलबार	-9.30844
▁सेप्टेम्बर	-9.30865
▁२९	-9.30919
▁आधुनिक	-9.31041
▁चिया	-9.31098
▁साइट	-9.31101
▁विधि	-9.31326
e	-9.31455
▁पत्रिका	-9.31606
▁भविष्य	-9.31762
भी	-9.31879
▁राख्नु	-9.31922
▁अनुमतिपत्र	-9.31974
▁चाँडै	-9.31997
ङ्क	-9.32017
▁खेल्न	-9.32102
▁धम्की	-9.32118
▁रुपैयाँ	-9.32141
▁विस्तृत	-9.32185
▁समुदाय	-9.32244
▁अदालतले	-9.32293
▁स्वामित्व	-9.32297
▁नसकेको	-9.323
कुमार	-9.32318
▁हुनाले	-9.32344
▁कतै	-9.32463
▁समान	-9.32467
पन	-9.32512
ुभएको	-9.3256
▁बच्चा	-9.32595
▁निकायले	-9.32637
▁भाइ	-9.32637
नै	-9.32763
▁औद्योगिक	-9.32805
था	-9.3283
▁सर	-9.32866
▁कोरिया	-9.32903
▁सामान	-9.32918
१०	-9.33033
▁संस्करण	-9.33048
▁मत	-9.33114
▁घ	-9.33125
▁शैली	-9.3319
▁स्थित	-9.33344
▁बु	-9.33404
▁उल्लेखनीय	-9.3348
▁प्रवर्द्धन	-9.33511
▁ढोका	-9.33556
▁सहभागिता	-9.33578
▁रहन	-9.33597
▁माया	-9.33599
कहाँ	-9.3376
यर	-9.3376
▁खा	-9.33849
▁उपाय	-9.33875
▁बम	-9.33993
▁गइरहेको	-9.34056
▁मिल	-9.34103
▁प्रतिबन्ध	-9.34135
▁लु	-9.34162
▁पुष्टि	-9.34195
▁हिंसा	-9.34232
▁पाकिस्तान	-9.34381
▁६०	-9.34397
▁तथ्याङ्क	-9.34436
▁पुर्	-9.34441
▁सञ्झ्याल	-9.34446
▁शहरमा	-9.34466
▁देख्न	-9.34471
दि	-9.34524
▁स्वागत	-9.3455
▁आयोजित	-9.34556
ुहुन्छ	-9.34557
▁लाभ	-9.34568
▁एन्ड	-9.34638
▁पार्टीको	-9.34747
▁लिए	-9.34759
▁अवैध	-9.34878
▁जोन	-9.34911
▁प्रकार	-9.34971
▁निर्वाचित	-9.35073
▁अदालतमा	-9.35204
▁कोइराला	-9.35225
▁महत्व	-9.3524
▁बुस	-9.35259
▁यसैगरी	-9.35356
▁मानिसले	-9.35358
▁परिणत	-9.35433
▁छौ	-9.35442
▁प्रचार	-9.35452
▁मुक्त	-9.3547
▁विशेषज्ञ	-9.35486
▁लोक	-9.35506
▁टिम	-9.35561
▁सत्ता	-9.356
ाले	-9.35606
गर	-9.3568
िज	-9.35686
▁पशु	-9.35774
▁स्वतन्त्रता	-9.35871
▁मुद्रा	-9.35909
▁स्थितिमा	-9.35935
▁भेला	-9.35985
▁वैदेशिक	-9.36101
▁बुझ्न	-9.3616
▁त्यसले	-9.36312
▁भागमा	-9.364
o	-9.3644
ीको	-9.3644
▁हेर्ने	-9.36442
▁पर्न	-9.36472
▁औसत	-9.36577
▁दण्ड	-9.36655
▁नभई	-9.36661
▁हुनसक्छ	-9.36702
म्ब	-9.36726
र्ट	-9.36736
▁चिकित्सक	-9.36774
▁प्रयोगकर्ता	-9.36789
▁माओवादीले	-9.36792
▁राखेर	-9.36804
▁चासो	-9.36809
▁इच्छा	-9.36961
▁थालेका	-9.37021
▁भौतिक	-9.37022
▁अमेरिकामा	-9.37043
▁किलोमिटर	-9.37084
दिन	-9.37167
▁जरुरी	-9.37225
▁अक्टोबर	-9.37285
▁२००६	-9.37474
▁यसर्थ	-9.37587
▁पसल	-9.37608
▁बिमा	-9.3769
▁मिनेट	-9.37881
▁अद्यावधिक	-9.37933
▁बनाएर	-9.37979
▁ठेगाना	-9.37998
▁रोक	-9.38003
ेट	-9.38051
▁साझेदारी	-9.38085
▁मिश्र	-9.38157
▁फल	-9.38185
▁सकिँदैन	-9.38191
▁अनलाइन	-9.38193
▁निम्न	-9.38217
दार	-9.3824
▁रणनीति	-9.38298
▁तिनका	-9.38319
▁बनाए	-9.38393
ढ	-9.38445
▁डेटा	-9.38477
▁बृद्धि	-9.38538
▁केटी	-9.38541
एको	-9.38674
▁पहाडी	-9.38689
▁फोल्डर	-9.38762
▁जी	-9.38928
▁मर्मत	-9.39066
▁हुनुपर्ने	-9.39171
त्त	-9.39179
▁यात्रु	-9.39237
▁तिर	-9.39268
▁पढ्न	-9.39283
▁तल्लो	-9.39528
▁सभापति	-9.39539
▁चलाउन	-9.39573
▁क्रमशः	-9.39655
▁अन्तर	-9.39685
▁ऐतिहासिक	-9.39818
▁गाह्रो	-9.39828
▁दोषी	-9.39865
▁अस्पतालमा	-9.39876
▁उनीहरु	-9.39902
▁सदरमुकाम	-9.39915
ायो	-9.40015
▁दि	-9.40017
▁शिव	-9.40036
▁संवैधानिक	-9.4005
▁देखाउने	-9.40058
▁नगद	-9.40067
▁कृपया	-9.40097
▁छोटो	-9.40295
▁लियो	-9.40378
▁यन्त्र	-9.40527
▁गयो	-9.40528
▁समक्ष	-9.40593
▁वर्षा	-9.40601
▁चलिरहेको	-9.40698
▁कानूनी	-9.40714
▁नं	-9.40753
▁धन	-9.40933
▁हटाउन	-9.41029
▁नियमावली	-9.41077
न्द	-9.41103
ष्	-9.41183
▁योग्य	-9.41247
लगायतका	-9.41332
▁इजाजतपत्र	-9.41356
▁छुट्टै	-9.41376
▁पेट	-9.4138
▁निकासी	-9.41439
▁मधेश	-9.41495
▁गएका	-9.41534
▁बहस	-9.41558
▁दिएर	-9.41666
▁रो	-9.41698
▁प्रतियोगिता	-9.41709
▁समूहले	-9.41762
▁चरण	-9.41809
▁सर्वेक्षण	-9.41819
▁सफा	-9.41921
▁0	-9.41946
▁पारेको	-9.42006
p	-9.42022
▁दा	-9.42056
गु	-9.42248
▁साँच्चिकै	-9.42326
▁सशस्त्र	-9.42353
▁बासिन्दा	-9.42377
▁देखाउन	-9.42381
स्त	-9.42386
▁बिस्तारै	-9.42391
टन	-9.42453
▁सालमा	-9.42456
▁अनुसूची	-9.42457
▁प्रकट	-9.42478
▁रह्यो	-9.42595
ञ्ज	-9.42603
▁कार्यालयले	-9.42621
▁प्रबन्धक	-9.42652
▁दीर्घकालीन	-9.42665
▁रि	-9.42823
▁सबैलाई	-9.42925
▁बन्ने	-9.43012
▁पूँजी	-9.43133
▁शीर्षक	-9.4322
▁पे	-9.43227
▁मौलिक	-9.4325
▁खाने	-9.43257
▁मार्फत	-9.43363
▁सोधे	-9.43405
▁टि	-9.43452
▁विजेता	-9.43489
▁ब्रिटिश	-9.43515
▁किसान	-9.43586
▁सांस्कृतिक	-9.43674
▁हल	-9.43698
i	-9.43872
▁अत्यन्त	-9.43913
ाउँछ	-9.43917
क्	-9.43934
▁हुलाक	-9.43975
▁एकता	-9.43998
▁वक्तव्य	-9.44059
▁क्यान्सर	-9.44123
▁खास	-9.442
▁लगाए	-9.44251
▁जरिवाना	-9.44365
▁खुट्टा	-9.44366
▁ठहर	-9.44406
▁अनुहार	-9.44423
▁३१	-9.44448
▁जसलाई	-9.44481
▁दर्शन	-9.44597
▁तनाव	-9.44686
▁काममा	-9.44688
मैले	-9.44703
▁पालन	-9.44812
पनि	-9.44823
▁कारखाना	-9.44854
▁सफलता	-9.44871
▁नामक	-9.44919
▁भूकम्प	-9.44934
▁मोबाइल	-9.45063
▁चर्चा	-9.45246
ेक	-9.45261
▁नाउँ	-9.45296
▁पाप	-9.45296
▁भारतमा	-9.453
▁परिचालन	-9.4531
हामीले	-9.4533
▁दिनको	-9.45336
ीले	-9.4535
▁जीवित	-9.45411
▁५००	-9.45422
▁३५	-9.45493
▁देव	-9.45505
▁आएर	-9.45524
▁दृष्टिकोण	-9.45562
▁निजामती	-9.45648
▁ऐनको	-9.45662
▁सुनिश्चित	-9.4568
T	-9.45755
यस	-9.45764
▁बीचमा	-9.45765
▁अवसरमा	-9.45792
▁दरबार	-9.45821
▁वेब	-9.45825
▁हुनुपर्दछ	-9.45878
▁प्रतिबद्धता	-9.45939
▁बाबु	-9.4599
▁लडाइँ	-9.46048
▁खारेज	-9.46058
▁गएर	-9.4607
▁संसद	-9.46085
▁इन्धन	-9.46175
▁सबभन्दा	-9.46224
▁औंला	-9.46234
िलो	-9.46294
▁शाह	-9.46315
िएर	-9.46372
▁पर्दैन	-9.46412
▁दुर्घटना	-9.46414
▁भा	-9.46419
▁लगाइएको	-9.46433
▁गर्दैन	-9.46446
िट	-9.46452
▁पूजा	-9.46505
▁प्रशंसा	-9.46531
ियर	-9.46573
▁धारा	-9.46628
▁नभए	-9.46651
▁युरोपेली	-9.46673
▁परम्परा	-9.4669
▁खोज	-9.46753
ोन	-9.46787
▁अर्ब	-9.46847
एक	-9.46851
▁भारतले	-9.46882
▁केवल	-9.46883
▁पुस्ता	-9.46904
्दछ	-9.46933
▁प्रशस्त	-9.47065
▁गल्ती	-9.47103
▁बढ्न	-9.47108
ाइएको	-9.47163
▁बोलपत्र	-9.47234
▁वायुसेवा	-9.4726
▁बग	-9.4732
▁पुगेका	-9.47372
▁सदा	-9.47383
▁बुझ	-9.47443
ाउँदा	-9.47476
I	-9.47496
▁स्थिर	-9.47499
▁फागुन	-9.47541
▁असल	-9.47559
▁काठ	-9.47585
▁थियौं	-9.4759
▁किसिमको	-9.47674
▁थप्नुभयो	-9.47742
डे	-9.47773
ास	-9.47814
▁गाविस	-9.4785
▁प्रावधान	-9.47916
▁ड्राइभर	-9.47965
▁की	-9.48008
▁कानुनी	-9.48011
यदि	-9.4828
▁पोखरा	-9.48285
▁हातमा	-9.48298
▁ल्याएको	-9.48381
▁ता	-9.48405
▁सुन्दर	-9.4843
रिया	-9.48469
▁हासिल	-9.48486
▁चलाउने	-9.48503
देश	-9.48538
▁फूल	-9.48554
▁महिनामा	-9.4857
▁एकै	-9.48621
▁मानिसको	-9.48825
कारी	-9.48987
▁रातो	-9.48992
▁बाढी	-9.49004
▁बढेर	-9.49012
▁सामान्यतया	-9.49024
बाटै	-9.49058
▁सामुदायिक	-9.49165
▁उपस्थिति	-9.49203
▁आत्मा	-9.49228
▁परि	-9.49253
▁खोल्न	-9.49268
▁लगायत	-9.4928
▁जोडा	-9.49283
▁मानसिक	-9.49413
▁आवास	-9.4945
▁हेर्दा	-9.49537
▁हालको	-9.49561
▁ताजा	-9.49675
▁प्रतिस्थापन	-9.498
पि	-9.49814
▁चाहने	-9.49842
▁लिनु	-9.49856
▁लिखित	-9.49899
▁रूप	-9.49945
▁कृष्ण	-9.49993
▁ताल	-9.50094
लाल	-9.50166
टि	-9.50193
▁चरणमा	-9.50194
▁इस्राएल	-9.50205
▁सेन्ट	-9.50218
▁संवाद	-9.50252
▁तिनले	-9.50294
▁फ्रान्स	-9.50296
▁शिखर	-9.50529
▁हुन्थ्यो	-9.5054
▁संसदीय	-9.50678
▁पीडा	-9.50816
▁आधारभूत	-9.50822
▁सक्दछ	-9.50876
शि	-9.50943
▁प्राथमिक	-9.50978
िल	-9.51002
▁चट्टान	-9.51175
▁म्याद	-9.51221
▁शक्तिशाली	-9.51279
▁लोकप्रिय	-9.51312
▁माछा	-9.51348
▁लाई	-9.51433
▁खाद्यान्न	-9.51435
▁अर्थात्	-9.51548
ङ्	-9.51582
▁आह्वान	-9.51728
▁गहिरो	-9.51742
▁मधेस	-9.51762
▁सडकमा	-9.51876
▁साँझ	-9.51929
चार	-9.51973
▁हट	-9.51979
लिन	-9.52054
▁परिभाषा	-9.52056
एम	-9.52112
▁सप्तरी	-9.52121
▁इन्टरनेट	-9.52145
▁सूर्य	-9.52332
▁वर्षदेखि	-9.52336
▁जानु	-9.5234
▁उपस्थित	-9.52369
▁परिस्थिति	-9.52376
▁लिएका	-9.52384
▁बसोबास	-9.52416
ोस्	-9.52464
▁चाहन्छन्	-9.52491
▁वैज्ञानिक	-9.52583
▁संस्थाले	-9.52591
▁दोष	-9.52625
▁सञ्चालित	-9.5268
▁संस्थान	-9.52757
▁स्मृति	-9.52811
▁देख	-9.52864
▁थ	-9.53104
▁लिमिटेड	-9.53192
▁चाहनुहुन्छ	-9.53209
भि	-9.53276
▁चिन्ह	-9.53308
बर	-9.53361
▁टा	-9.53467
▁राणा	-9.53495
▁डाक्टर	-9.5352
▁तराई	-9.53542
एस	-9.53602
▁कक्ष	-9.53651
बे	-9.53692
t	-9.53693
▁सर्वोत्तम	-9.53723
▁गर्व	-9.53942
▁ढुङ्गा	-9.53946
▁राजदूत	-9.54042
▁हावा	-9.54066
▁मुलुकको	-9.54068
▁जापान	-9.54127
▁होस्ट	-9.5415
न्त	-9.54193
▁भु	-9.54203
▁जाँदा	-9.54252
▁उपन्यास	-9.54261
▁कागज	-9.54264
▁स्तरमा	-9.54274
▁प्रदूषण	-9.54308
▁कपडा	-9.5434
▁मल	-9.54344
▁हस्तक्षेप	-9.54476
▁अनिवार्य	-9.5461
▁गुरुङ	-9.54646
▁पर्वत	-9.54711
▁राती	-9.54716
▁सांसद	-9.54794
▁मौसम	-9.54805
P	-9.54807
▁इरान	-9.54827
▁चु	-9.54828
▁रुप	-9.54871
शी	-9.54907
▁गतिविधि	-9.54914
▁महासचिव	-9.54953
▁भीड	-9.54991
▁अर्थतन्त्र	-9.55003
1	-9.55007
▁कार्यविधि	-9.55021
▁मासु	-9.55025
त्	-9.55043
▁निरीक्षण	-9.55048
▁बिदा	-9.5511
▁सन्दर्भ	-9.55135
▁ति	-9.55182
▁त्रैमासिक	-9.55204
▁बनाइएको	-9.55267
▁हरि	-9.55352
▁आर्जन	-9.554
▁जलवायु	-9.55447
▁इन्कर्पोरेटिड	-9.55488
▁राहत	-9.5549
▁साह	-9.55499
▁साहित्य	-9.55653
▁क्याम्पस	-9.55664
रुपमा	-9.5568
▁परिभाषित	-9.55718
▁समयसम्म	-9.55762
ेड	-9.55792
▁हा	-9.5587
▁बसेको	-9.55937
▁पति	-9.56019
▁दलित	-9.56022
▁लक्षित	-9.56036
▁पाइने	-9.56064
जो	-9.5607
छौ	-9.56124
▁दिवस	-9.56134
बो	-9.56135
नको	-9.56191
▁अरब	-9.56328
▁सम्मेलनमा	-9.5634
हरूमध्ये	-9.56368
रण	-9.56554
न्छ	-9.56564
▁सदन	-9.5659
▁दान	-9.56622
▁बित	-9.56664
▁चिन	-9.56719
d	-9.56724
▁येशूले	-9.56764
▁सुन्न	-9.56777
▁पृष्ठ	-9.56809
▁जातीय	-9.56819
▁हर	-9.56835
▁माघ	-9.56843
▁प्रकारका	-9.56849
▁धन्यवाद	-9.56858
▁पदाधिकारी	-9.56887
▁बैंकले	-9.56938
▁छाला	-9.56992
▁सक	-9.57089
▁देखाउँछ	-9.57091
▁स्व	-9.57221
▁सक्छौं	-9.57294
वर	-9.57319
▁संसार	-9.57325
▁अन	-9.57355
▁गुण	-9.57366
ुल	-9.57366
▁राई	-9.57438
ाव	-9.57451
▁कक्षा	-9.57482
▁मानक	-9.57533
१९	-9.57552
▁न्यून	-9.5757
▁राखी	-9.57574
▁जित	-9.57669
▁पौडेल	-9.57684
०००	-9.57692
▁अप	-9.57711
▁तीव्र	-9.57718
▁लिई	-9.57877
▁स्वयं	-9.57889
▁खोज्ने	-9.57918
▁प्रा	-9.57961
▁च्याम्पियन	-9.57997
▁जिम्मेवार	-9.58025
▁संयोजक	-9.58032
▁गर्नेछन्	-9.58036
▁मुद्दामा	-9.58036
▁तत्कालीन	-9.58245
िनु	-9.58354
▁मुख्यतया	-9.5837
▁नजिकै	-9.58375
▁ग्यास	-9.58379
▁सीप	-9.58392
▁ट्रयाक	-9.5842
▁पदमा	-9.58493
▁प्ले	-9.58523
▁परे	-9.58542
▁लागेका	-9.58557
▁आधिकारिक	-9.58587
▁साता	-9.58599
▁श्रीमती	-9.58603
▁विनिमय	-9.58727
▁पारे	-9.58821
▁त्रिभुवन	-9.58937
▁अधिकारीहरू	-9.58951
▁राजमार्ग	-9.58995
▁रहनेछ	-9.59008
▁विद्यालयमा	-9.59058
▁कार्यमा	-9.59138
▁आकाश	-9.59172
▁नागरिकता	-9.59177
▁सान	-9.59245
▁खतरा	-9.59324
▁परिचय	-9.59379
▁तुरुन्तै	-9.59477
हर	-9.5961
▁निमित्त	-9.59628
▁तौल	-9.59662
▁कम्युनिष्ट	-9.59677
▁निःशुल्क	-9.59677
▁क्लिक	-9.59692
▁चाहन्छु	-9.59693
▁एफ	-9.59778
▁विकासको	-9.59785
▁नोभेम्बर	-9.59853
▁बनेका	-9.59867
▁देखिने	-9.59876
▁विद्यमान	-9.59889
▁छिन्	-9.59928
▁प्रचण्ड	-9.59954
▁औपचारिक	-9.5996
▁मुद्रण	-9.60031
▁परिच्छेद	-9.60102
▁प्रोत्साहित	-9.60102
▁गाई	-9.6011
ोट	-9.60119
c	-9.60203
▁केडीई	-9.60209
▁कर्मचारीले	-9.60247
▁एकीकृत	-9.60332
▁रूपान्तरण	-9.60389
▁चिन्तित	-9.60529
▁उत्तरी	-9.60547
्यु	-9.60572
▁खेल्ने	-9.60582
▁सार	-9.60634
▁सिट	-9.60749
▁नगरेको	-9.60805
▁कर्मचारीको	-9.60819
▁डो	-9.60836
▁खानेपानी	-9.60855
्री	-9.60874
▁साझा	-9.60963
▁सहर	-9.60974
▁विरुद्ध	-9.61105
▁चाहिँ	-9.61145
▁नवीकरण	-9.61161
▁तस्वीर	-9.61203
▁कवि	-9.61242
▁नाकाबन्दी	-9.61246
▁श्रेष्ठले	-9.61257
▁नाटक	-9.61261
▁गि	-9.61292
▁पूर्वी	-9.61352
्थे	-9.61473
पे	-9.61545
▁सुरुमा	-9.61547
▁अनुमोदन	-9.61568
▁मंगलबार	-9.61626
▁टे	-9.61644
▁बढ्ने	-9.61683
▁हामीसँग	-9.61717
▁कामदार	-9.61753
▁प्रार्थना	-9.61785
▁व्यापारी	-9.61831
▁विद्युत्	-9.61854
▁फि	-9.61856
▁छाप	-9.61857
▁जेल	-9.62007
▁गठबन्धन	-9.62038
▁संघले	-9.62059
ग्	-9.62076
▁गौतम	-9.62147
▁सधैं	-9.62161
▁लेखा	-9.62163
▁कुमार	-9.62238
▁गर्नका	-9.62242
▁गरिए	-9.62242
▁मुख	-9.62273
▁खेलकुद	-9.62292
▁माध्यम	-9.62377
▁ओलीले	-9.62393
▁दुष्ट	-9.62401
▁गुरु	-9.62419
▁पर्	-9.6247
▁बाबजुद	-9.62473
▁भट्टराई	-9.62502
M	-9.62518
▁लगानीकर्ता	-9.62528
्रे	-9.62556
यु	-9.6258
▁साम	-9.62594
ल्यान्ड	-9.62605
लर	-9.62709
▁कडा	-9.62713
▁हरियो	-9.62803
▁पुगे	-9.62842
▁अभिव्यक्ति	-9.62854
ोस	-9.62857
▁सेवाको	-9.62879
▁उठाउन	-9.62893
U	-9.62967
▁मधेसी	-9.62997
▁रेखा	-9.63005
दै	-9.63043
▁गराउनु	-9.63073
▁देखे	-9.63099
▁सुश्री	-9.63149
▁शंका	-9.632
▁रहे	-9.63238
▁व्यक्तिहरू	-9.63265
▁साक्षी	-9.6328
▁सहकार्य	-9.63283
▁माटो	-9.63446
▁यसबाट	-9.63472
▁भाषण	-9.63499
▁छोरो	-9.63535
▁सामेल	-9.63603
▁मस्यौदा	-9.63643
▁दशकमा	-9.63656
▁लगाएको	-9.63657
▁सब	-9.63713
▁गर्	-9.63751
▁समाजमा	-9.6377
▁प्रसिद्ध	-9.63776
▁यथार्थ	-9.63865
E	-9.639
ाए	-9.63939
्वा	-9.6397
▁चार्ज	-9.63991
▁छोड	-9.64031
▁संचालन	-9.64049
▁देवी	-9.64078
▁सन्दर्भमा	-9.64102
ेसन	-9.64173
▁न्यूनतम	-9.64237
▁सरल	-9.6425
▁स्वीकृत	-9.64269
▁दिनेछ	-9.64276
पूर्वक	-9.6432
▁तालिका	-9.64321
▁क्षतिपूर्ति	-9.64346
▁चीनको	-9.64372
G	-9.64395
▁भण्डार	-9.64404
▁निर्दिष्ट	-9.64493
▁http	-9.64508
▁पहिला	-9.64595
▁कार्यरत	-9.64606
▁बलपूर्वक	-9.64627
▁नोट	-9.6463
▁दो	-9.64637
▁मानिसलाई	-9.64645
▁डलरको	-9.64723
▁केपी	-9.64772
▁बनाउनु	-9.64784
▁चितवन	-9.6479
▁पश्चिमी	-9.64814
▁बेलामा	-9.64843
▁टुक्रा	-9.64979
ल्ड	-9.65009
▁पृथ्वी	-9.65009
वान	-9.65017
▁योजनाको	-9.65047
▁अनुप्रयोग	-9.65127
▁नारा	-9.65138
▁दर्शक	-9.6515
ाऊ	-9.65192
हाल	-9.65272
▁राज्यको	-9.65311
▁बताइएको	-9.65353
▁केन्द्रमा	-9.65364
▁संघका	-9.6537
▁घरेलु	-9.65432
वाला	-9.65432
▁बाली	-9.65461
▁स्कूल	-9.65618
▁ठोस	-9.65683
ेश	-9.65769
▁लो	-9.65812
▁बसेर	-9.65847
्ला	-9.65886
युक्त	-9.65897
▁हिमाल	-9.65989
▁जीवनमा	-9.66016
▁चिसो	-9.6604
त्मक	-9.66107
▁गर्नुपर्नेछ	-9.66114
▁दाहाल	-9.66146
नेपाल	-9.66161
▁उद्धार	-9.66178
▁सल्लाहकार	-9.66475
▁कमी	-9.66509
▁आयोगको	-9.66645
▁एड	-9.66664
▁चा	-9.66691
2	-9.66699
बु	-9.66731
▁गाउँमा	-9.66745
▁मात्रामा	-9.669
▁थुप्रै	-9.66934
▁तलब	-9.66952
▁गरेनन्	-9.66962
ेन्ट	-9.66986
हीन	-9.67068
▁लगाएर	-9.67127
▁घट	-9.67141
▁उद्देश्यले	-9.67186
▁भोट	-9.67255
▁शारीरिक	-9.67315
१२	-9.6733
▁भै	-9.67335
▁दूध	-9.67391
▁साझेदार	-9.67391
▁सर्वसाधारण	-9.67441
▁मानिसहरु	-9.67599
▁जित्न	-9.67804
▁हैन	-9.67822
▁पठाउन	-9.6783
▁लोड	-9.67851
▁निलम्बन	-9.67889
▁योजनामा	-9.67904
▁क्षण	-9.67904
▁४५	-9.67978
▁एक्लै	-9.68043
▁जनसङ्ख्या	-9.68082
▁अल्	-9.68178
▁सहमत	-9.68234
धि	-9.68258
▁राजाको	-9.68306
▁विशिष्ट	-9.6839
▁उपत्यका	-9.68417
▁घाटा	-9.68429
▁सम्	-9.68431
▁लगायतका	-9.68469
▁नोक्सानी	-9.68506
्नुहोस्	-9.68564
▁www	-9.68613
▁सम्पदा	-9.68624
▁मारे	-9.68631
▁सहकारी	-9.68674
▁बाटोमा	-9.68681
▁कर्मचारीलाई	-9.68684
त्व	-9.68755
▁अर्का	-9.68758
▁निष्कर्ष	-9.68915
▁सस्तो	-9.68979
र्न	-9.6902
वल	-9.6904
▁पूर्वनिर्धारित	-9.69047
▁संयोजन	-9.69088
▁सहित	-9.69101
▁राजाले	-9.69134
▁भनिएको	-9.69166
▁समीक्षा	-9.69206
▁सकेनन्	-9.6921
रू	-9.69263
▁योग्यता	-9.69281
O	-9.69312
▁७०	-9.69331
▁निश्चय	-9.6937
▁थाल्यो	-9.69375
जर	-9.69426
▁श्रृंखला	-9.69543
▁मेडिकल	-9.69555
▁चाहना	-9.69736
▁उजुरी	-9.69787
▁उनीहरुले	-9.69799
▁कुराकानी	-9.69833
▁रचना	-9.69904
▁दिनुहोस्	-9.69922
आई	-9.69978
चे	-9.69979
▁निकायको	-9.70035
▁जर्ज	-9.70051
▁फोहोर	-9.70141
▁आउनु	-9.70182
▁एच	-9.70203
▁विशाल	-9.70351
▁विभागका	-9.70373
▁पठाउने	-9.70388
▁बरु	-9.70426
▁मधेशी	-9.70448
▁रमाइलो	-9.70453
▁फुट	-9.70499
▁समायोजन	-9.70534
मर	-9.70543
▁बनाएका	-9.70603
▁हकमा	-9.70607
▁नभएका	-9.70672
▁मानिन्छ	-9.70681
▁च्यानल	-9.70698
▁८०	-9.70764
▁कर्पोरेसन	-9.70928
▁हृदय	-9.70968
▁झण्डा	-9.70973
▁राख	-9.71016
▁किशोर	-9.71025
▁बस्ती	-9.71033
▁२००५	-9.71043
▁नाप	-9.71064
▁जिम्मा	-9.71078
▁जेन	-9.71134
▁कल्पना	-9.71206
▁थापाले	-9.71367
▁स्तम्भ	-9.71417
▁गर्यौं	-9.71498
भाग	-9.71501
▁अप्रिल	-9.71529
▁गरीब	-9.7156
▁राखेका	-9.71657
ेपछि	-9.71671
▁संकेत	-9.71683
▁प्रान्त	-9.71697
▁चरित्र	-9.71763
▁लाग्न	-9.71788
▁सहयोगी	-9.71811
▁जीवनको	-9.71858
▁झा	-9.71878
▁ट्रक	-9.71895
▁तिनीहरूका	-9.71906
▁दाऊद	-9.71995
▁तोकेको	-9.72097
▁खबर	-9.72113
▁गराएको	-9.72135
▁वर्षे	-9.72163
▁नराम्रो	-9.72222
▁देहायका	-9.72254
▁भोलि	-9.72265
स्टर	-9.72299
िता	-9.72322
▁केसी	-9.72356
▁बराबर	-9.72365
▁मन्त्रिपरिषद्	-9.7238
▁मेल	-9.72492
▁नभएसम्म	-9.72515
▁हेर्नुहोस्	-9.7253
▁फर्किए	-9.72652
▁फर्क	-9.72669
▁उहाँलाई	-9.72676
्यौं	-9.72685
▁बुद्ध	-9.72707
सले	-9.72714
११	-9.72715
▁दिगो	-9.72782
▁पुर्याउने	-9.72826
▁भाडा	-9.72858
क्क	-9.72874
▁३२	-9.72966
▁प्राधिकरण	-9.72984
▁दायरा	-9.73033
▁चौधरी	-9.73053
▁निर्माता	-9.73136
▁मोर्चा	-9.73155
▁डिसेम्बर	-9.73266
▁राय	-9.73272
▁क्रस	-9.73522
D	-9.73527
ेन्द्र	-9.73529
▁विदेशमा	-9.73533
▁रेड	-9.73561
▁काठमाडौंमा	-9.73579
▁कोर	-9.73622
▁महिनाको	-9.73735
▁बैठकले	-9.73736
▁डरलाग्दो	-9.73782
▁अञ्चल	-9.73784
▁अलग	-9.73786
▁अन्ततः	-9.73821
▁महेन्द्र	-9.73836
▁विच्छेद	-9.73868
ल्स	-9.7392
▁मरे	-9.73975
स्थल	-9.74069
▁दिंदै	-9.74101
▁शुद्ध	-9.74107
▁अत्यधिक	-9.74124
वी	-9.74131
▁चाहन्छ	-9.74195
ाय	-9.74309
▁देउवा	-9.74335
▁अहिलेको	-9.74485
ाउँछन्	-9.746
▁चालक	-9.74615
▁अवरोध	-9.74636
▁कार्यक्रमको	-9.74667
▁लामा	-9.74742
▁बुद्धि	-9.74774
▁लेख्न	-9.74777
▁तिनको	-9.74873
▁अंक	-9.74873
▁हिस्सा	-9.74883
g	-9.7489
▁नेपाललाई	-9.74915
▁कोठामा	-9.74942
▁दोब्बर	-9.75006
ाइरहेका	-9.75022
▁समुद्र	-9.75062
छौं	-9.75062
यन	-9.75075
▁अस्तित्व	-9.7509
▁श्रेणी	-9.75125
▁बन्दुक	-9.75135
▁तरकारी	-9.75178
▁देहाय	-9.75209
▁परिवारका	-9.7522
▁केटा	-9.75272
▁सेटिङ	-9.75278
▁आकर्षित	-9.75295
▁उत्तम	-9.75296
▁क्यालिफोर्निया	-9.75301
नियम	-9.75317
▁लुगा	-9.75358
▁रूख	-9.75379
................	-9.75411
▁भो	-9.75544
▁टेलिफोन	-9.75545
▁पार्क	-9.75628
▁बेल	-9.75686
▁स्वार्थ	-9.75706
▁निजको	-9.75758
▁समग्र	-9.75773
▁बालक	-9.75774
ेश्वर	-9.75806
▁कार्की	-9.75825
▁ख्रीष्ट	-9.75834
▁खु	-9.75844
▁ढाँचा	-9.75874
▁मानिसहरूको	-9.75896
▁विगतमा	-9.75914
▁तर्जुमा	-9.75917
▁ताकि	-9.75923
▁टो	-9.75926
▁घटेको	-9.75958
▁मार	-9.75995
▁छैनौं	-9.76099
▁शि	-9.7614
▁जटिल	-9.76204
▁विराटनगर	-9.76234
▁सगरमाथा	-9.7625
▁स्वचालित	-9.7625
▁दिल्ली	-9.76279
▁विविध	-9.76295
▁कैद	-9.76367
▁शिकार	-9.76421
▁केटाकेटी	-9.76459
▁खोजिरहेका	-9.76521
▁तिमीहरूका	-9.76534
▁सर्भर	-9.76537
▁नियन्त्रणमा	-9.76612
्दैन	-9.76632
▁आजको	-9.76656
▁दलका	-9.76683
▁ब्रान्ड	-9.76698
▁उपलब्धि	-9.767
▁नेतृत्वमा	-9.76723
▁संगीत	-9.76836
▁२००८	-9.76864
▁आणविक	-9.76867
▁भइ	-9.76893
टे	-9.76919
▁लगे	-9.76951
▁मूल्यमा	-9.77011
▁प्रकृति	-9.77036
मात्र	-9.77038
▁दिई	-9.77047
▁हिट	-9.77053
्छु	-9.77078
दो	-9.77084
▁प्रतिशतले	-9.77136
▁कसले	-9.77137
▁तपाईँलाई	-9.77295
▁टी	-9.77309
▁अनु	-9.77368
▁जग	-9.77398
▁खोज्न	-9.77401
▁निरन्तरता	-9.77406
▁सूचीमा	-9.77483
▁तत्व	-9.77512
▁अस्थायी	-9.77604
▁बाधा	-9.7762
▁२००	-9.77666
▁प्राध्यापक	-9.77677
▁कसैको	-9.77688
ाँ	-9.77696
▁जुलाई	-9.77725
▁सारा	-9.77789
▁किनकि	-9.77797
▁इमेल	-9.77882
▁भनेका	-9.77946
▁पार्टीले	-9.77964
दे	-9.77992
▁इन्	-9.77995
▁भविष्यमा	-9.78127
▁घटाउन	-9.78172
▁बसेका	-9.78185
▁सम्झना	-9.78256
▁किताब	-9.78272
करण	-9.78278
▁चाहेको	-9.78286
▁अख्तियार	-9.78297
ाको	-9.78351
िला	-9.78463
▁भन्यो	-9.78532
▁असम्भव	-9.78539
मन्त्री	-9.78544
▁अंग	-9.78555
▁अर्थात	-9.7862
▁बसे	-9.78643
▁स्टे	-9.78665
▁बताउँदै	-9.7869
▁स्वस्थ	-9.78697
▁आउँदा	-9.7871
िना	-9.7883
▁चोरी	-9.78912
▁इराक	-9.78924
▁नेताहरू	-9.79019
▁सन्तुलन	-9.79043
▁तिमीहरूको	-9.79067
▁सोचे	-9.79076
ऊ	-9.79082
हरूबाट	-9.79127
▁विकसित	-9.79181
▁...	-9.79251
▁सत्र	-9.79305
कल	-9.79317
▁बिजुली	-9.79344
▁बटन	-9.79358
▁दिँदै	-9.79358
▁यसैबीच	-9.79359
▁दिनसम्म	-9.79413
▁बिरुवा	-9.79478
▁गरेकी	-9.79534
▁नव	-9.79554
▁माओवादीको	-9.79563
▁मापदण्ड	-9.79603
▁वडा	-9.79711
▁अभिलेख	-9.79822
जब	-9.79835
्यौ	-9.79848
▁तय	-9.79894
▁दास	-9.79932
▁जर्मनी	-9.79961
िक्स	-9.79972
▁असोज	-9.79992
▁सजिलै	-9.80035
▁टु	-9.80182
▁स्पर्श	-9.8021
▁माइल	-9.80245
स्थ	-9.80318
▁संगठित	-9.8034
▁तिनी	-9.8035
प्	-9.80394
▁तु	-9.80471
▁क्लिन्टन	-9.80513
▁जय	-9.80525
▁उपहार	-9.80527
▁भारी	-9.80573
▁मोडल	-9.80628
्ट	-9.80628
▁इराकी	-9.80646
▁खडा	-9.80669
▁समूहका	-9.80715
▁ढिलो	-9.80789
▁यरूशलेम	-9.80835
▁सन्तान	-9.80885
▁अन्यत्र	-9.80901
▁प्रशिक्षक	-9.80905
▁संक्षिप्त	-9.80907
▁लागे	-9.80938
▁ब्याङ्क	-9.80956
▁भिन्नता	-9.81019
द्	-9.81039
A	-9.81045
थी	-9.81071
▁मार्च	-9.81078
▁करीब	-9.81081
▁:	-9.81083
्ग	-9.81087
▁गरिब	-9.81094
▁सुदृढ	-9.81158
▁निकुञ्ज	-9.81168
▁बाकस	-9.81176
▁इराकमा	-9.81271
▁बनाउँछ	-9.81295
▁महासंघ	-9.81303
▁बेलायत	-9.81346
ँदा	-9.81367
ीमा	-9.81372
▁आँकडा	-9.81388
▁चित्र	-9.81399
▁नमूना	-9.81431
▁वर्षपछि	-9.81568
▁घुम	-9.81602
ाइएका	-9.81621
।'	-9.81633
▁कारवाही	-9.8174
B	-9.81768
▁मुटु	-9.81849
▁छन	-9.81892
्नुपर्ने	-9.81914
▁विरूद्ध	-9.8193
▁एसियाली	-9.81989
▁गइरहेका	-9.82006
▁बैङ्क	-9.8201
निक	-9.82018
▁टिभी	-9.82019
▁रद्द	-9.82134
द्द	-9.82165
एफ	-9.82166
▁बोल्न	-9.82169
▁माइकल	-9.82213
कोट	-9.82247
a	-9.82276
पटक	-9.82297
धा	-9.82318
▁विकासमा	-9.82376
▁नदिने	-9.82377
▁दस्तुर	-9.82403
▁उपर	-9.82497
▁अव	-9.82558
धी	-9.826
▁1	-9.82622
▁विकासका	-9.82685
▁अनुकूल	-9.82746
▁ध्वनि	-9.82759
▁सम्झ	-9.82803
▁अधिकतम	-9.82805
वाल	-9.82837
▁अवधारणा	-9.82892
▁जिल्लाका	-9.829
▁स्वाद	-9.82901
▁यता	-9.82907
▁बताउनु	-9.82921
▁मञ्च	-9.82922
▁बीचको	-9.82958
▁मन्त्रालयका	-9.82969
▁उड	-9.8297
▁बिल	-9.82987
▁रूपले	-9.83019
▁मोटर	-9.83042
ँदै	-9.83101
श्	-9.83111
▁प्रादेशिक	-9.8325
▁प्यानल	-9.83262
▁क्रान्ति	-9.83272
▁मार्	-9.83301
▁उज्यालो	-9.83339
िनी	-9.83348
▁सेप्टेम्बरमा	-9.83365
▁हिन्दू	-9.83467
▁हजारौं	-9.8348
मलाई	-9.83506
F	-9.83516
▁संस्थागत	-9.83537
▁स्वर्ग	-9.83556
▁संख्यामा	-9.83563
▁नेताहरु	-9.83601
फ्ट	-9.83648
बार	-9.83648
▁भरपर्दो	-9.83743
▁पारित	-9.83754
▁निषेध	-9.83766
b	-9.83821
▁बहुमत	-9.83837
..	-9.83993
▁स्टेसन	-9.84077
▁भण्डारी	-9.84095
घर	-9.84144
▁पर्खाल	-9.8415
▁कुराको	-9.84214
▁देखियो	-9.84257
कर्मी	-9.84291
▁आफ्नी	-9.84299
▁७५	-9.84342
▁छाड	-9.84367
▁द्रुत	-9.84375
ामा	-9.84392
▁निर्	-9.8442
▁दशक	-9.84447
▁फिल्ड	-9.8447
▁नेतृत्वको	-9.84482
▁चन्द्र	-9.84494
▁गिरावट	-9.84511
पूर्व	-9.84559
समा	-9.84608
▁सायद	-9.84648
▁निर्भर	-9.84674
▁अभिनय	-9.84692
▁जलविद्युत्	-9.8471
▁पानीको	-9.84719
▁तहमा	-9.84769
▁संविधानसभा	-9.84781
सिया	-9.8488
▁पराजित	-9.84922
▁स्थानान्तरण	-9.84922
म्यान	-9.84944
▁गर्नुअघि	-9.84953
▁पालना	-9.85028
▁धरान	-9.85114
▁डलरमा	-9.85121
गी	-9.85131
▁S	-9.85143
तो	-9.8516
▁झैं	-9.85233
▁चिनो	-9.85235
▁जैविक	-9.8524
▁अंग्रेजी	-9.85263
▁पुर्याउन	-9.85322
▁झ्	-9.85325
▁ढल	-9.85372
▁छोराहरू	-9.85415
चि	-9.85508
कासाथै	-9.85532
▁वातावरणीय	-9.85534
▁दाहिने	-9.85559
▁शत्रु	-9.85605
▁विपरीत	-9.85675
▁अर्	-9.85676
रको	-9.85779
▁शङ्का	-9.85835
▁वीर	-9.85849
▁दुइ	-9.85852
▁ग्या	-9.85857
▁सतह	-9.85865
▁सुरुआत	-9.85872
▁C	-9.85893
▁भोग	-9.85909
ड्	-9.85913
▁एवम्	-9.86018
▁दुर्व्यवहार	-9.86018
▁दिनभित्र	-9.86079
▁हेरे	-9.86079
दान	-9.86096
▁उपाधि	-9.86116
▁क्षेत्रलाई	-9.86149
▁सातौं	-9.86199
▁अवलोकन	-9.86202
▁तपाईंलाई	-9.86205
▁u	-9.86264
ठा	-9.86296
पु	-9.86311
▁सक्दैनन्	-9.86383
नगर	-9.86425
▁भन्छिन्	-9.86449
▁झर्यो	-9.86479
▁चढ	-9.8649
▁पठाए	-9.86491
▁सन्धि	-9.86539
▁एजेन्सी	-9.86551
उनी	-9.86555
व्य	-9.86555
▁बोलाए	-9.86567
▁उत्पादक	-9.86591
▁पक्षले	-9.86638
▁तपाई	-9.8668
▁मल्ल	-9.86727
▁प्रथम	-9.86752
▁२००४	-9.868
▁व्यवस्थित	-9.86803
▁कुकुर	-9.86817
▁राजीनामा	-9.86942
िदिए	-9.86999
▁दिन्छन्	-9.87061
स्ता	-9.87123
▁पोर्ट	-9.87162
▁बाहिरी	-9.87185
▁गायक	-9.87222
▁सम्पादक	-9.87297
▁त्रि	-9.87308
▁मेसिन	-9.87421
▁सदस्यहरू	-9.87436
▁घडी	-9.875
निया	-9.87569
मुनि	-9.87587
▁बलात्कार	-9.87641
▁अनेक	-9.87663
▁प्रक्रियामा	-9.87758
▁समयमै	-9.87864
▁आयोजक	-9.87876
▁३३	-9.87917
▁हाउस	-9.87937
▁सुरक्षाकर्मी	-9.87965
▁उनीहरुको	-9.87966
भो	-9.88074
▁एक्स	-9.88087
▁मार्ने	-9.88126
▁ड्राइभ	-9.88127
▁शहरी	-9.88154
▁गन्तव्य	-9.88157
▁वासिङ्टन	-9.88185
▁बारम्बार	-9.88204
▁मिस	-9.88226
▁त्यसका	-9.88237
▁राजनीतिमा	-9.88238
▁पोस्ट	-9.88248
▁मिलेर	-9.88335
▁९०	-9.88345
▁व्यस्त	-9.88356
▁नेताहरूले	-9.88384
▁उनकी	-9.88464
▁निकास	-9.8853
▁सरकारमा	-9.88535
▁देखाएको	-9.88579
▁मेला	-9.88593
ची	-9.88626
▁प्रस्तावित	-9.88671
▁सुपर	-9.88715
▁उत्साह	-9.88729
▁जापानी	-9.88829
▁वाल	-9.88865
वार	-9.88871
▁पढ	-9.88872
▁ज्यान	-9.8894
▁प्रविष्ट	-9.88945
▁युग	-9.88951
▁कुरो	-9.88972
००	-9.89028
▁राष्ट्रको	-9.89037
▁सम्बद्ध	-9.89073
▁खोल	-9.89123
▁बनायो	-9.89167
▁अक्षम	-9.89398
▁शायद	-9.89434
▁अमेरिकाको	-9.89477
▁बहु	-9.89526
▁बर्ष	-9.89549
▁आत्म	-9.89556
▁डिजिटल	-9.89577
▁दुबै	-9.89625
▁नारायण	-9.89652
गन	-9.89889
▁संयन्त्र	-9.89915
१६	-9.89987
▁टन	-9.89988
▁विमान	-9.89993
ताका	-9.9002
मूलक	-9.9002
▁सर्व	-9.90033
▁बाघ	-9.90096
▁नाफा	-9.90133
▁गतिमा	-9.90164
▁मेट	-9.90284
▁शरणार्थी	-9.90295
▁चाहिन्छ	-9.90363
▁अभिग्रहण	-9.90439
▁पुराना	-9.90439
सर	-9.90448
▁अन्न	-9.90516
▁माध्यमबाट	-9.90533
नाम	-9.90589
▁व्यापारिक	-9.90603
▁विनाश	-9.90648
▁तिनलाई	-9.90705
▁समाचारपत्र	-9.90772
▁धान	-9.90834
्सन	-9.90877
▁गराई	-9.90908
िनेछ	-9.9091
▁कर्म	-9.90911
▁दर्जन	-9.90932
▁वर्षभन्दा	-9.90953
u	-9.90971
धन	-9.90988
▁फ्रेन्च	-9.91019
▁घृणा	-9.91066
▁डेभिड	-9.91067
▁उल्लिखित	-9.91114
▁लिङ्क	-9.91183
▁मनोरञ्जन	-9.91211
▁शान्त	-9.91245
▁मी	-9.91259
लिङ	-9.91262
▁वैकल्पिक	-9.91308
▁बगैंचा	-9.9131
▁लगाएका	-9.91356
सिंह	-9.91404
▁नो	-9.91458
AP	-9.91487
र्त	-9.91582
▁खोजेको	-9.91588
▁देखेर	-9.91644
▁टाइम्स	-9.91654
▁तर्फ	-9.91684
▁बेर	-9.91685
▁चेतना	-9.91708
▁चौ	-9.91708
▁मूर्ति	-9.91734
▁बोकेर	-9.91765
▁गोप्य	-9.91795
▁द्रष्टव्य	-9.91796
▁चामल	-9.91882
▁दरखास्त	-9.91885
▁बन्यो	-9.91897
▁कच्चा	-9.91899
▁परिवारलाई	-9.91913
▁उल्लङ्घन	-9.91941
▁परिवारको	-9.91948
क्रम	-9.91963
▁फु	-9.92054
▁दक्षिणी	-9.92081
▁स्थल	-9.92092
n	-9.92103
▁ज्यादै	-9.92187
दर	-9.92241
िकरण	-9.92266
▁व्यवसायीले	-9.92299
▁३६	-9.92299
▁स्वाभाविक	-9.92332
▁मोशा	-9.92355
▁भेट्न	-9.92388
▁कप्तान	-9.9248
दु	-9.92536
▁बहुसंख्यक	-9.92547
नेस	-9.92558
▁बहिनी	-9.92595
▁पार्नुहोस्	-9.926
▁प्रो	-9.92606
▁नोक्सान	-9.92624
▁रेल	-9.92671
देव	-9.92701
▁गर्थे	-9.92731
▁भारतका	-9.9277
▁अनुसरण	-9.92774
▁डु	-9.92784
▁गे	-9.92787
▁जम	-9.92799
▁महान	-9.9283
▁टाँस	-9.92843
▁स्कुल	-9.92874
ाएका	-9.92901
▁मुक्ति	-9.9293
▁रूस	-9.92946
▁ठ	-9.92957
▁ढंगले	-9.93021
▁सकेका	-9.93039
चन	-9.93073
साथ	-9.93073
▁मण्डल	-9.93126
▁अप्रत्याशित	-9.9314
▁भाषामा	-9.93176
▁बने	-9.93233
▁हुनुहुन्थ्यो	-9.93268
▁हर्	-9.9329
▁प्राधिकरणले	-9.9331
▁समितिमा	-9.93321
▁बचाउन	-9.93351
ुर	-9.9337
▁सफ्टवेयर	-9.93417
▁हालैको	-9.93425
डर	-9.93475
▁त्यसबेला	-9.93483
▁प्रतिष्ठान	-9.93502
▁हालसम्म	-9.93549
इन	-9.93567
▁पृष्ठभूमि	-9.93685
▁मानवअधिकार	-9.93699
▁अभावमा	-9.93746
▁मध्यम	-9.93773
▁फा	-9.93862
▁निष्पक्ष	-9.93864
▁बनाई	-9.93877
▁संसारमा	-9.93882
▁लाल	-9.93922
ंक	-9.93945
▁निज	-9.93989
▁नकारात्मक	-9.94012
▁ढिलाइ	-9.94123
तामा	-9.94209
▁जनशक्ति	-9.94229
मिल	-9.94254
▁फोरम	-9.94255
▁आश्वासन	-9.94312
िच	-9.94322
▁फर्केर	-9.94323
▁प्रतिवेदनले	-9.94412
▁फायर	-9.94554
▁नारी	-9.946
▁खोला	-9.94659
ेन्स	-9.94709
▁महिनासम्म	-9.94773
▁प्याकेज	-9.94801
▁आज्ञा	-9.94819
▁ठेकेदार	-9.94829
▁२०१५	-9.94995
देवी	-9.95033
▁क्षेत्रबाट	-9.95044
▁देखिएका	-9.95097
▁सरकारबाट	-9.95153
▁आगमन	-9.95177
हार	-9.9518
▁दिनुपर्छ	-9.95187
▁यसबारे	-9.95239
▁संविधानको	-9.95255
▁भत्ता	-9.95279
▁चर्च	-9.95311
▁अदालतको	-9.95347
▁रोजगार	-9.95348
▁डेढ	-9.95388
▁ड्र	-9.95413
▁गर्दैनन्	-9.95448
▁जेठ	-9.95449
▁वस्तुहरू	-9.95458
नौ	-9.95499
▁समूहको	-9.95562
▁स्त्री	-9.95584
चित	-9.956
L	-9.95617
▁ल्याए	-9.95639
▁तार	-9.95654
▁पुनरावेदन	-9.95671
▁मालसामान	-9.95671
▁कल्याण	-9.95767
▁प्रोत्साहन	-9.95823
▁शल्यक्रिया	-9.95823
३०	-9.95849
▁व्य	-9.95858
▁जमीन	-9.95866
▁मारिएका	-9.95913
▁उठाउने	-9.95924
▁प्रतिभा	-9.9602
▁अग्रसर	-9.96028
▁आन्दोलनको	-9.96028
▁थर	-9.96028
▁खण्डमा	-9.96085
▁आकर्षण	-9.96128
▁अपहरण	-9.9623
?"	-9.96397
िंग	-9.9643
▁महाधिवेशन	-9.96434
▁देखाउनुहोस्	-9.96457
▁विद्युतीय	-9.96477
▁भोक	-9.96495
▁नक्सा	-9.96504
▁सक्थ्यो	-9.96541
▁निकाल	-9.96609
ाहा	-9.9661
▁भण्डारण	-9.96671
▁कोषको	-9.96705
▁बिट	-9.96728
▁रही	-9.96798
▁कान	-9.9683
यता	-9.96991
▁दिइने	-9.97054
▁आफैँ	-9.97074
ल्ला	-9.97097
▁प्रभु	-9.97145
▁अविश्वास	-9.97153
▁मोड	-9.97217
▁हिसाबले	-9.97247
▁सम्भवत	-9.9725
▁सिमाना	-9.97263
▁पाठक	-9.97287
▁द्वीप	-9.97383
▁शहरको	-9.97409
▁उदार	-9.97452
▁पाण्डे	-9.97522
▁खेत	-9.97524
१८	-9.9755
▁प्राचीन	-9.97617
▁डिग्री	-9.9762
N	-9.97628
▁सेनाको	-9.9766
सं	-9.97674
अप	-9.97782
द्र	-9.97783
▁पुरा	-9.978
▁ललितपुर	-9.97826
▁नक्कली	-9.97833
▁सयौं	-9.97839
यू	-9.97852
▁अमेरिकाले	-9.97986
▁सोध	-9.97996
▁निगम	-9.97997
▁जित्ने	-9.98004
पाल	-9.98028
▁संस्कार	-9.98034
▁शेयर	-9.98041
▁छानबिन	-9.98082
वासी	-9.981
▁परिषद्को	-9.98129
▁मलेसिया	-9.98136
▁रू	-9.98179
▁उन्नत	-9.98194
0	-9.98211
▁दिइनेछ	-9.9823
▁विष्णु	-9.98237
▁यसैले	-9.9829
▁भविष्यवाणी	-9.98291
▁थाल	-9.98295
सक	-9.98314
▁फे	-9.98333
▁बज	-9.98334
▁ट्राफिक	-9.98376
उहाँले	-9.9838
▁राउन्ड	-9.98383
▁हल्ला	-9.98451
▁आत्महत्या	-9.98498
▁शुरू	-9.985
▁मैदान	-9.98551
▁दलहरू	-9.98575
▁सूचकाङ्क	-9.98594
▁छोडे	-9.98618
▁राजतन्त्र	-9.9866
▁इतिहासमा	-9.98671
भित्रै	-9.987
▁इकाई	-9.98708
▁सञ्चालनमा	-9.98864
ते	-9.98904
▁जनकपुर	-9.98921
▁चीनले	-9.98928
▁सहयोगमा	-9.9901
ोल	-9.99221
▁अष्ट्रेलिया	-9.99358
▁मुनाफा	-9.99387
▁क्यामेरा	-9.99407
▁रोटी	-9.99445
▁महिलाको	-9.99489
▁वचन	-9.99508
▁विश्वको	-9.99517
▁समूहमा	-9.99534
▁३४	-9.99553
▁दृष्टि	-9.99574
▁एकैसाथ	-9.99606
सार	-9.99653
▁मोर	-9.99691
खु	-9.997
▁पू	-9.99703
▁रानी	-9.99717
▁सेवामा	-9.99756
▁ब्राउज	-9.99767
▁छोडेर	-9.9977
▁डब्ल्यूएम	-9.99814
िसकेको	-9.99844
▁खड्का	-9.99864
▁भइरहेका	-9.99923
▁पुनरावृत्ति	-9.99967
▁कोक	-10
्दैनन्	-10.0001
▁एकाइ	-10.0002
▁तैपनि	-10.0007
▁आदिवासी	-10.0009
▁जनजाति	-10.0013
▁प्रष्ट	-10.0017
वास	-10.0018
▁यादवले	-10.0018
्यू	-10.0019
▁कमल	-10.002
▁मगर	-10.0027
▁गाउ	-10.0043
▁लोकतान्त्रिक	-10.0053
▁प्रहार	-10.0059
▁मित्र	-10.007
▁छेउमा	-10.007
▁खरीद	-10.0071
ाक	-10.0077
▁आंशिक	-10.0082
▁टर्की	-10.0083
१५	-10.0085
▁भएकोले	-10.0086
िसकेका	-10.0087
▁सौन्दर्य	-10.0087
ानी	-10.0088
▁पुत्र	-10.0089
▁लड	-10.0093
फि	-10.0093
झैं	-10.0098
▁होइनन्	-10.01
▁सालको	-10.0102
कृत	-10.0105
▁उता	-10.0105
जन्य	-10.0106
▁फेसबुक	-10.0108
▁असमर्थ	-10.0114
▁चन्द	-10.0117
▁एसिया	-10.0117
ुक	-10.012
्छौं	-10.0127
▁वस्तुको	-10.0129
▁t	-10.0129
▁पूरै	-10.013
▁झापा	-10.0133
▁चलन	-10.0138
कुल	-10.0139
▁बोल्दै	-10.015
▁चाहन्थे	-10.0151
▁बलि	-10.0153
▁नायक	-10.0158
▁प्रणालीमा	-10.0163
▁साइज	-10.0164
▁प्रतिफल	-10.0175
▁आफै	-10.0175
▁संघको	-10.0186
▁हौं	-10.0188
▁फिट	-10.0194
मेरो	-10.0194
ेस	-10.0195
▁भक्तपुर	-10.0195
▁म्या	-10.0203
▁युनियन	-10.0206
▁निको	-10.021
▁सुरुवात	-10.0211
▁जर्मन	-10.0212
▁बन्दै	-10.0217
▁बदल	-10.0222
▁सचिवालय	-10.0223
लिस	-10.0227
▁२०१७	-10.023
▁मुस्लिम	-10.0232
▁गर्नेछु	-10.0233
▁कार्यालयको	-10.0237
▁ग्रहण	-10.0239
▁याकूब	-10.0243
▁प्रेरित	-10.0251
▁अन्तरक्रिया	-10.0253
er	-10.0258
▁ह्यान्डल	-10.026
▁आचार्य	-10.0261
▁मार्क	-10.0263
▁कर्णाली	-10.0265
▁सेन	-10.0265
▁आन्दोलनमा	-10.0265
▁विश्वका	-10.0266
▁आश्चर्यचकित	-10.027
▁कृति	-10.0275
शील	-10.0281
न्डर	-10.0284
▁जोडिएको	-10.0288
न्च	-10.029
▁किनारा	-10.0305
▁तर्फबाट	-10.0308
ाइरहेको	-10.031
▁थालेपछि	-10.0313
ैं	-10.0317
▁चाहन्छौं	-10.0319
▁टिप	-10.0327
▁परित्याग	-10.033
बमोजिम	-10.0335
▁पुरस्कृत	-10.0336
▁पेशा	-10.034
▁संग	-10.0344
नारायण	-10.0344
ज्ञ	-10.0351
▁महिलाहरू	-10.0353
चु	-10.0358
र्म	-10.0366
थे	-10.037
▁बैंकको	-10.037
▁कहिलेकाहीं	-10.0378
विन	-10.038
▁गरिसकेको	-10.039
▁रिस	-10.0392
▁बोल्ने	-10.0393
▁B	-10.0395
विहीन	-10.0397
▁राजधानीमा	-10.0399
▁सरकारका	-10.0402
▁पञ्चायत	-10.0415
कन	-10.0421
▁सार्न	-10.0422
▁काङ्ग्रेस	-10.0424
▁कार्यक्रमहरु	-10.0425
क्षेत्र	-10.0425
ीहरू	-10.0425
▁हौ	-10.043
मार्ग	-10.0431
▁मनमा	-10.0431
▁तसर्थ	-10.0435
तु	-10.0437
▁शिविर	-10.0438
▁छोड्न	-10.0438
मिन	-10.044
▁जमिन	-10.0441
▁संस्थाहरू	-10.0441
l	-10.0443
िर	-10.0448
▁दगुरे	-10.045
▁रक्सी	-10.0451
▁झु	-10.0454
▁विदा	-10.0462
लले	-10.0466
▁कार्	-10.0471
▁रुचि	-10.0472
▁लेखन	-10.0473
▁३७	-10.0474
िफ	-10.0476
▁सेनाले	-10.0478
▁विकृति	-10.0479
यी	-10.048
ेली	-10.0481
▁बाँध	-10.0483
▁खुसी	-10.0485
▁त्यसैगरी	-10.0485
▁बसिरहेका	-10.0487
▁लिइएको	-10.0491
▁चे	-10.0491
▁सौदा	-10.0491
▁पढ्ने	-10.0493
दोस्रो	-10.0494
▁दशैं	-10.0497
रूपमा	-10.0499
▁पार्दै	-10.0504
▁माध्यमिक	-10.0513
▁सके	-10.0515
▁बानी	-10.0526
दल	-10.0526
▁२००१	-10.0529
▁उद्घाटन	-10.0529
,'	-10.0531
▁समृद्धि	-10.0533
म्बर	-10.0536
पति	-10.0539
ीत	-10.0544
▁बुबा	-10.0544
▁लैजान	-10.0546
▁तामाङ	-10.0548
▁A	-10.0554
▁शहरहरू	-10.0555
्याउने	-10.0556
▁कष्ट	-10.0559
▁लाग्दैन	-10.0568
▁ह्वाइट	-10.0568
▁महिनाअघि	-10.057
र्थ	-10.0572
▁काट	-10.0573
▁प्रतियोगितामा	-10.0579
▁पात	-10.0579
▁कामको	-10.0601
▁प्रतिविम्बित	-10.0602
▁विषयवस्तु	-10.0603
ार्थ	-10.0613
▁ग्रीष्म	-10.0613
▁तीमध्ये	-10.0617
▁कार्यहरू	-10.0618
▁पुनरावलोकन	-10.0619
▁राति	-10.062
▁पाठ्यक्रम	-10.0624
▁वक्तव्यमा	-10.0625
▁जात	-10.0632
▁दुख	-10.0651
▁कार्यालयका	-10.0658
▁असामान्य	-10.066
▁मोटरसाइकल	-10.0664
▁लन्डन	-10.0664
▁प्रोफाइल	-10.0664
▁क्लिनिक	-10.0667
▁दुईजना	-10.0673
▁चिनी	-10.0677
▁ब्रा	-10.0677
▁वेदी	-10.0677
▁भिन्न	-10.0678
▁पात्र	-10.0682
▁२००३	-10.0682
▁३८	-10.0692
▁उत्सव	-10.0692
▁निर्धारित	-10.0692
▁३९	-10.0692
▁पुग	-10.0699
▁प्रतिवेदनमा	-10.0701
▁प्रजातन्त्रको	-10.0709
▁सुने	-10.071
रेट	-10.0711
▁--	-10.0712
▁सक्छु	-10.0712
▁पसिना	-10.0715
▁लोकतन्त्र	-10.0715
र्ष	-10.0716
मेल	-10.0722
▁अधिवेशन	-10.0732
▁रेष्टुरेन्ट	-10.0732
▁पल्ट	-10.0734
▁चारैतिर	-10.0738
▁राम्रोसँग	-10.0745
▁मौसमी	-10.0751
प्त	-10.0751
▁भूमिमा	-10.0753
जित	-10.0765
▁नाच	-10.0768
▁इन्जिनियर	-10.077
▁निकाल्न	-10.0777
▁चक्र	-10.0788
▁औ	-10.0788
▁बढुवा	-10.0791
▁प्रशासनिक	-10.0794
▁किसिमका	-10.0797
f	-10.0797
▁३००	-10.0799
▁पचास	-10.0801
▁M	-10.0801
▁हात्ती	-10.0803
▁तिर्न	-10.0803
▁जुट	-10.0806
▁गैरसरकारी	-10.0806
▁रोबर्ट	-10.0807
▁पोखरी	-10.0811
▁स्विच	-10.0811
▁प्वाल	-10.0812
▁क्यान	-10.0816
▁महिलालाई	-10.0819
▁कार्यको	-10.0821
▁छौँ	-10.0822
▁टोल	-10.0827
▁जनवरी	-10.0827
▁बीउ	-10.083
▁निकट	-10.0834
▁समस्याको	-10.0845
मय	-10.085
▁एजेन्ट	-10.0853
लाइन	-10.0861
िँदै	-10.0862
▁नभएर	-10.0862
▁राष्ट्रसंघीय	-10.0866
चो	-10.087
▁अपमान	-10.0873
▁प्रयत्न	-10.0875
▁शिक्षण	-10.0876
▁बारे	-10.088
▁विद्रोह	-10.0885
▁प्रयोजनको	-10.0886
्ता	-10.0887
▁अस	-10.089
कार्य	-10.0891
▁छोराछोरी	-10.0891
▁लेखे	-10.0893
स्थान	-10.0895
वाट	-10.09
१७	-10.0903
▁दै	-10.0903
▁दायाँ	-10.0905
▁खस	-10.0905
▁बास	-10.091
ट्टा	-10.0912
काल	-10.0915
▁भाषाको	-10.0919
▁रंग	-10.0922
▁नजिकको	-10.0923
एका	-10.0927
▁मानिने	-10.0933
▁एशिया	-10.0934
▁दुःखी	-10.0937
▁समुदायको	-10.0938
▁फ्ल	-10.094
▁साथीहरू	-10.094
▁सिक	-10.0945
▁राज्यले	-10.0948
▁P	-10.0951
▁खुद	-10.096
▁कमजोरी	-10.0961
तः	-10.0965
बजार	-10.0965
▁समाजको	-10.0969
▁बीमा	-10.0971
वन	-10.0972
▁चोर	-10.0973
▁तिम्रा	-10.0974
▁खट	-10.0974
▁गरिबी	-10.0976
▁निजले	-10.0979
ङ्गा	-10.098
▁ट्रम्प	-10.098
▁विद्यार्थीलाई	-10.0984
▁देखेका	-10.0984
▁F	-10.0986
▁प्रदर्शनी	-10.0989
▁त्रैमासिकमा	-10.0991
▁समझदारी	-10.0991
▁शाऊल	-10.1003
खेल	-10.101
▁पठाएको	-10.1011
▁जस	-10.1014
थ्यो	-10.1017
▁परिमाण	-10.1023
म्बा	-10.1042
▁साउदी	-10.1047
▁यू	-10.1048
▁चाड	-10.1051
▁बौद्ध	-10.1051
▁भन्छ	-10.1051
▁दलाल	-10.1053
▁शा	-10.1056
▁संसदमा	-10.1057
▁बुझे	-10.1079
▁हिसाब	-10.108
▁शक्तिको	-10.1081
▁सकिनेछ	-10.1083
▁बेलायती	-10.109
▁अँध्यारो	-10.1091
▁कास	-10.1094
▁इन	-10.1105
▁झन्	-10.1107
▁कम्पनीहरू	-10.1108
▁दुरुपयोग	-10.1109
ध्य	-10.1111
बेला	-10.1112
▁गार्ड	-10.1114
▁प्रकोप	-10.1116
▁अन्यथा	-10.112
▁बाँच्न	-10.1121
सको	-10.1123
▁यहूदा	-10.1126
▁मानवीय	-10.1126
▁गौरव	-10.1128
▁जाडो	-10.113
रुप	-10.1132
▁एल्बम	-10.1133
▁जाँचबुझ	-10.1133
▁हेक्टर	-10.1134
▁पठाउनु	-10.1134
▁सभामुख	-10.1139
▁नसकिने	-10.1145
▁अनुवाद	-10.1153
▁था	-10.1157
▁पद्धति	-10.116
सचिव	-10.1163
▁छाती	-10.1163
▁स्प	-10.1165
▁तहको	-10.1166
▁२०१८	-10.1166
▁आकर्षक	-10.1174
▁अन्त	-10.118
▁तिहाई	-10.118
▁शताब्दी	-10.118
▁नवीन	-10.118
घाट	-10.1186
▁सशक्त	-10.1194
▁सक्नु	-10.1195
▁नहुँदा	-10.1198
▁उद्यमी	-10.12
▁मेयर	-10.1202
▁आँधी	-10.1204
▁वायु	-10.1212
▁महोत्सव	-10.1214
▁पैठारी	-10.1218
▁भएपनि	-10.1224
▁समाविष्ट	-10.1228
▁एयर	-10.1229
▁ढ	-10.1234
केट	-10.1236
ठी	-10.1238
शक्ति	-10.1241
▁नर	-10.1242
▁देखिन	-10.1242
▁इङ्गल्यान्ड	-10.1246
▁उत्तिकै	-10.1252
▁राष्टि्रय	-10.1252
सम्मको	-10.1256
▁संवेदनशील	-10.1258
▁स्टा	-10.1261
▁विधा	-10.1261
H	-10.1263
▁गराए	-10.1265
▁बंगलादेश	-10.1266
▁महसुल	-10.127
▁लगातार	-10.127
▁राजनैतिक	-10.127
▁ब्या	-10.1271
▁कांग्रेसका	-10.1272
▁दक्ष	-10.1277
▁यसपटक	-10.1279
▁उपेक्षा	-10.1282
▁मुद्दाहरू	-10.1286
▁एमाओवादी	-10.129
▁एकीकरण	-10.1293
▁जन्मेका	-10.1296
▁कांग्रेसले	-10.1298
▁बाह्य	-10.13
▁शोषण	-10.13
▁आठौं	-10.1302
▁उत्पादनमा	-10.1303
▁पोखरेल	-10.1303
▁दलको	-10.1305
▁भौगोलिक	-10.1306
▁घटनाहरू	-10.1312
▁प्रतिकूल	-10.1313
▁G	-10.1318
दैन	-10.1318
▁D	-10.1319
गि	-10.1319
▁फैल	-10.132
क्त	-10.1321
▁नाका	-10.1321
▁ढुवानी	-10.1324
▁देशलाई	-10.1329
▁आयोजनाको	-10.133
▁विघटन	-10.1331
▁मिनेटमा	-10.1332
▁विश्वस्त	-10.1341
▁नपर्ने	-10.1341
▁मन्त्रालयको	-10.1342
▁उद्धरण	-10.1342
एच	-10.1343
▁मै	-10.1343
▁बालबालिकालाई	-10.1344
▁बराबरको	-10.1344
वत	-10.1357
▁समयको	-10.1363
▁चल्ने	-10.137
▁रासायनिक	-10.1373
▁सर्	-10.1377
▁संलग्नता	-10.1379
▁घुँडा	-10.1385
्व	-10.1388
त्यो	-10.139
▁खपत	-10.1391
▁अगस्ट	-10.1396
▁विरोधमा	-10.14
▁राजकुमार	-10.1401
▁हालैका	-10.1401
▁कस	-10.1401
▁दूतावास	-10.1407
▁अज्ञात	-10.1409
ियल	-10.1421
▁अग्रणी	-10.1421
▁विस्थापित	-10.1422
▁गर्दैछ	-10.1423
OR	-10.1425
▁यहूदाका	-10.1429
▁सङ्गठन	-10.1433
५०	-10.1435
▁नदीको	-10.1438
▁जित्यो	-10.1439
द्य	-10.1445
त्य	-10.1445
▁खोजे	-10.1445
▁फिल्टर	-10.1446
मेन्ट	-10.1453
▁जून	-10.1453
▁हेरेर	-10.1455
्नुपर्छ	-10.1455
्ज	-10.1455
▁बैठकको	-10.1455
▁प्रदायक	-10.1457
मुखी	-10.1469
ल्ट	-10.1472
▁प्रतिपक्षी	-10.1473
▁दे	-10.1476
▁शेरबहादुर	-10.1477
▁खोले	-10.1478
▁स्नातक	-10.1482
▁वास्तविकता	-10.1486
▁परिवारले	-10.1486
▁चिनिने	-10.1489
▁प्रबन्ध	-10.1497
▁ब्रिटेन	-10.1502
▁६५	-10.1504
▁बेच	-10.1506
▁परिषद	-10.1508
▁साहित्यिक	-10.1508
▁दूरी	-10.151
▁चर्चित	-10.1512
▁पढाइ	-10.1519
वेल	-10.1522
▁भरिएको	-10.1522
▁जागिर	-10.1525
▁दिउँसो	-10.1538
▁देखिए	-10.1541
▁राख्दै	-10.1541
▁पठ	-10.1543
▁सकिएन	-10.1544
▁प्रशासनले	-10.1544
▁बाह्र	-10.1545
▁प्रिमियर	-10.155
▁अधिकारको	-10.1551
▁मोहन	-10.1554
▁धकेल	-10.1556
र्य	-10.1561
▁समयदेखि	-10.1562
▁हदसम्म	-10.1574
▁शर्माले	-10.1575
सभा	-10.1578
▁५५	-10.158
▁रोक्ने	-10.1584
▁ठान	-10.1585
▁छायाँ	-10.1587
▁पाइ	-10.1588
पात	-10.159
▁कपाल	-10.159
▁शून्य	-10.1594
▁ट्रे	-10.1596
▁प्रविधिको	-10.1598
▁देखिन्छन्	-10.16
स्तर	-10.1602
▁आएपछि	-10.1603
▁वन्यजन्तु	-10.1606
▁मात्रा	-10.1607
मोन	-10.1611
▁सूचीकृत	-10.1615
▁भेडा	-10.1615
ुन	-10.1615
▁सङ्कलन	-10.1618
▁्	-10.1619
▁मर्ने	-10.1623
▁पर्व	-10.1626
चर	-10.1628
फे	-10.1628
कानिम्ति	-10.1631
एपी	-10.1633
▁स्ट्रिट	-10.1633
बद्ध	-10.1635
▁संक्रमण	-10.1637
▁अफ्रिका	-10.1641
▁अनावश्यक	-10.1643
▁महिलाले	-10.1647
▁X	-10.1648
▁व्यक्तित्व	-10.1649
▁चाँदी	-10.165
▁प्रणालीको	-10.1652
▁नप	-10.1653
प्रतिको	-10.1654
▁विपत्ति	-10.1657
रह	-10.166
▁प्या	-10.1661
▁लुम्बिनी	-10.1662
रिस	-10.1666
▁अङ्ग	-10.1667
▁राम्ररी	-10.1668
नमा	-10.1674
ञ्च	-10.1677
▁उपभोग	-10.1679
▁कसूर	-10.168
▁धूलो	-10.1681
▁पावल	-10.1684
▁मासिक	-10.1686
ूट	-10.1686
▁आपसी	-10.1687
ल्याण्ड	-10.1692
▁ढाँचामा	-10.1694
▁वित्त	-10.1696
बिना	-10.1698
▁पूजाहारी	-10.1699
▁आविष्कार	-10.17
▁धु	-10.1701
▁खनिज	-10.1701
▁संसद्	-10.1702
किन	-10.1704
समक्ष	-10.1707
▁लिन्छ	-10.1708
▁गिरी	-10.1715
ाइन	-10.1716
▁स्वर	-10.1719
▁लेख्ने	-10.172
▁मार्न	-10.1721
२५	-10.1722
▁भे	-10.1722
▁काउन्टी	-10.1725
▁स्रोतले	-10.173
▁मन्दिरमा	-10.1737
श्री	-10.174
▁दावी	-10.1745
▁तुलना	-10.176
▁राखिएका	-10.1766
▁चालु	-10.1768
▁संस्थापक	-10.1769
▁न्यायिक	-10.1769
विद्	-10.177
▁आउँछन्	-10.1772
▁दुर्लभ	-10.1775
▁भ्रमणमा	-10.1775
▁समर्पित	-10.1781
▁४८	-10.1784
▁सरुवा	-10.1784
▁उमेरमा	-10.1785
स्ट्र	-10.1786
▁फैसला	-10.1788
▁सार्क	-10.1794
▁गई	-10.1794
िश	-10.1797
▁कारागार	-10.1807
▁काल	-10.1808
▁घिमिरे	-10.1809
▁घटनामा	-10.181
▁चुनावमा	-10.1813
जनालाई	-10.1818
▁प्रतिशतभन्दा	-10.182
हाम्रो	-10.1822
▁प्रमाणीकरण	-10.1823
▁चाहिने	-10.1824
▁परमेश्वरलाई	-10.1828
▁प्रहरीको	-10.1832
▁अध्याय	-10.1832
▁नीलो	-10.1843
▁निष्कासन	-10.1845
▁२०१६	-10.1849
▁छाडे	-10.1851
▁किन्न	-10.1851
▁सक्तैन	-10.1852
िष्ट	-10.1853
▁योग	-10.1856
▁स्ट	-10.1866
▁विद्रोही	-10.1871
▁कार्यकर्ताहरू	-10.1873
िड	-10.1875
▁दया	-10.1875
▁संकटकाल	-10.1881
▁हटाउने	-10.1881
▁मानिनेछ	-10.1881
▁बोक्ने	-10.1883
▁क्र	-10.1884
▁राजपत्रमा	-10.1885
▁४२	-10.1888
नेट	-10.1892
▁सम्मिलित	-10.1902
खो	-10.1903
▁लुक	-10.1906
▁युद्धमा	-10.1908
▁पुग्छ	-10.1913
▁कोरियाली	-10.1917
ाप	-10.1918
▁अभि	-10.193
▁गणेश	-10.1933
▁वार्ड	-10.1933
चन्द्र	-10.1933
▁एकदमै	-10.1939
▁बाध्यता	-10.1939
टिन	-10.194
▁पौडेलले	-10.194
▁बादल	-10.1941
ाह	-10.1942
▁वसन्त	-10.1942
▁कम्पनीका	-10.1942
▁सावधानीपूर्वक	-10.1948
▁आदर्श	-10.1948
▁न्युज	-10.1949
▁श्रोता	-10.1955
▁म्यान	-10.1956
▁छनोट	-10.1968
▁सबैको	-10.1973
वर्ष	-10.1978
▁प्रतिमा	-10.1983
ोर	-10.1985
▁ऋतु	-10.1988
▁स्क	-10.199
▁बच्न	-10.1997
▁रोज	-10.1999
च्छ	-10.1999
▁दाऊदले	-10.2
▁हाइ	-10.2004
▁दुईवटा	-10.2008
पानी	-10.2008
▁पछिल्ला	-10.2009
▁फैलिएको	-10.201
▁उपयोगी	-10.201
▁कुराहरु	-10.2011
ोप	-10.2014
▁घाम	-10.2016
▁बीस	-10.2023
▁प्रविष्टि	-10.2027
▁खानी	-10.2027
▁निर्वाचनमा	-10.2028
▁शान्तिपूर्ण	-10.2033
स्व	-10.2034
सकेको	-10.2034
▁वाक्य	-10.2039
पछाडि	-10.2041
▁भ्रम	-10.2044
▁शेर्पा	-10.2044
▁थप्न	-10.2048
▁सदस्यले	-10.2049
▁नतिजा	-10.2057
▁भेटे	-10.2058
▁दलहरु	-10.2058
गे	-10.2059
इल	-10.206
▁मार्गदर्शन	-10.2064
▁घोडा	-10.2073
उन	-10.2073
▁गरौं	-10.2079
धार	-10.208
▁प्रतिरोध	-10.2083
▁जनगणना	-10.209
▁मितिले	-10.2091
रूप	-10.2092
आफ्नो	-10.2093
▁उपत्यकामा	-10.2097
▁जिते	-10.2107
▁पाउनु	-10.2107
▁हराएको	-10.2116
▁कम्प	-10.2116
▁पाइएको	-10.2123
▁खनाल	-10.2124
उनले	-10.2129
▁सदस्यहरु	-10.2129
▁कुरालाई	-10.2133
▁खुद्रा	-10.2137
▁लडे	-10.2137
▁तुरुन्त	-10.214
▁आफन्त	-10.2141
▁उसका	-10.2141
▁पाइयो	-10.2142
हल	-10.2143
ेशन	-10.2146
ाम	-10.2148
हन	-10.2149
▁नपाउने	-10.2151
▁हानि	-10.2151
▁बच	-10.2167
▁मेनु	-10.2169
▁कोल	-10.2172
▁नृत्य	-10.2175
▁पार्नु	-10.2176
▁बै	-10.2181
▁जान्छन्	-10.2186
▁यूसुफ	-10.2188
▁परराष्ट्र	-10.2188
्थ्यो	-10.2188
▁बहादुर	-10.219
भल	-10.2194
▁अमर	-10.2201
▁विश्लेषक	-10.2204
र्ग	-10.2209
बर्ग	-10.2211
▁चुन	-10.2215
▁विश्राम	-10.2221
▁स्तन	-10.2222
▁फ्याँक	-10.2232
▁लक्ष्मी	-10.2233
▁पारिश्रमिक	-10.2234
▁निर्वाह	-10.2235
▁डाइरेक्टरी	-10.2239
▁सरह	-10.2244
हरुका	-10.2251
▁बोर्डले	-10.2253
▁बजारको	-10.2254
▁अचानक	-10.2261
▁ल्याउनु	-10.2264
▁कन्	-10.227
r	-10.2273
▁सम्भवतः	-10.2273
सिन	-10.2274
▁हिर्काए	-10.2278
इट	-10.2279
▁सुस्त	-10.228
▁वैशाख	-10.2281
▁मतदाता	-10.2282
▁तापक्रम	-10.2289
▁पुस्तकालय	-10.2289
▁सभामा	-10.2291
▁जोशी	-10.2292
न्द्र	-10.2292
▁सूत्र	-10.2293
▁सामूहिक	-10.2294
लागि	-10.2298
▁गोरखा	-10.2305
▁भी	-10.2307
खर	-10.231
▁रमेश	-10.2314
▁सुख	-10.2316
▁पहिरन	-10.2316
▁प्रतिबद्ध	-10.232
▁दुर्गम	-10.2321
▁इलाका	-10.2322
▁संघीयता	-10.2327
▁संस्थाहरु	-10.233
▁ताल्चा	-10.2334
▁चौकी	-10.2335
▁प्रसाद	-10.2339
▁संग्रहालय	-10.2341
▁खेलको	-10.2342
▁दर्जा	-10.2343
▁रोकिएको	-10.2343
▁आफैंले	-10.2343
▁तिमीहरु	-10.2345
▁चित्त	-10.2347
▁नियमहरू	-10.2349
▁वक्ता	-10.235
टिक	-10.2353
निस	-10.2357
▁सक्छौ	-10.236
▁गर्भवती	-10.2361
गरी	-10.2367
▁अत्यन्तै	-10.2367
१४	-10.2373
▁उच्चस्तरीय	-10.2377
ष्ठ	-10.2377
▁गठित	-10.2381
▁मान्न	-10.2383
▁भेटघाट	-10.2389
६०	-10.2393
UPI	-10.2394
▁राष्ट्रहरू	-10.2396
▁अभिनेत्री	-10.2401
▁भाँडा	-10.2401
▁असुरक्षित	-10.2402
गल	-10.2408
▁गाड	-10.2409
▁पप	-10.2414
▁ओछ्यानमा	-10.2414
ढी	-10.2414
▁देवता	-10.2415
▁आयोगका	-10.2415
▁जग्गाको	-10.2417
त्ता	-10.2419
▁व्यवसायिक	-10.2421
▁तीनजना	-10.2421
ुरा	-10.2424
मेट	-10.2425
▁बायाँ	-10.243
▁त्यतिबेला	-10.2436
न्ज	-10.2436
▁रहनु	-10.2438
▁शिशु	-10.2442
षा	-10.2449
▁शासक	-10.2452
▁हुनुभन्दा	-10.2459
▁सिम	-10.246
▁डिस्क	-10.2466
▁एप्पल	-10.2469
▁थि	-10.2469
▁बस्नु	-10.247
िप	-10.247
हेर	-10.2481
सबै	-10.249
▁दिनुपर्ने	-10.2492
थो	-10.2498
▁स्वरूप	-10.2505
▁मस्तिष्क	-10.2508
▁सरकारसँग	-10.2511
▁२०००	-10.2513
▁विलियम	-10.2525
▁बाबुराम	-10.2525
▁वार्तामा	-10.2526
▁हङकङ	-10.253
झ्	-10.2533
्रोन	-10.2536
▁नोकर	-10.254
गाउँ	-10.2542
▁उत्पादनको	-10.2543
▁जेम्स	-10.2546
▁लगाउनु	-10.2546
▁अर्कोतिर	-10.2547
▁यातना	-10.255
▁परिचित	-10.2558
▁मिशन	-10.2558
▁जितेको	-10.2563
ारी	-10.2563
▁नया	-10.257
नेछ	-10.257
▁प्रचलन	-10.2571
्सले	-10.2572
ण्डा	-10.2576
▁स्मिथ	-10.2577
▁परिषद्ले	-10.2578
ल्ल	-10.2578
▁विश्वमा	-10.2583
▁राख्दछ	-10.2588
फी	-10.2593
्‍	-10.2593
पक्ष	-10.2595
▁सङ्ग्रह	-10.2595
४०	-10.2596
▁पासवर्ड	-10.2598
▁सिनेट	-10.2599
▁देखिँदैन	-10.2599
▁शौचालय	-10.2605
▁सोच्न	-10.2607
▁समात्न	-10.2607
▁समानता	-10.2609
▁रहँदा	-10.2612
ण्	-10.2618
?”	-10.2618
▁प्रभावशाली	-10.262
कले	-10.2633
▁अन्तरिम	-10.2635
▁भगवान	-10.2639
▁साइटमा	-10.2642
▁नामकरण	-10.2643
▁विश्वविद्यालयमा	-10.2646
▁साँचो	-10.2646
▁अधिक	-10.2647
▁जवान	-10.2654
▁तिन	-10.2657
▁गाउँपालिका	-10.2661
▁चलेको	-10.2664
▁प्रकारले	-10.2664
फर	-10.2667
▁पुस	-10.2668
गं	-10.2672
▁चाहे	-10.2672
▁दिशा	-10.2673
▁गुणस्तरीय	-10.2674
न्न	-10.268
▁खोल्ने	-10.2686
ञ	-10.2687
▁काउन्सिल	-10.2688
▁मोरङ	-10.2688
▁द्विपक्षीय	-10.2694
▁विज्ञप्तिमा	-10.2697
▁सिधा	-10.2706
▁बताएको	-10.2706
▁धुम्रपान	-10.2708
▁सैन्य	-10.2708
▁सिनेमा	-10.2709
▁सम्भाव्यता	-10.271
्त	-10.2711
ंस	-10.2717
्छौ	-10.2717
▁सिक्न	-10.2719
▁परिमार्जन	-10.2722
▁उनीहरुलाई	-10.2724
▁दृष्टिले	-10.2724
▁अमेरिकन	-10.2725
▁वर्गीकरण	-10.2726
▁इटाली	-10.2736
▁स्या	-10.2737
परि	-10.2741
▁पेरिस	-10.2741
▁पार्छ	-10.2742
▁पाएँ	-10.2745
▁गुमाए	-10.2747
▁त्यसकारण	-10.2751
▁खुल्ला	-10.2752
▁हुनसक्ने	-10.2755
▁ठाउ	-10.2761
▁शिर	-10.2766
▁पाना	-10.2772
▁राजेन्द्र	-10.2773
▁समाजवादी	-10.2773
▁बस्छन्	-10.2775
्याउन	-10.278
▁सत	-10.2786
▁गन	-10.2787
▁नगर्न	-10.279
▁ब्ल	-10.2792
▁पाइलट	-10.2799
▁देखेको	-10.2802
▁कब्जा	-10.2808
▁विविधता	-10.2808
▁एमालेले	-10.2811
▁असार	-10.2815
▁प्रेरणा	-10.282
थि	-10.2828
▁४१	-10.2828
ोड	-10.2832
▁ताप	-10.2838
▁आमाको	-10.2847
टु	-10.2847
▁पुँजी	-10.2848
▁देखाए	-10.2849
लै	-10.285
▁प्याक	-10.2855
▁डब्ल्यू	-10.2855
▁लैजाने	-10.2859
▁मिलाउन	-10.286
▁युवती	-10.2863
▁असहमति	-10.2863
▁पञ्च	-10.2869
▁विमानस्थलमा	-10.2872
१३	-10.2874
्ती	-10.2875
▁केहि	-10.2876
▁%	-10.2878
सिस	-10.2879
▁लाखौं	-10.288
▁विभागको	-10.288
▁मेरी	-10.288
▁बीबीसी	-10.2884
▁सुन्ने	-10.2886
▁उस्तै	-10.2891
▁चाप	-10.2892
▁अग्लो	-10.2893
▁बनाउँदै	-10.2894
▁स्कट	-10.2895
▁आश्चर्यजनक	-10.2897
▁शहरका	-10.2898
▁रिपोर्ट	-10.291
▁देऊ	-10.2912
▁स्वदेश	-10.2912
नर	-10.2916
X	-10.2917
तिमी	-10.2917
▁भनाई	-10.2921
▁त्यसबाट	-10.2921
▁समाजका	-10.2926
फो	-10.2926
▁गर्नेछौं	-10.293
▁खतरनाक	-10.2933
▁बोट	-10.2941
▁राज्यपाल	-10.2941
▁निरीक्षक	-10.2947
▁2	-10.2954
ाद	-10.2954
▁विन	-10.2957
कालीन	-10.2962
▁ह्या	-10.2966
▁चीनमा	-10.2967
प्प	-10.2969
▁क्वा	-10.297
▁सुदृढीकरण	-10.297
मनले	-10.2973
▁पर्सा	-10.2977
▁टर्	-10.298
▁इन्जिन	-10.2982
22	-10.2982
▁खासै	-10.2982
▁अडियो	-10.2985
ब्याक	-10.2985
▁नरहेको	-10.2987
सेन	-10.2988
रत	-10.2988
▁ट्र	-10.2991
▁४४	-10.2993
▁सरे	-10.2995
्नी	-10.2995
द्धारा	-10.2996
▁किरण	-10.2996
▁फुल	-10.2998
▁प्रतीक	-10.3004
▁रोप	-10.3004
छैन	-10.3007
▁४३	-10.301
▁मरेका	-10.3011
▁सदस्यता	-10.3014
▁अनुसन्धानकर्ता	-10.3015
पट्टि	-10.3015
▁मिल्ने	-10.3015
▁वंश	-10.3015
▁अह	-10.3016
▁ओलम्पिक	-10.3018
▁गरिसकेका	-10.3022
▁भागे	-10.3025
▁हिंसात्मक	-10.3027
▁पत्रकारिता	-10.3036
▁प्रयासमा	-10.3041
शे	-10.3044
▁सृजना	-10.3047
▁बापत	-10.3047
▁रणनीतिक	-10.3049
▁बालबालिकाको	-10.3053
▁अनुशासन	-10.3054
▁फलफूल	-10.3054
▁विश्वविद्यालयका	-10.3059
मार्फत्	-10.3061
▁फ्लोरिडा	-10.3061
▁तथ्यांक	-10.3062
▁हिँड	-10.3063
▁कोइरालाले	-10.3065
▁विद्यार्थीहरू	-10.3072
▁अन्वेषण	-10.3076
रिक	-10.3083
क्का	-10.3094
▁प्लगइन	-10.3097
▁परामर्शदाता	-10.3098
य्	-10.311
▁दाहालले	-10.3112
▁घरपरिवार	-10.3114
▁ट्रप	-10.3118
▁गुम	-10.3125
न्थ	-10.3127
▁सिलसिलामा	-10.3132
▁राख्छन्	-10.3132
▁शिक्षाको	-10.3132
▁खेलाडीहरू	-10.3133
▁जलस्रोत	-10.3134
लय	-10.3134
तन	-10.3136
▁कामहरू	-10.3138
ट्ट	-10.314
▁भट्टराईले	-10.3142
▁माइक	-10.3143
्ड	-10.3144
▁विक्रम	-10.3145
बीचको	-10.3147
▁मैदानमा	-10.3148
▁पुर	-10.3149
▁शक्तिहरू	-10.315
▁बालुवा	-10.3153
▁भोजन	-10.3157
▁विश्वकप	-10.3163
▁हारून	-10.3163
▁टेक	-10.3166
▁खाए	-10.3167
▁अनियमित	-10.3167
ासाथ	-10.3168
▁अधीनमा	-10.317
▁घाँस	-10.317
▁पुगेर	-10.3173
▁अञ्चलको	-10.3178
ाना	-10.3182
बेल	-10.3182
▁फर्कने	-10.3182
जल	-10.3185
▁विशेषज्ञहरू	-10.3188
▁मुद्दाको	-10.3188
▁वास्तवमै	-10.3192
▁जुलुस	-10.3192
▁पारेर	-10.3198
▁जुत्ता	-10.32
▁R	-10.3201
▁फ्रेम	-10.3205
▁उठाएको	-10.3206
▁पुर्याए	-10.3217
▁गुठी	-10.3222
टार	-10.3223
▁कमिटी	-10.3224
▁प्रयोगशाला	-10.3226
▁चेलाहरू	-10.3228
▁देशले	-10.3245
▁अपरिहार्य	-10.325
िँदा	-10.325
▁राजालाई	-10.3253
▁समुदायमा	-10.3256
▁घरबाट	-10.3257
▁भनि	-10.3258
▁बताइन्	-10.3259
▁उमेरका	-10.3263
▁राष्ट्रसंघ	-10.3264
▁लहर	-10.3266
ाइट	-10.3266
▁मनाउने	-10.3267
▁स्पेन	-10.3267
▁निकायमा	-10.327
▁प्ला	-10.3274
://	-10.3276
सहितको	-10.328
▁२००२	-10.3284
ाङ	-10.3286
फोन	-10.329
▁लड्न	-10.3291
▁प्रवक्ताले	-10.3292
▁वर्षहरूमा	-10.3292
लिया	-10.3298
▁देहायको	-10.3307
▁माइक्रो	-10.3307
▁सिके	-10.3312
▁प्लास्टिक	-10.3316
▁चीज	-10.3321
▁उत्पादित	-10.3323
▁केन्द्रका	-10.3324
ंगा	-10.3326
▁निर्माणमा	-10.3327
कम	-10.3327
ाइन्छ	-10.333
▁सदस्यहरूले	-10.3331
▁परेन	-10.3333
हरुबाट	-10.3333
▁गोपाल	-10.3335
रेन	-10.3336
▁उस	-10.3336
घा	-10.3336
▁जनाएका	-10.3337
▁महंगो	-10.3338
▁अधिलेखन	-10.3338
सल	-10.3345
▁विभेद	-10.3346
▁अफिस	-10.3346
▁स्वा	-10.3347
▁भट्ट	-10.3347
R	-10.3349
ग्रस्त	-10.3351
▁बोले	-10.3358
▁डोमेन	-10.3358
बस	-10.3359
कस	-10.3361
▁शो	-10.3363
▁पदार्थको	-10.3364
▁लस	-10.3368
▁मन्दिरको	-10.337
ाइने	-10.3372
▁हिंडे	-10.3373
▁कट	-10.3377
▁गर्छौ	-10.3383
▁ठगी	-10.3386
▁शपथ	-10.3392
ंच	-10.3393
▁संस्थालाई	-10.3393
▁ध्यानमा	-10.3393
▁पक्षको	-10.34
ियम	-10.3402
▁स्ट्रिङ	-10.3405
▁पेन्ट	-10.3409
▁क्ष	-10.3409
▁नसक्दा	-10.3413
▁अर्थमन्त्री	-10.3417
w	-10.3422
▁पिच	-10.3422
▁समारोह	-10.3424
▁शाक्य	-10.3428
▁निजलाई	-10.3434
▁स्वदेशी	-10.3435
ँच	-10.3439
▁हार	-10.344
▁सेन्टर	-10.3441
▁रहेछन्	-10.3444
▁न्यु	-10.3445
ें	-10.3445
▁फर्किन	-10.3447
▁पशुपति	-10.345
▁कफी	-10.3453
▁उहाँका	-10.3454
▁प्रधानमन्त्रीले	-10.3455
▁हातहतियार	-10.3457
क्षा	-10.3459
▁राम्रा	-10.3461
▁कुखुरा	-10.3462
▁निर्दोष	-10.3465
▁परेमा	-10.347
▁राज्यमा	-10.3479
▁तातो	-10.3481
्दी	-10.3485
ीलाई	-10.3486
PRNewire	-10.3487
णी	-10.3491
▁भएकी	-10.3499
▁दमन	-10.3499
▁घटनाको	-10.3501
▁क्रान्तिकारी	-10.3511
▁प्रधानमन्त्रीको	-10.3512
▁पोल	-10.3513
▁अलिकति	-10.3517
▁दिदी	-10.3518
▁उदाहरणका	-10.3525
▁हुन्न	-10.3534
▁कूल	-10.3536
▁खुल	-10.3537
▁अभिनेता	-10.354
अहिले	-10.354
▁घटाउने	-10.3542
▁सुत	-10.3546
▁चरा	-10.3546
▁पन्ध्र	-10.3547
▁बहुदलीय	-10.3548
▁बुटवल	-10.3548
दाता	-10.3555
▁स्वरुप	-10.3555
▁घरको	-10.3557
▁बखत	-10.3562
ध्या	-10.3568
▁थपे	-10.3568
▁उनीसँग	-10.3572
▁चो	-10.3575
▁अचम्म	-10.3577
▁पेट्रोलियम	-10.3578
▁नैतिक	-10.3581
▁मतलब	-10.3585
ुङ	-10.3585
▁महिनाभित्र	-10.3586
▁४९	-10.3588
▁किसिमले	-10.3589
च्च	-10.3592
प्स	-10.3592
▁सुनुवाइ	-10.3593
▁अभियानमा	-10.3595
▁उल्टो	-10.3596
▁पेट्रोल	-10.36
्रि	-10.36
▁निक्षेप	-10.3601
▁बसाइँ	-10.3603
▁कांग्रेसको	-10.3605
▁आखिर	-10.3608
▁इन्द्र	-10.3613
▁तीस	-10.3614
▁घाँटी	-10.3615
▁स्थगित	-10.3615
▁गर्नुको	-10.362
▁तस्करी	-10.3621
▁वेबसाइट	-10.3623
▁युद्धको	-10.3625
ाउँदछ	-10.3629
▁गर्भपतन	-10.3631
▁झरेको	-10.3635
▁नामाकरण	-10.3638
▁स्तरीय	-10.3639
▁भित्री	-10.364
▁व्यक्तिहरु	-10.3642
▁एप	-10.3652
▁मन्त्रालयमा	-10.3653
▁झगडा	-10.3653
न्ध	-10.3658
▁जाल	-10.3671
▁विश्वविद्यालयको	-10.3671
अनुरुप	-10.3677
▁निकायहरू	-10.368
स्प	-10.3682
ाब	-10.3686
म्म	-10.369
▁झूटो	-10.3692
▁४७	-10.3698
४७	-10.3699
▁है	-10.3702
▁बैंकिङ	-10.3702
▁बब	-10.3704
तालाई	-10.3709
▁स्रोतको	-10.3719
▁सर्वदा	-10.3719
▁चल्न	-10.3721
▁उड्डयन	-10.3722
▁अध्ययनले	-10.3725
▁जोन्स	-10.373
▁तीनवटा	-10.3735
प्राप्त	-10.3738
▁भाव	-10.3743
▁धुन	-10.3744
नौं	-10.3748
▁अभिप्राय	-10.3753
हान	-10.3754
▁१९९०	-10.3755
▁व्यवसायमा	-10.3757
▁दिनेछु	-10.376
मणि	-10.376
▁स्कटल्यान्ड	-10.3761
▁जनावर	-10.3762
ान्त	-10.3764
▁क्रो	-10.3767
▁बेन	-10.3767
▁बुट	-10.3768
▁हुँदैछ	-10.3769
▁खोजिरहेको	-10.3773
▁इलाम	-10.3774
▁धातु	-10.3776
▁काँग्रेस	-10.3776
▁छाडेर	-10.3778
▁झन	-10.3783
ीन	-10.3785
▁खो	-10.3786
▁मौन	-10.3788
▁लाइनमा	-10.3796
यल	-10.3799
▁कान्तिपुर	-10.38
्जा	-10.3805
▁मृत	-10.3806
▁थुन	-10.3807
▁केन्द्रको	-10.3807
चाल	-10.3808
▁उठाए	-10.3811
▁अप्ठ्यारो	-10.3815
भाव	-10.3817
▁बेस	-10.3818
महा	-10.3818
▁सेल	-10.382
▁रुपले	-10.3821
नीय	-10.3823
▁लेखापरीक्षण	-10.3823
िद	-10.3824
▁सम्पत्तिको	-10.3824
▁यहाँका	-10.3825
▁रूसी	-10.3825
▁देख्ने	-10.3826
▁जोडी	-10.3827
्द	-10.3831
▁गुणा	-10.3831
▁रहेर	-10.3848
▁प्रिय	-10.385
ल्लो	-10.3851
▁प्रशोधन	-10.3854
▁रिचार्ड	-10.3854
▁ब्यान्ड	-10.3856
▁याद	-10.3856
यौ	-10.3859
▁कोषमा	-10.386
▁पुतली	-10.3862
▁फलाम	-10.3864
▁कार्यक्रमहरू	-10.3864
रीले	-10.3866
▁वर्षभित्र	-10.3871
▁पक्षलाई	-10.3872
▁मसँग	-10.3876
▁गेट	-10.3876
▁ओभर	-10.3878
▁पुर्याएको	-10.3884
▁दिनपछि	-10.3892
▁अफ्रिकी	-10.3893
▁साथमा	-10.3893
▁निस्क	-10.3895
▁बुझ्ने	-10.3902
▁सिनेटर	-10.3903
ब्	-10.3905
▁टोलीको	-10.3905
बित्तिकै	-10.3908
▁जोग	-10.3909
▁पूजाहारीहरू	-10.3911
▁प्रतिक्षा	-10.3911
क्र	-10.3911
ज्यू	-10.392
▁पिउने	-10.392
▁यहूदीहरू	-10.3921
▁सुशील	-10.3926
▁ये	-10.3927
▁सोचाइ	-10.3928
▁मजदुर	-10.3932
▁शब्दहरू	-10.3932
▁दाज्यू	-10.3933
▁निवास	-10.3935
▁कार्यकाल	-10.3935
ुम	-10.3938
धु	-10.3939
▁सृष्टि	-10.394
▁दाउरा	-10.3941
▁त्याग	-10.3943
र्फ	-10.395
▁फेब्रुअरी	-10.3952
ुपरेको	-10.3953
▁उचाइ	-10.3955
जान	-10.3957
▁बाबेल	-10.3958
▁निमन्त्रणा	-10.3963
▁परिणामस्वरूप	-10.3964
▁कूटनीतिक	-10.3973
कालमा	-10.3973
▁संग्रह	-10.3974
▁नबन	-10.3974
▁लगायो	-10.3974
▁पस	-10.3974
िएपछि	-10.3977
▁विचलित	-10.3979
/-	-10.3982
▁इमान्दार	-10.3982
आइ	-10.3982
▁मोडेल	-10.3983
▁दोहोरो	-10.3985
▁फन्ट	-10.3986
▁सकेसम्म	-10.399
ाइयो	-10.3992
र्ज	-10.4004
▁जगेडा	-10.401
▁जाँदै	-10.4012
▁बन्देज	-10.4017
▁s	-10.4018
ताले	-10.4019
रहेका	-10.402
▁जानेछ	-10.4023
शन	-10.4038
▁पारिएको	-10.4039
▁गर्यौ	-10.4041
▁अभिवृद्धि	-10.4042
▁दिइ	-10.4044
▁ज्याला	-10.4046
▁विषयलाई	-10.4048
▁लगाई	-10.4051
▁चाह	-10.4056
▁पाँचौ	-10.4058
▁रोजे	-10.4058
▁चल्छ	-10.4059
ाइदिए	-10.406
▁व्या	-10.4061
िस्ट	-10.4064
▁भूमिगत	-10.4064
▁लागेर	-10.4065
▁पाउँछ	-10.4066
▁एकातिर	-10.4066
▁अडान	-10.4067
▁स्वच्छ	-10.4069
▁बौद्धिक	-10.4073
ल्य	-10.4075
ग्र	-10.4076
▁असुल	-10.4077
▁मेट्न	-10.408
▁पुलिस	-10.4083
▁अत्यावश्यक	-10.409
▁बरामद	-10.409
२४	-10.4097
▁लाइसेन्स	-10.4098
▁यिनीहरू	-10.4103
▁जनाए	-10.4104
▁हाइलाइट	-10.4106
मेन	-10.4107
▁ज्ञानेन्द्र	-10.4108
बोर्ड	-10.4112
▁कन्फिगर	-10.4113
फ्	-10.4115
▁पहेंलो	-10.4122
बासी	-10.4125
▁ल्याएर	-10.4126
▁विभाजित	-10.413
▁कर्मचारीहरु	-10.4132
▁नदीमा	-10.4133
▁पन्त	-10.4134
फल	-10.4136
▁अपिल	-10.414
▁सुर	-10.4149
्चर	-10.4149
▁सुनको	-10.4155
▁च्या	-10.4157
▁भुटायो	-10.4162
▁सक्नुहुन्न	-10.4162
▁गोविन्द	-10.4162
▁हाँस	-10.4167
▁४००	-10.4167
४५	-10.417
▁सावधानी	-10.4172
▁चेक	-10.4174
▁विधान	-10.4176
काबारेमा	-10.4176
▁महीना	-10.4178
▁कम्पनीहरूले	-10.4178
शु	-10.418
▁झोला	-10.4188
▁पाउँछन्	-10.4191
िन्छन्	-10.4195
▁नहुन	-10.4196
चल	-10.4196
▁सिमेन्ट	-10.4198
▁मदन	-10.4199
▁सिक्किम	-10.4202
▁चाहिं	-10.4202
▁कार्यान्वयनमा	-10.4213
▁सभाको	-10.4214
▁अनौपचारिक	-10.4218
▁आइरहेको	-10.4219
▁मार्टिन	-10.422
▁बाँच	-10.4225
▁सुनसरी	-10.4226
ालय	-10.4227
▁सेवन	-10.4228
▁अटो	-10.423
▁मूल्यांकन	-10.4234
▁समतल	-10.4235
▁साहित्यकार	-10.4238
h	-10.4238
▁अधिकारीको	-10.4238
▁फाँट	-10.4242
▁विवेक	-10.4243
▁पोख	-10.4249
▁ढाल	-10.425
▁वनस्पति	-10.425
▁साँच्चै	-10.425
ेक्स	-10.4252
▁बढ्छ	-10.4253
सक्ने	-10.4254
▁सक्थे	-10.4254
▁५२	-10.4256
▁४६	-10.4256
▁चीजहरू	-10.4257
▁आयोजनाहरु	-10.426
▁गर्भ	-10.4262
▁फाइलहरू	-10.4266
▁न्यौपाने	-10.4267
▁घोषित	-10.4267
▁अर्ध	-10.4269
▁बिन	-10.4274
▁ऋणपत्र	-10.4275
अब	-10.4276
▁बन्दी	-10.4276
▁पार्टीमा	-10.4279
▁देखायो	-10.4282
▁ग्यारेन्टी	-10.4283
▁ठग	-10.4291
▁सत्तारुढ	-10.4291
ण्डी	-10.4295
▁जेट	-10.4295
▁गरेन	-10.4295
दन	-10.4296
▁फिल्ममा	-10.4299
▁जाऊ	-10.4303
▁ल्याउँछ	-10.4304
▁पार्टीहरू	-10.4305
▁राजविराज	-10.4307
▁व्यायाम	-10.4316
▁टेक्सास	-10.4316
बारी	-10.4317
▁पक	-10.4318
▁भनें	-10.4318
▁दोहोर	-10.432
▁प्रतिष्ठा	-10.4327
▁नगरिएको	-10.4332
▁समर्थक	-10.4333
▁इस्राएलीहरू	-10.4334
▁ईश्वर	-10.434
▁ट्रेड	-10.4342
▁फ्रि	-10.4349
पर्	-10.4353
▁गरिनु	-10.4354
▁भारतबाट	-10.4357
▁दाङ	-10.436
▁गभर्नर	-10.4364
▁आतंक	-10.4366
▁हजुर	-10.4367
▁दाखरस	-10.4373
▁एमालेका	-10.4373
▁निकाले	-10.4377
▁म्यानमार	-10.4381
▁विलम्ब	-10.4381
▁सैनिकहरू	-10.4384
▁ऐनमा	-10.4386
▁परी	-10.4387
▁बनाइ	-10.4389
▁यहूदी	-10.4391
▁महिमा	-10.4391
▁प्रापक	-10.4391
▁युवाहरू	-10.4394
▁गरिरहनु	-10.4395
▁महत्त्व	-10.4396
▁एजेन्डा	-10.4397
▁मूलतः	-10.4399
▁फ्रान्क	-10.4405
▁सद्भावना	-10.4406
्टो	-10.4408
▁सदस्यको	-10.4415
▁घाउ	-10.4417
▁जोड्ने	-10.4418
केही	-10.442
▁पाएपछि	-10.4423
▁बस्नेत	-10.4428
७०	-10.4428
▁बारा	-10.4431
▁वीरेन्द्र	-10.4431
▁ते	-10.4434
▁रोगको	-10.4434
जसले	-10.4436
▁मृत्युको	-10.4439
▁सिजन	-10.4442
▁बेच्न	-10.445
▁नभएमा	-10.4455
▁मानिसहरूका	-10.4462
विक	-10.4462
▁घो	-10.4462
▁स्मार्ट	-10.4463
▁कर्पोरेट	-10.4463
▁मामिला	-10.4466
▁७ग्अष्चअस	-10.4474
▁गोर्खा	-10.4475
▁बयान	-10.4481
▁प्रस्ट	-10.4486
▁शे	-10.4491
▁निर्णायक	-10.4496
▁घण्टी	-10.4497
▁खालको	-10.4498
▁सुरक्षाको	-10.45
▁परमप्रभुलाई	-10.4501
▁बूढा	-10.4504
▁बेइजिङ	-10.4505
▁वीरगञ्ज	-10.4505
▁एन्जल्स	-10.4505
मत	-10.4507
ँग	-10.4507
▁आउ	-10.4512
▁लाग	-10.4514
▁मनो	-10.4517
▁आर्	-10.4518
कर्ताहरूले	-10.4519
▁१५०	-10.4526
शास्त्र	-10.4529
▁बाख्रा	-10.4529
▁साह्रै	-10.4529
▁शीर्ष	-10.4532
▁प्रस्तुति	-10.4533
▁सकिएको	-10.4545
▁अवश्य	-10.4546
▁भइसकेका	-10.4548
▁आफूहरु	-10.4552
▁थान	-10.456
▁कैलाली	-10.4563
बन्ध	-10.457
▁सेकेन्ड	-10.4571
▁पारदर्शी	-10.4572
▁फर्किने	-10.4573
▁शत्रुहरू	-10.458
▁गराएका	-10.4584
▁न्यानो	-10.4588
जले	-10.459
▁बढाएको	-10.4591
▁घरहरू	-10.4591
▁लेबुल	-10.4592
▁नाता	-10.4592
in	-10.4595
▁अनुपात	-10.4595
▁किलो	-10.4596
▁मुलुकका	-10.46
▁देउ	-10.4601
४९	-10.4603
▁अक्षर	-10.4605
▁हेर्नु	-10.4605
▁तिब्बत	-10.4609
▁बिहे	-10.4613
▁आशीर्वाद	-10.4613
▁टेलिकम	-10.4613
▁देशभरि	-10.4615
▁पल	-10.4618
▁कसै	-10.462
▁वर्ण	-10.4622
▁निराश	-10.4625
▁साँ	-10.4625
्टर	-10.4625
▁दिशामा	-10.463
गान	-10.4639
▁पीडितहरू	-10.4644
▁नगरपालिकाको	-10.4646
▁आफैंलाई	-10.4646
▁जेनेरल	-10.4647
▁काठमाडौंको	-10.4648
सुकै	-10.4648
▁चोक	-10.4654
▁क्याम्प	-10.4655
▁क्यारेक्टर	-10.4655
▁सिकागो	-10.4655
▁पुनर्	-10.4657
▁येशूलाई	-10.4657
▁यहाँको	-10.4662
▁बाक्लो	-10.4663
▁प्रकाशक	-10.4668
▁पाउण्ड	-10.4675
▁तरवार	-10.4677
▁हिउँ	-10.4681
▁श्याम	-10.4684
▁उपाध्याय	-10.4689
▁अना	-10.4691
▁साँढे	-10.4697
▁भोलिपल्ट	-10.4698
▁इन्जिनियरिङ	-10.4701
▁मकै	-10.4703
▁हिन्दी	-10.4706
▁नगरपालिकाका	-10.4706
▁प्रजनन	-10.4708
पोर्ट	-10.471
विना	-10.4713
▁छैठौं	-10.4715
▁अपराधी	-10.4723
▁फ्याँकिदिए	-10.4723
िग	-10.4724
▁उनीहरूसँग	-10.4729
▁लिलाम	-10.473
▁वामपन्थी	-10.4731
▁भल्भ	-10.4733
▁मोदी	-10.4735
सीले	-10.4736
▁E	-10.4741
▁आलोचनात्मक	-10.4742
सकेका	-10.4743
ूर	-10.4743
न्डा	-10.4745
▁रोल्पा	-10.4749
▁मिश्रित	-10.4751
▁मूर्ख	-10.4755
▁उद्योगमा	-10.4755
▁संस्थानको	-10.476
▁असक्षम	-10.4762
ar	-10.4763
२७	-10.4763
कर्ताहरू	-10.4763
रोग	-10.4766
▁हिन्दु	-10.4774
▁यसबाहेक	-10.4777
▁कठिनाइ	-10.478
लोन	-10.478
▁अद्वितिय	-10.4782
▁औचित्य	-10.4782
▁राप्रपा	-10.4782
▁बन्दरगाह	-10.4782
▁श्रमिक	-10.4784
▁संविधानमा	-10.4788
क्ट	-10.479
▁जीवनशैली	-10.4792
▁देशहरू	-10.4794
न्य	-10.4795
▁वृत्त	-10.4798
▁उत्साहित	-10.4798
▁टोलीका	-10.4799
▁मालपोत	-10.4799
▁दीपक	-10.4804
▁माधव	-10.4807
▁सत्तामा	-10.4808
▁गोष्ठी	-10.4808
▁प्लेटफर्म	-10.4808
▁नरेन्द्र	-10.4809
▁शोक	-10.481
फोर्ड	-10.481
▁अझ्ै	-10.4811
▁ग्रन्थ	-10.4813
▁छेउ	-10.4813
▁डाउनलोड	-10.4816
▁खन	-10.4817
ण्ट	-10.4817
▁मिल्दैन	-10.4817
▁पोषण	-10.4818
▁ल्याइ	-10.482
मित	-10.482
▁भएँ	-10.4822
▁व्याज	-10.4824
प्रतिस्पर्धात्मक	-10.4829
्दो	-10.4831
▁जनताका	-10.4833
▁ऐ	-10.4833
▁मुद्रास्फीति	-10.4834
ल्क	-10.4835
▁हिंड	-10.4835
▁सङ्कट	-10.4836
पथ	-10.4837
▁अस्थिरता	-10.4841
▁कथित	-10.4842
▁ठोक	-10.4843
▁लगानीको	-10.4844
▁उद्योगको	-10.4849
▁सुक	-10.4849
▁दलले	-10.4849
▁वासिङटन	-10.4851
्ब	-10.4852
▁ल्याइएको	-10.4853
ाका	-10.4853
▁कै	-10.4854
▁मनाउन	-10.4854
▁ट्याब	-10.4856
▁अमूर्त	-10.4859
▁देखाउनु	-10.4865
▁पम्प	-10.4865
▁बार्सिलोना	-10.4868
▁पदक	-10.4869
▁स्केल	-10.4872
▁शरीरमा	-10.4876
▁विभागमा	-10.4882
▁केन्या	-10.4884
▁इस्राएली	-10.4885
▁साइड	-10.4888
▁अनुमानित	-10.4888
▁माल	-10.4888
▁त्यहाँबाट	-10.4888
▁बेपत्ता	-10.4894
▁पहिल्यै	-10.4894
▁प्राप्ति	-10.4894
▁सम्भार	-10.4894
▁बोर्डको	-10.4895
▁आतंकवाद	-10.49
ारा	-10.4902
▁फाल	-10.4904
▁भीम	-10.4905
वर्	-10.4908
▁भर्खरै	-10.4915
▁नर्स	-10.4918
▁लगानीकर्ताहरू	-10.4918
▁भएदेखि	-10.4919
▁परिवेश	-10.492
▁दीप	-10.4924
भाइ	-10.4929
▁कोइला	-10.4933
▁केसीले	-10.4935
▁एकेडेमी	-10.4937
▁घरबारविहीन	-10.4937
▁प्रवद्र्धन	-10.4937
▁पाकिस्तानी	-10.4937
▁पर्खिरहेका	-10.4939
▁निकायका	-10.494
▁बुझ्	-10.494
▁दौडमा	-10.4942
▁अर्थतन्त्रमा	-10.4943
▁माझ	-10.4944
▁भावी	-10.4944
▁फेसन	-10.4945
तन्त्र	-10.495
औं	-10.4951
▁गूगल	-10.4954
▁अनुभूति	-10.4956
्युट	-10.4956
▁२०१४	-10.4959
▁निवारण	-10.4963
▁छोड्ने	-10.4965
क्टर	-10.4966
▁ग्रा	-10.4966
▁फो	-10.497
▁अगस्टमा	-10.4973
▁सिटी	-10.4977
▁मुनि	-10.4979
▁फर्कन	-10.4982
मुक्त	-10.4985
▁पाउनेछ	-10.4985
▁भूइँमा	-10.4989
▁दिल	-10.4991
▁प्रहरीलाई	-10.4991
वर्ग	-10.4991
४८	-10.4993
▁हेड	-10.4993
▁परिवर्तनको	-10.4995
ख्या	-10.5007
▁अनुरुप	-10.5007
▁भेदभाव	-10.5016
▁गर्दथे	-10.5017
२००७	-10.502
▁टोम	-10.502
वेयर	-10.502
▁पाउ	-10.5022
▁भदौ	-10.5024
▁कन्फिगरेसन	-10.5025
इस	-10.5028
▁प्रसार	-10.5031
▁ठाने	-10.5032
कला	-10.5033
▁लेखिएका	-10.5036
▁भ्रमणका	-10.5038
▁बिग्र	-10.5039
सय	-10.504
▁एण्ड	-10.5043
मल	-10.5043
▁कार्यक्रमलाई	-10.5046
▁भुटान	-10.5047
▁विज्ञप्ति	-10.5048
म्स	-10.5048
▁उनीहरूका	-10.5048
त्ति	-10.5049
▁सौर्य	-10.5051
प्रा	-10.5053
▁बेवास्ता	-10.5059
▁गल्फ	-10.5062
▁धो	-10.5064
िरहे	-10.5064
▁साउन	-10.5065
AR	-10.5067
▁ढु	-10.5067
▁आँसु	-10.5069
▁माइ	-10.5071
▁ढकाल	-10.5075
▁रत्न	-10.5078
।’	-10.5078
▁वार्ताको	-10.5079
▁तपाईंका	-10.5079
▁सिल	-10.5081
खण्ड	-10.5085
्ति	-10.5085
▁आरोहण	-10.5086
▁प्रशासक	-10.5092
▁अभावले	-10.5093
▁अध्यक्षता	-10.5093
▁किम	-10.5101
▁प्लेट	-10.5103
▁पशुहरू	-10.5103
▁स्वतः	-10.5107
▁कचौरा	-10.5112
▁व्यवस्थापिका	-10.5112
▁भेक्टर	-10.5112
परमप्रभु	-10.5115
▁कथाहरू	-10.512
▁वैद्य	-10.5121
ैपर्छ	-10.5125
▁पङ्क्ति	-10.5126
▁सम्झौतामा	-10.5129
उप	-10.5134
▁कारोबारमा	-10.5136
▁ब्याज	-10.5138
▁आतंकवादी	-10.5138
▁दिइरहेको	-10.5139
▁समात	-10.514
▁सिंहले	-10.5146
▁अक्टोबरमा	-10.5146
▁अफगानिस्तान	-10.5152
▁परीक्षामा	-10.5154
▁लिन्छन्	-10.5156
▁गुट	-10.5157
▁दिएपछि	-10.5157
▁समारोहमा	-10.5161
िकल	-10.5161
▁चरम	-10.5162
▁दिन्छु	-10.5163
▁भन्नेबारे	-10.5164
ँड	-10.5165
on	-10.5167
▁महानिर्देशक	-10.5174
▁दिइन्छ	-10.5175
▁टायर	-10.5176
▁दक्षता	-10.5178
▁डराए	-10.5179
ER	-10.5179
▁पर्यटकीय	-10.5183
▁लामिछाने	-10.5183
▁ब्लक	-10.5185
ष्टि	-10.5186
▁केटीहरू	-10.5186
▁पुग्दा	-10.5187
त्ती	-10.5192
▁दिइरहेका	-10.5192
▁स्थायित्व	-10.5201
AN	-10.5202
▁५६	-10.5203
▁तोके	-10.5205
▁डाँडा	-10.5206
▁स्तरको	-10.5212
भु	-10.5213
▁पार्नेछ	-10.5216
▁सिंगापुर	-10.5218
▁प्रवासी	-10.522
▁स्वर्गदूत	-10.522
▁चलचित्रमा	-10.5225
ङ्ख	-10.5231
▁जोगाउन	-10.5238
वारी	-10.5241
▁हिरासतमा	-10.5245
▁गिउलियानी	-10.5245
▁स्याउ	-10.5247
▁अवधिको	-10.5252
▁रोचक	-10.5255
्वाइ	-10.5255
▁कुना	-10.5258
▁चित्रण	-10.526
▁स्टार	-10.5268
्ल	-10.5271
▁खेलकूद	-10.5272
▁डेस्कटप	-10.5272
▁तपाईँसँग	-10.5274
▁२०४८	-10.5276
लिक	-10.5281
▁उपलव्ध	-10.5281
▁सहुलियत	-10.5281
▁प्रतिवादी	-10.5282
तै	-10.5282
▁कोड	-10.5284
▁बाजा	-10.5284
ेकी	-10.5285
▁भाग्य	-10.5289
माया	-10.529
▁डेल	-10.5292
▁पर्ख	-10.5293
र्व	-10.5293
▁विद्यालयको	-10.5297
▁आफैले	-10.5298
▁सँगै	-10.5299
्ली	-10.53
▁टावर	-10.5301
or	-10.5302
▁घेरा	-10.5302
ब्रा	-10.5303
▁झ्याल	-10.5303
▁आपू	-10.5303
▁ग्राम	-10.5303
▁इस्	-10.5304
▁स्वभाव	-10.5304
▁सुरू	-10.5305
ब्रे	-10.5307
▁क्र्यास	-10.5311
▁थु	-10.5314
▁चिर	-10.5314
▁आश्चर्य	-10.5317
मन्ड	-10.5317
▁डुङ्गा	-10.5318
▁सीमान्त	-10.5322
▁अधिकारीहरूलाई	-10.5322
▁पदयात्रा	-10.5328
▁५१	-10.5331
▁कर्ण	-10.5332
▁सरसफाइ	-10.5335
▁हल्ल	-10.5339
▁चालू	-10.5339
▁मापन	-10.534
▁पीएम	-10.5342
▁स्मरण	-10.5342
▁रोड	-10.5343
▁साढे	-10.5345
▁अन्तर्वार्ता	-10.5345
्नेछ	-10.5348
पट्टी	-10.535
ग्न	-10.5352
▁अवकाश	-10.5353
सेल	-10.5354
▁खालका	-10.5354
र्ण	-10.5355
▁अन्तर्रर्ाट्रय	-10.5362
▁इटालियन	-10.5362
▁बैड्ढ	-10.5362
▁मोशाले	-10.5362
▁कोट	-10.5367
▁आश्रय	-10.5371
ैया	-10.5378
▁सन्तुष्ट	-10.538
नामा	-10.5382
▁पारेका	-10.5383
▁दिँदा	-10.5384
श्र	-10.5384
वादको	-10.5386
▁प्रचण्डले	-10.5388
▁चिन्तन	-10.5389
▁भिसा	-10.539
▁मोह	-10.5391
▁आरोपमा	-10.5391
▁छुट्ट	-10.5395
भारत	-10.5396
▁दिनअघि	-10.5397
▁ब्राजिल	-10.5397
दुर	-10.5398
▁ट्याग	-10.5401
▁दिनुभएको	-10.5402
▁ग्रह	-10.5403
▁तहका	-10.5405
▁रिहा	-10.5412
▁मान्ने	-10.5412
▁विदेशमन्त्री	-10.5419
मात्रै	-10.5435
▁कम्युनिस्ट	-10.5435
▁ग्लोबल	-10.5436
▁गर्दछु	-10.5438
धान	-10.5438
्थ	-10.544
▁दायर	-10.5441
▁परिवारमा	-10.5443
▁जनतामा	-10.5447
▁गरिरहे	-10.5447
▁ओलीको	-10.5448
▁स्पा	-10.5449
▁भार	-10.5451
▁संसूचक	-10.5454
▁जङ्गल	-10.5454
▁सञ्चारमाध्यम	-10.5463
▁तान	-10.5469
▁नेपालगञ्ज	-10.5476
▁हतार	-10.5477
▁बढिरहेको	-10.5478
▁नगरेसम्म	-10.5479
▁दरले	-10.5479
▁न्युयोर्कमा	-10.5481
ाधिकार	-10.5481
सन्	-10.5483
▁सिन्	-10.5493
▁विद्यार्थीले	-10.5503
▁हेल	-10.5503
▁सुशासन	-10.5508
▁कार्यक्रमका	-10.5509
टल	-10.5512
▁महिनापछि	-10.5513
▁लेखेका	-10.5515
▁जनमत	-10.5519
▁सिक्ने	-10.5522
▁दर्जनौं	-10.5522
्रिक	-10.5524
▁भत्क	-10.5526
▁T	-10.5526
▁व्यावहारिक	-10.5526
▁ग्याँस	-10.5526
▁मर	-10.5529
▁८५	-10.5531
सुन	-10.5535
▁मनोनयन	-10.5536
▁साम्राज्य	-10.5536
▁मध्यपश्चिम	-10.5536
्सी	-10.5537
लेट	-10.5543
▁अन्याय	-10.5546
्टि	-10.5548
ठो	-10.5549
नीले	-10.555
▁रङ्ग	-10.5553
▁बहुमूल्य	-10.5554
▁पिटर	-10.5555
▁असन्तुष्ट	-10.5562
▁ब्राउन	-10.5563
शो	-10.5567
फिल्ड	-10.557
ाली	-10.5572
▁मोल	-10.5573
▁कार्ल	-10.5574
▁अवार्ड	-10.5576
▁पिट	-10.5578
▁डुबे	-10.5581
▁नआए	-10.559
ृत	-10.5592
▁रुख	-10.5592
काठमाडौं	-10.5597
▁पै	-10.5599
्दछन्	-10.5599
▁वातावरणमा	-10.56
▁श्रीलंका	-10.56
▁चम्किलो	-10.5601
▁फर्काउन	-10.5605
▁जग्गामा	-10.5615
▁नुन	-10.5623
▁महल	-10.5624
िनो	-10.5626
▁बेरोजगार	-10.5627
रहेको	-10.5627
▁मसला	-10.5629
स्त्र	-10.563
▁बिन्दुमा	-10.5632
▁जोखिममा	-10.5633
▁बाँड	-10.5636
▁ब्रि	-10.5636
र्ति	-10.5637
तापूर्वक	-10.5637
▁दूर	-10.5638
▁निर्माणको	-10.5642
▁ओगटेको	-10.5647
्याक	-10.5647
▁गाँउ	-10.5648
▁माने	-10.5649
▁पूर्ति	-10.5649
▁सदस्यीय	-10.5651
▁बिर	-10.5653
▁खोज्दा	-10.5654
▁शव	-10.5654
जुन	-10.5655
▁प्रसङ्ग	-10.5656
▁कृषक	-10.5656
▁नीतिगत	-10.5657
▁बत्ती	-10.5659
▁व्यवस्थापक	-10.5665
▁डाटाबेस	-10.5665
▁नक्कल	-10.5673
▁निस्कन	-10.5674
मोर	-10.5677
▁थिई	-10.5682
▁जनयुद्ध	-10.5685
▁सुनाए	-10.5686
▁परा	-10.5687
▁क्षेत्रफल	-10.5689
▁टाइम	-10.569
▁धितो	-10.5692
▁बोक्न	-10.5693
▁मधुमेह	-10.5693
▁लाभान्वित	-10.5694
सामु	-10.5694
छा	-10.5696
▁सक्दैनौं	-10.5696
▁देवताहरू	-10.5701
▁साधनको	-10.5701
▁चन्दा	-10.5704
▁दिनहरूमा	-10.5707
▁औषधिको	-10.5716
▁घुस	-10.5719
▁प्रतियोगिताको	-10.572
▁अंशको	-10.5721
▁यूहन्ना	-10.5721
▁महिलाहरु	-10.5723
▁विजयी	-10.5724
▁नियमन	-10.5727
▁टाइप	-10.5727
▁हैसियत	-10.5731
▁बिताए	-10.5731
▁नेपालीहरू	-10.5733
▁किसानहरू	-10.5734
बिन	-10.5738
▁मध्यस्थ	-10.5739
▁आप्रवासी	-10.574
▁मरि	-10.5741
▁अगमवक्ता	-10.5742
ट्	-10.5745
▁२०१९	-10.5749
▁पुष्प	-10.575
▁उपसमिति	-10.575
▁नगरेमा	-10.5752
▁भण्डारीले	-10.5753
▁बाँच्ने	-10.5755
ुट	-10.5759
सेवा	-10.576
▁समुदायका	-10.5763
▁वर्गमा	-10.5764
ाउँ	-10.577
▁केन्द्रले	-10.5772
▁आमाले	-10.5775
दिए	-10.5779
सिक	-10.5783
▁संस्कृत	-10.5785
▁लगत	-10.5791
पाइ	-10.5793
▁नदेख	-10.5794
्याएर	-10.5794
▁दम्पति	-10.5797
▁पोशाक	-10.5797
▁नेताले	-10.58
▁असफलता	-10.58
▁दाइ	-10.5802
मिर	-10.5804
▁आक्रामक	-10.5806
▁क्रिस	-10.5809
▁सन	-10.581
▁राख्दा	-10.5812
▁बलिदान	-10.5817
▁फर्	-10.5818
िको	-10.582
▁ढा	-10.582
▁अध्यक्षतामा	-10.5823
▁नदिन	-10.5824
▁अधोरेखित	-10.5825
▁बहुविध	-10.5826
▁निस्के	-10.5827
हाम	-10.5834
▁कलम	-10.5835
▁यिनै	-10.5835
▁पहाडमा	-10.5836
▁राष्ट्रियता	-10.5838
▁कौ	-10.5839
▁दलहरूले	-10.584
त्रा	-10.5842
▁भारतसँग	-10.5846
▁नसक्नु	-10.5849
▁देउवाले	-10.5849
कोपहिलो	-10.5851
न्ना	-10.5851
▁गाविसमा	-10.5854
▁इस्लामिक	-10.5857
▁L	-10.5859
▁ब्लग	-10.5859
▁हाने	-10.5862
▁उही	-10.5862
▁मर्यादा	-10.5863
बोध	-10.5864
ाड	-10.5865
▁मेक्सिको	-10.5872
▁ठाकुर	-10.5873
सान	-10.5874
▁देखिएमा	-10.5876
▁संस्थाका	-10.5878
▁सवै	-10.5881
▁५३	-10.5881
▁सहन	-10.5885
▁माओवादीका	-10.5889
भिन	-10.5892
▁विभागीय	-10.5892
▁बोन्ड	-10.5893
▁नभएकाले	-10.5894
बाबु	-10.5899
ढा	-10.5899
▁अगुवा	-10.5908
िभ	-10.5908
▁झण्डै	-10.5911
▁लक्षण	-10.5914
▁पुस्तकमा	-10.5916
▁इन्च	-10.5917
▁क्षमा	-10.5917
तल	-10.5918
▁सीडी	-10.5919
▁बिच	-10.592
▁म्याच	-10.5921
▁क्षेत्री	-10.5925
▁कालि	-10.5926
याँ	-10.5927
▁समावेशी	-10.5929
▁सन्तोष	-10.593
▁वञ्चित	-10.593
▁पत्रिकाको	-10.5932
मह	-10.5934
ल्फ	-10.5937
▁देखें	-10.5937
भेन	-10.5938
▁विद्यार्थीको	-10.5941
▁पारी	-10.5942
८०	-10.5943
▁वैध	-10.5946
▁निकायलाई	-10.5946
▁अनन्त	-10.5952
लोक	-10.5952
्की	-10.5954
▁समूहलाई	-10.5955
यत	-10.5956
▁प्राणी	-10.5959
▁काट्न	-10.5963
सेट	-10.5963
ेस्ट	-10.5963
माओवादी	-10.5964
उँ	-10.5964
बास	-10.5965
▁अड	-10.5967
▁महानगर	-10.5967
▁मदिरा	-10.5968
▁५४	-10.5969
▁डक	-10.5969
स्ट्रो	-10.597
▁यात्री	-10.5971
▁वर्	-10.5972
दुई	-10.5973
▁निधन	-10.5974
▁मुल	-10.5974
▁देख्दा	-10.5975
घात	-10.5977
▁पार्दछ	-10.5978
▁२०४६	-10.598
▁विद्यालयका	-10.5981
▁रोगी	-10.5981
क्रि	-10.5981
▁दरमा	-10.5981
हत	-10.5986
▁संस्थामा	-10.5986
पू	-10.5987
▁पृथ्वीमा	-10.5991
▁प्रकार्य	-10.5991
▁कुट	-10.6
▁रहस्य	-10.6006
▁राजनीतिज्ञ	-10.601
▁तालीम	-10.6011
ुपर्यो	-10.6014
एर	-10.6016
▁सुत्ने	-10.6017
▁टोलीमा	-10.6024
▁रिक्त	-10.6024
▁महँगो	-10.6026
▁चिहान	-10.6027
टेल	-10.6032
▁हराए	-10.6034
▁गाली	-10.6035
ब्रि	-10.6035
▁भयभीत	-10.6036
▁तिनीहरु	-10.6041
ट्स	-10.6041
▁प्रि	-10.6041
▁निराशा	-10.6042
भन	-10.6043
सम	-10.6043
लियन	-10.6043
▁NE	-10.6044
▁बाँडफाँड	-10.6045
म्व	-10.605
▁कर्मचारीहरू	-10.6051
▁टेप	-10.6052
▁बह	-10.6056
▁सम्मानित	-10.606
▁उठेको	-10.6063
▁मातृ	-10.6064
▁धोका	-10.6064
▁वेला	-10.6067
▁थारु	-10.6067
▁निस्कने	-10.6068
▁फस	-10.6069
▁पावर	-10.607
▁५८	-10.6071
▁रुपैयाँसम्म	-10.6078
योग	-10.6078
▁नत्र	-10.608
▁ओम	-10.608
राष्ट्र	-10.608
▁समुदायलाई	-10.6081
▁पानीमा	-10.6082
▁अब्राहाम	-10.6084
▁नियामक	-10.6084
स्टोन	-10.6084
▁सुख्खा	-10.6084
्याई	-10.6087
२३	-10.609
▁आत्मनिर्भर	-10.609
▁क्रिस्	-10.6091
▁झिक	-10.6093
▁सुर्खेत	-10.6094
▁भर्न	-10.6095
▁युवराज	-10.6095
▁नदिए	-10.6099
ीकृत	-10.6103
▁अपेक्षित	-10.6104
▁रोकथाम	-10.6104
भिल	-10.6108
्याप	-10.6113
▁चाहेमा	-10.6115
▁बाग	-10.6118
▁आइपुगे	-10.612
▁सोध्न	-10.6121
▁देशभर	-10.6121
▁प्रजाति	-10.6121
▁बढ्यो	-10.6122
▁दूरसञ्चार	-10.6123
▁नगरपालिकाले	-10.6124
डेन	-10.6124
▁बेच्ने	-10.6124
▁गृहमन्त्री	-10.6126
षण	-10.6129
पश्चात्	-10.613
▁दूत	-10.613
ङ्गो	-10.6134
▁फौज	-10.6139
▁समाते	-10.6143
▁भोज	-10.6143
तिनीहरू	-10.6144
भ्	-10.6144
▁परिस्थितिमा	-10.6145
पद	-10.6147
ात	-10.615
जीवन	-10.6153
▁छवटा	-10.6154
▁तोड	-10.6154
▁काँ	-10.6154
▁वै	-10.6164
▁ट्रम्पले	-10.6164
▁स्पष्टीकरण	-10.6164
▁एउटी	-10.6172
धेरै	-10.6175
▁पारिवारिक	-10.6182
▁भूमिसुधार	-10.6182
▁अध्यक्षले	-10.6188
▁आशावादी	-10.6189
र्च	-10.619
▁?	-10.6192
▁सूचक	-10.6194
ुपर्दछ	-10.6196
३५	-10.6197
▁बोतल	-10.6203
पर्ने	-10.6207
▁जुनियर	-10.6208
▁पत्रपत्रिका	-10.6211
▁महाशाखा	-10.6212
▁भर्जिनिया	-10.6212
▁प्यालेस्टाइनी	-10.6214
▁भय	-10.6217
▁दुर्घटनामा	-10.6223
▁एमालेको	-10.6227
▁ह्रास	-10.6231
▁पुनःस्थापना	-10.6232
▁सेनाका	-10.6233
▁पाउल	-10.6236
संगै	-10.6242
लीले	-10.6244
▁प्रौढ	-10.6245
▁आन्दोलनका	-10.6247
▁लुट	-10.6248
▁विर	-10.6251
▁सहितको	-10.6254
▁राख्नुहोस्	-10.6255
▁तिनै	-10.6257
▁अधिकृतले	-10.6258
▁मृतक	-10.626
केन्द्र	-10.6262
▁सिग	-10.627
▁कोलम्बिया	-10.6271
▁टर्मिनल	-10.6271
▁श्रृङ्खला	-10.6271
▁बराल	-10.6272
ON	-10.6272
▁हिमाली	-10.6273
▁पौ	-10.6279
▁ऋषि	-10.6281
क्ल	-10.6282
क्या	-10.6282
▁सास	-10.6283
▁भोग्नु	-10.6284
▁मास्क	-10.6285
▁आएमा	-10.6285
▁निजीकरण	-10.6288
▁मरेको	-10.63
पिङ	-10.6305
▁५७	-10.6308
▁मुटुको	-10.6308
▁छैनौ	-10.6311
रिङ	-10.6315
▁जबसम्म	-10.6318
▁रिपब्लिकन	-10.6322
ाउँथे	-10.6322
▁हद	-10.6323
▁नाग	-10.6332
ुन्	-10.6332
ान्तर	-10.6333
गढी	-10.6334
सक्छ	-10.6339
▁भ्रष्ट	-10.634
▁खोज्नु	-10.6341
रै	-10.6342
क्ति	-10.6344
▁बर	-10.6345
▁इजरायल	-10.6348
▁ध्रुव	-10.6349
▁महानगरपालिका	-10.6351
भक्त	-10.6351
▁लागु	-10.6352
▁दिइयो	-10.6355
▁उभिएका	-10.6355
डब्लु	-10.6355
ताल	-10.6357
वस्तु	-10.6361
▁बनेर	-10.6361
▁युवक	-10.6362
▁संसदको	-10.6364
एफए	-10.6365
पान	-10.6371
▁चिनिन्छ	-10.6372
▁नगरे	-10.6376
▁क्रियाशील	-10.6377
▁n	-10.6378
नेल	-10.6379
▁थाल्छ	-10.638
▁पाइप	-10.638
▁संविधानले	-10.638
३९	-10.638
▁ढाक	-10.6382
▁हप्तासम्म	-10.6382
भे	-10.6384
▁नाटकीय	-10.6386
▁हान	-10.6387
▁ू	-10.6389
▁पिउन	-10.6399
▁उल्लंघन	-10.64
▁लेखेको	-10.6403
तार	-10.6406
▁नसके	-10.6406
▁पथ	-10.6406
▁N	-10.641
्के	-10.6411
▁सापेक्षिक	-10.6411
याह	-10.6412
न्दा	-10.6416
▁व्यवसायीको	-10.6417
▁जरा	-10.6419
▁व्यहोरा	-10.6422
▁आचरण	-10.6422
▁नहर	-10.6423
▁नब	-10.6424
▁गोर	-10.6428
िमा	-10.6429
ल्भ	-10.6429
▁त्यसमाथि	-10.643
▁पराजुली	-10.643
सिय्	-10.6435
लन	-10.6438
▁दृढ	-10.644
▁पण्डित	-10.644
▁राम्रै	-10.644
▁पुनर्संरचना	-10.6441
▁अर्कै	-10.6443
▁किसिम	-10.6443
▁साइ	-10.6446
▁समानुपातिक	-10.6461
▁साप्ताहिक	-10.6461
▁अधिवक्ता	-10.6461
▁छोप	-10.6461
▁लुइस	-10.6462
▁उठ्न	-10.6463
▁पेस	-10.6465
हारी	-10.6468
ब्ल	-10.6469
▁सोभियत	-10.6471
्छिन्	-10.6472
▁क्रमबद्ध	-10.6472
▁समुदायले	-10.6473
▁विष्ट	-10.6475
▁हुनेछैन	-10.6477
▁विकेट	-10.6478
भएका	-10.6481
▁त्यहाँका	-10.6481
▁सल्	-10.6482
▁भावनात्मक	-10.6484
कोनिम्ति	-10.6486
▁प्रश्नहरू	-10.6487
प्रथम	-10.6493
▁लेन	-10.6498
पक्षीय	-10.6499
▁ब्रुस	-10.6499
▁पसे	-10.6504
▁जसका	-10.6505
▁आन्दोलनलाई	-10.6511
▁मनोवैज्ञानिक	-10.6511
▁व्याजदर	-10.6512
▁खोज्दै	-10.6517
ि्र	-10.6522
▁शब्दले	-10.6523
▁बैंकका	-10.6527
///	-10.6531
▁होलान्	-10.6532
र्ने	-10.6538
▁लास	-10.6538
्सा	-10.6539
क्वे	-10.6541
▁हिँडे	-10.6546
▁उभ	-10.6548
▁सू	-10.655
▁२०११	-10.655
▁सर्ज	-10.6553
▁डुब	-10.6553
▁वी	-10.6554
▁बताउने	-10.6554
▁पैदा	-10.6554
▁बोसो	-10.6556
ुहुनेछ	-10.6561
▁राज्यका	-10.6571
▁एसएलसी	-10.6572
खे	-10.6573
▁लोभ	-10.6574
▁सेवाका	-10.6574
▁६२	-10.6575
▁विना	-10.6586
स्था	-10.6587
▁ठूल	-10.6591
▁मानसिकता	-10.6593
▁एन्टि	-10.6594
म्बु	-10.6594
दय	-10.6597
▁६००	-10.6597
▁फर	-10.6598
ाया	-10.6599
▁डरले	-10.6599
यात्रा	-10.6599
▁नाक	-10.66
्ह	-10.6602
▁लाम	-10.6604
▁मधु	-10.6604
▁जान्न	-10.6607
▁ग्लास	-10.6608
▁थो	-10.6609
▁प्राधिकरणको	-10.6613
▁भैरहवा	-10.6613
▁भाइरस	-10.6614
▁उर्जा	-10.6615
▁घरमै	-10.6618
▁आवासीय	-10.662
▁खेलेको	-10.6621
्टोन	-10.6622
▁गिर	-10.6623
लामा	-10.6626
टाइ	-10.663
▁सङ्घ	-10.6633
▁सुम्प	-10.6635
्टन	-10.6636
▁जिम	-10.6636
▁पढे	-10.6637
▁दी	-10.6638
▁लिङ्ग	-10.6639
▁जेलमा	-10.6639
▁लम्बाइ	-10.664
▁गाडीमा	-10.664
IN	-10.6641
▁नी	-10.6642
▁यरूशलेममा	-10.6647
▁होम	-10.6647
▁घटेर	-10.6647
▁तेज	-10.6652
चाहिँ	-10.6656
▁साइकल	-10.6658
ाङ्ग	-10.6658
्लो	-10.666
▁ओबामा	-10.666
किङ	-10.6662
▁५९	-10.6662
▁हेरफेर	-10.6665
▁सभ्यता	-10.6666
▁भनिने	-10.6668
▁परिकार	-10.667
▁वर्षका	-10.6673
▁लिइ	-10.6674
▁मतदाताहरू	-10.6674
ग्ला	-10.6674
▁मागे	-10.6677
▁गएपछि	-10.6678
वद्ध	-10.668
▁पढ्दा	-10.668
मस	-10.6683
२१	-10.6688
▁प्रम	-10.6691
▁कुर	-10.6695
▁भन्छु	-10.6696
▁विस्फोटन	-10.6697
▁पाण्डेले	-10.6704
▁विक	-10.6704
तम	-10.6705
▁अपील	-10.6706
▁टेबल	-10.6709
ेरा	-10.6715
▁मुर्	-10.6716
▁ठेक्का	-10.6716
▁खानेकुरा	-10.6717
▁२०१३	-10.6721
▁गराइएको	-10.6725
कुमारी	-10.6725
▁सिँचाइ	-10.6727
यसले	-10.6727
बुल	-10.6727
▁दिनेश	-10.6728
▁केश	-10.6728
्यान	-10.6728
▁जितेका	-10.6728
▁दुर्गा	-10.6731
▁लघु	-10.6733
▁युनाइटेड	-10.6737
▁अनुचित	-10.6738
▁प्रतिनिधिहरू	-10.6743
▁सक्रियता	-10.6744
▁मारिए	-10.6746
▁स्टिल	-10.6746
▁यर्दन	-10.6758
्तु	-10.6758
▁घातक	-10.6759
▁पेन	-10.6761
▁९५	-10.6762
▁२०४७	-10.6762
ेरी	-10.6764
त्यस	-10.6764
ुहुन्न	-10.6765
▁नागरिकलाई	-10.6767
▁अर्थतन्त्रको	-10.6767
▁युएई	-10.6768
▁id	-10.6769
पना	-10.677
▁व्यवसायीहरू	-10.6772
▁विगतका	-10.6773
SE	-10.6773
▁खानु	-10.6774
ाइन्	-10.6776
बन्दी	-10.6777
▁मौद्रिक	-10.6779
▁रुपान्तरण	-10.6779
▁जागृत	-10.6779
३७	-10.6779
▁भान	-10.6786
▁तोक्न	-10.6788
▁परिषद्का	-10.6789
▁बोस्टोन	-10.679
मुख	-10.679
▁रियल	-10.6791
▁दिएँ	-10.6792
२६	-10.6792
▁व्यवहारमा	-10.6793
त्री	-10.6794
▁कता	-10.6795
▁निर	-10.6795
▁छैटौं	-10.6799
▁मनोनीत	-10.6799
अनु	-10.6802
▁बक्स	-10.6805
▁p	-10.6806
▁कम्पनीलाई	-10.6807
▁विद्या	-10.6809
▁पुनर्जीवित	-10.681
▁अङ्ग्रेजी	-10.6819
▁खि	-10.6819
▁लगइन	-10.6823
▁नगर्नुहोस्	-10.6826
al	-10.6829
इन्	-10.6833
▁देखाउँदै	-10.6834
▁उद्	-10.6839
▁प्रथा	-10.684
▁सां	-10.684
ग्राम	-10.684
▁उत्पत्ति	-10.6841
▁ताररहित	-10.6842
▁सान्त्वना	-10.685
▁cfm	-10.6852
▁सत्तारूढ	-10.6852
▁गहना	-10.6854
▁किनारमा	-10.6855
साना	-10.6855
श्व	-10.6857
▁नहुनु	-10.6861
▁सहयोगको	-10.6861
▁कोशी	-10.6863
▁समाजले	-10.6864
▁२५०	-10.6865
▁एल्	-10.6865
▁लिपि	-10.6865
३६	-10.6871
▁शहरहरूमा	-10.6872
▁ग्रे	-10.6872
▁अनौठो	-10.6873
▁मातहत	-10.6873
▁भाँच	-10.6874
▁मौ	-10.6876
▁६३	-10.6877
चक	-10.6879
▁होटलमा	-10.6879
जू	-10.6882
▁सिर	-10.6884
▁इस्मास	-10.6884
▁क्षेत्रभित्र	-10.6884
▁बुझाउन	-10.6886
राज्य	-10.6887
तेस्रो	-10.6889
▁सरोकारवाला	-10.6895
▁अर्कालाई	-10.6902
▁चर्को	-10.6902
ज्	-10.6908
▁लन्डनमा	-10.6915
▁संशोधित	-10.6915
▁ग्रि	-10.692
▁विस्तारै	-10.6922
▁ध्वंश	-10.6926
▁क्ला	-10.6926
▁द्वार	-10.6926
▁वर्गीय	-10.6928
▁बुझाउनु	-10.6932
▁पाइए	-10.6936
▁धनगढी	-10.6937
▁कोण	-10.6941
▁दृश्यात्मक	-10.6942
जीले	-10.6944
▁स्वत	-10.6945
▁तुल्याउन	-10.6946
▁स्वर्ण	-10.6948
▁पक्कै	-10.6948
▁दिएनन्	-10.6951
रहित	-10.6953
▁चारवटा	-10.6954
िदै	-10.6956
▁सडकको	-10.696
▁खाएर	-10.6963
▁कैयौँ	-10.6968
▁जंगल	-10.6975
▁रक्त	-10.6977
▁कारबाहीको	-10.6977
▁मिठाई	-10.6979
▁गुप्त	-10.6979
▁पाल्पा	-10.698
▁हप्ताअघि	-10.6981
ानो	-10.6985
▁६४	-10.6987
▁गराइनेछ	-10.6988
▁क्यानाडा	-10.6989
▁लोग्ने	-10.6989
▁चर	-10.699
▁लिखत	-10.7
बाल	-10.7002
▁थिइनँ	-10.7004
ुँ	-10.7006
▁कर्	-10.7006
▁सुनेर	-10.7006
▁कहिलेकाहीँ	-10.7011
▁दर्ुइ	-10.7011
▁सामाग्री	-10.7011
ाउनुहोस्	-10.7011
▁ऋणको	-10.7012
▁कैदी	-10.7015
▁छात्रवृत्ति	-10.7021
▁प्रदेशको	-10.7022
▁जनाइए	-10.7023
▁इम	-10.7023
▁स्थानको	-10.7027
▁पोखरेलले	-10.7027
▁थियौ	-10.703
▁प्रतिकार	-10.7031
▁बताउ	-10.7032
▁हुँदाहुँदै	-10.7033
▁हड्डी	-10.7033
▁असन्तुष्टि	-10.7033
▁खेतमा	-10.7034
▁बोर्डमा	-10.7034
▁निदान	-10.7039
▁नेपालीहरु	-10.7039
ेत	-10.7042
▁त्रास	-10.7042
▁सीता	-10.7042
ोट्सम्यान	-10.7043
▁लागी	-10.7046
▁उल्लेख्य	-10.7048
्ना	-10.705
▁नेताहरूको	-10.7052
खोला	-10.7054
▁चरणबद्ध	-10.7055
▁कार्कीले	-10.7057
टले	-10.7063
▁ब्याट्री	-10.7065
▁थप्नुहोस्	-10.7065
ात्	-10.7067
▁छान	-10.7069
▁७२	-10.707
▁अश्	-10.7072
▁प्रदीप	-10.7076
▁उठाएका	-10.7081
▁तयारीमा	-10.7082
▁चन्द्रमा	-10.7083
▁कार्बन	-10.7084
▁मारियो	-10.7085
▁विल	-10.7087
▁रोल	-10.7088
▁निर्मित	-10.7088
गम	-10.7088
०७	-10.7094
▁मार्गदर्शक	-10.7097
▁क्यास	-10.7097
▁तुलनात्मक	-10.7097
▁शंकर	-10.7097
७३टछछघघस	-10.7098
वश	-10.7099
▁सिद्ध	-10.71
▁ँ	-10.7103
▁वो	-10.7105
▁शैलीमा	-10.7106
▁चुरोट	-10.7107
▁उभिएको	-10.7107
▁लाज	-10.7108
▁बुढा	-10.7108
▁२००९	-10.7113
▁गुमाएका	-10.7116
▁मर्	-10.7118
रान	-10.712
▁स्वतन्त्रताको	-10.7122
▁श्र	-10.7123
▁अर्थशास्त्री	-10.7124
▁स्क्रिप्ट	-10.7127
्ले	-10.7127
▁पाटन	-10.7129
▁सुवेदी	-10.713
भार	-10.713
पल्ट	-10.7134
िब	-10.7136
▁सर्प	-10.7139
▁पूर्वाञ्चल	-10.7139
▁समुह	-10.7139
▁१९९९	-10.7141
▁तोकिएबमोजिम	-10.7141
▁आदिको	-10.7141
▁सोको	-10.7144
▁भ्रमणको	-10.7145
▁माइक्रोसफ्ट	-10.715
▁गुम्बा	-10.7152
▁निकाल्ने	-10.7155
▁समितिलाई	-10.7158
▁गाउँले	-10.716
▁ट्याक्सी	-10.7161
▁यि	-10.7162
▁अध्यावधिक	-10.7172
▁बैंकमा	-10.7177
▁शब्दमा	-10.718
ंड	-10.7183
▁जुम्ला	-10.7183
▁र्याली	-10.7184
▁फार्म	-10.7184
▁सञ्चिति	-10.7187
▁अवयव	-10.7194
▁चुपचाप	-10.7194
रिन	-10.7197
▁सर्तमा	-10.7198
लाग्दो	-10.7201
▁छुट्याइएको	-10.7205
▁व्यवसायको	-10.7206
हरि	-10.7212
▁देब्रे	-10.7216
▁सत्याग्रही	-10.7224
▁विस्फोट	-10.7224
▁वर्गको	-10.7226
▁प्रतिनिधिसभा	-10.7229
▁गल	-10.7229
ून	-10.7236
▁थोम्प्सन	-10.7237
▁स्टेशन	-10.7239
▁रिट	-10.7239
▁कार्यदल	-10.724
ेलले	-10.7245
▁नागरिकको	-10.7246
▁नेवार	-10.7249
▁भोजपुर	-10.725
▁युरोपमा	-10.7251
▁स्कि	-10.7252
▁आश	-10.7252
▁आराम	-10.7253
▁धनकुटा	-10.7259
▁मुशराफ	-10.7259
▁दातृ	-10.7259
▁ओर्ल	-10.726
▁मानिएको	-10.726
▁झुक	-10.7264
विशेष	-10.7268
▁बढे	-10.7268
▁गराएर	-10.7269
▁नेटवर्क	-10.727
▁डिभिजन	-10.7271
ुला	-10.7271
▁बैंकहरू	-10.7271
▁काट्ने	-10.728
▁असमानता	-10.7281
-"	-10.7282
▁ग्रिन	-10.7283
▁पुगेपछि	-10.7285
▁अस्पतालको	-10.7291
▁तुलसी	-10.7292
▁मूर्तिहरू	-10.7292
पट	-10.7294
नयाँ	-10.7295
▁अवलम्बन	-10.7303
▁खाँचो	-10.7303
▁नल	-10.7305
re	-10.7306
▁कार्यलाई	-10.7306
▁अन्	-10.7308
▁चारजना	-10.7308
माथिको	-10.7308
▁अर	-10.7309
▁लिटर	-10.7313
AL	-10.7314
▁विद्यार्थीहरु	-10.7316
▁जिन	-10.7316
ट्र	-10.7319
▁आस्था	-10.7323
▁नेताहरूलाई	-10.7329
▁सफलतापूर्वक	-10.7329
रस	-10.7332
▁चुनावको	-10.7335
▁सुलेमान	-10.734
ाइज	-10.7345
▁सम्ममा	-10.7348
▁हितमा	-10.7351
▁रहन्छन्	-10.7352
▁भरमा	-10.7355
िटी	-10.7361
▁आवरण	-10.7362
▁कार्यहरु	-10.7363
▁६१	-10.7366
............	-10.7368
▁निर्माणका	-10.7369
▁काठमाण्डौ	-10.7369
▁ठुलो	-10.7369
आज	-10.7373
ङ्गी	-10.7374
▁बीपी	-10.7375
गार	-10.7376
▁अपनाउन	-10.7378
▁बुद्धिजीवी	-10.738
▁कञ्चनपुर	-10.7381
भएको	-10.7381
▁अट	-10.7383
दारी	-10.7386
▁अरुण	-10.7388
▁विनियोजन	-10.7391
▁ठाडो	-10.7391
▁अग्रिम	-10.7392
▁बन्छ	-10.7393
्च	-10.7394
िरहने	-10.7394
स्तरीय	-10.7396
▁तट	-10.7397
▁दाता	-10.7399
▁कुमारी	-10.74
▁आकांक्षा	-10.7402
▁नायिका	-10.7402
▁यात्रामा	-10.7403
द्व	-10.7404
▁महाराज	-10.7405
र्जी	-10.7408
▁सन्तानहरू	-10.7414
▁अविश्वासी	-10.7417
▁मुड	-10.7418
an	-10.742
▁औषधी	-10.7423
▁इजरायली	-10.7426
▁पेय	-10.7427
च्य	-10.7429
▁हार्	-10.743
▁चरणको	-10.7432
▁आव	-10.7434
बेर	-10.7436
▁महत	-10.7443
▁जनआन्दोलन	-10.7447
▁बेरोजगारी	-10.7448
▁संवत्	-10.7448
▁गुरुङले	-10.7449
▁जनाउँछ	-10.7459
टिस	-10.7461
▁लेवी	-10.7462
भए	-10.7463
डिङ	-10.7465
ङले	-10.7465
▁उम्मेदवारहरू	-10.7467
▁साटो	-10.7468
्प	-10.7469
▁मेलमिलाप	-10.7475
चित्र	-10.7475
▁अर्थमा	-10.7476
▁आजसम्म	-10.7481
▁आहार	-10.7483
▁ब्रे	-10.7485
एनए	-10.7489
▁श्रीमान्	-10.7489
▁सर्वाधिक	-10.7491
▁धरौटी	-10.7491
▁पुष्पकमल	-10.7491
▁विवादास्पद	-10.7491
▁वकिल	-10.7491
▁मुलुकलाई	-10.7493
▁कुक	-10.7501
▁अज	-10.7502
रात	-10.7502
३२	-10.7502
▁समर्थित	-10.7503
▁कलेजमा	-10.7504
▁पश्चिमाञ्चल	-10.7505
▁ल्या	-10.7508
▁राजाहरू	-10.7509
▁बस्दै	-10.7513
▁निवेदक	-10.7514
▁निर्देशित	-10.7515
▁बोली	-10.7517
▁छोडेको	-10.7518
्दिन	-10.7522
ाइड	-10.7525
▁अनियमितता	-10.7529
▁पहिलोपटक	-10.7529
▁खोल्नुहोस्	-10.753
▁पहिरो	-10.7531
▁भिड	-10.7536
▁माओवादीलाई	-10.754
▁पार्यो	-10.754
▁मनपर्ने	-10.7541
▁झुण्ड	-10.7545
टिङ	-10.7546
▁आपसमा	-10.7547
▁शरीरको	-10.7558
▁प्रश्नको	-10.756
▁क्षेत्रहरू	-10.7565
▁उर्	-10.7565
र्सन	-10.7567
▁ब्र	-10.7569
▁प्रत्यारोपण	-10.757
▁उद	-10.7571
राजा	-10.7572
▁रकमको	-10.7573
स्टे	-10.7574
▁गन्ध	-10.7574
▁दृष्टान्त	-10.7578
▁बनाउनुहोस्	-10.7578
▁परास्त	-10.7584
▁बस्तु	-10.7584
▁भाग्न	-10.7587
▁६६	-10.7592
▁सागर	-10.7592
▁आशंका	-10.7593
▁निर्गत	-10.7596
▁भरोसा	-10.7604
▁उब्ज	-10.7604
बापत	-10.7604
▁नानीहरू	-10.7606
▁हिंड्ने	-10.7614
ेन्ड	-10.7614
▁ली	-10.7614
▁c	-10.7615
▁हानिकारक	-10.7615
▁महान्	-10.7617
दश	-10.7619
▁जान्दछौ	-10.762
▁गुड	-10.7626
▁टेस्ट	-10.7629
▁खेलाडीको	-10.7629
▁खर्चको	-10.7631
२८	-10.7633
▁लगानीकर्ताहरूले	-10.7633
▁नीतिको	-10.7634
▁बिज	-10.7634
▁सज	-10.7634
▁अस्पष्ट	-10.7642
▁लगानीमा	-10.7643
▁दिनदेखि	-10.7644
▁रेग्मी	-10.7645
▁फिरऊन	-10.7649
▁सैद्धान्तिक	-10.7649
▁इतिहासको	-10.7653
▁तुल्य	-10.7653
▁जगत	-10.7655
अध्यक्ष	-10.7663
्वे	-10.7663
०८	-10.7664
▁हिम	-10.7664
▁९९	-10.7667
ीक	-10.7668
▁लाउ	-10.7672
बू	-10.7675
▁नेताहरुले	-10.7676
▁विचारमा	-10.7678
बाद	-10.7678
▁भएकै	-10.768
▁गर्नुपर्दछ	-10.7683
▁संस्थानले	-10.7683
▁गर्नुभन्दा	-10.7686
▁खेले	-10.7689
▁मोर्चाका	-10.7692
िदिन	-10.7692
▁गै	-10.7693
▁कानुनको	-10.7694
▁षडयन्त्र	-10.7695
▁चीनसँग	-10.7699
ूँ	-10.7702
▁जर्नल	-10.7707
▁परेर	-10.7715
▁चुहावट	-10.7718
▁बस्थे	-10.7719
डिया	-10.7719
उपर	-10.7721
▁पायो	-10.7725
▁छाना	-10.7725
▁रहनेछन्	-10.7727
▁डोनाल्ड	-10.7729
▁२०५६	-10.7731
▁खै	-10.7732
▁शिविरमा	-10.7735
ायौं	-10.7736
▁कार्यालयबाट	-10.7736
▁मालिकले	-10.7739
▁राईले	-10.7739
▁चाडपर्व	-10.7741
्याए	-10.7744
्याम	-10.7746
चोक	-10.7746
▁प्रतिद्वन्द्व	-10.7747
▁लगत्तै	-10.7748
▁युवाहरु	-10.7749
▁सुचारु	-10.7752
▁माओ	-10.7752
-‘	-10.7755
▁प्रयोगमा	-10.7756
▁सेवक	-10.7756
रल	-10.7758
▁सीमाना	-10.7761
▁धैर्य	-10.7764
▁रजिष्ट्रार	-10.7764
▁आसपास	-10.7764
▁उत्पादकत्व	-10.7765
▁सार्थक	-10.7775
▁डिल	-10.7776
▁बोलाउन	-10.7777
वै	-10.7778
▁मिलन	-10.7779
▁/	-10.778
▁पार्टीलाई	-10.778
▁विद्वान्	-10.778
▁क्षमताको	-10.7783
▁क्रोध	-10.7786
▁इरानी	-10.7787
कुनै	-10.7788
▁सावित	-10.7788
जीव	-10.7791
▁इसाई	-10.7798
ौली	-10.7801
na	-10.7808
▁सराप	-10.7812
▁अधि	-10.7816
▁संवाददाता	-10.7816
▁७३	-10.7817
▁खाडी	-10.7821
▁गरिन	-10.7821
▁भयानक	-10.7821
▁रुस	-10.7821
रहेछ	-10.7824
भित्रको	-10.7824
▁गुफा	-10.7826
ुत	-10.783
िंदै	-10.783
▁हाम	-10.7831
▁प्रत्यायोजन	-10.7833
▁साँघुरो	-10.7834
▁हिमालय	-10.7836
▁टेलि	-10.7838
▁आक्रमणको	-10.7839
▁देखिन्थे	-10.7841
वती	-10.7841
▁पाउनेछन्	-10.7843
▁उभिए	-10.7843
▁सेयरधनीहरू	-10.7844
▁खेद	-10.7844
▁ढङ्गले	-10.7844
▁अवास्तविक	-10.7847
▁तन्क	-10.7849
▁फ्याक्स	-10.7849
▁दुर्	-10.7851
वाह	-10.7853
▁मिश्रण	-10.7854
▁बोझ	-10.7856
▁प्रधानन्यायाधीश	-10.7856
▁हल्का	-10.7856
▁ढि	-10.7861
पार	-10.7862
▁क्षयरोग	-10.7868
▁मकवानपुर	-10.7868
▁सिंहदरबार	-10.7868
▁औजार	-10.7868
▁चित्रकला	-10.7868
▁स्थानिय	-10.7872
▁हानी	-10.7873
▁आर्क	-10.7875
फ्रे	-10.7875
▁अम्	-10.7879
▁जनप्रतिनिधि	-10.7879
▁नवलपरासी	-10.7879
▁रुपियाँ	-10.7879
▁२०५९	-10.7881
▁अनुहारमा	-10.7882
▁माउस	-10.7882
▁घण्टासम्म	-10.7882
क्सन	-10.7882
पल	-10.7885
▁भरत	-10.7885
सिप	-10.7886
▁खोस	-10.7886
▁खातामा	-10.7894
▁रोनाल्डो	-10.7894
ंदा	-10.7896
▁थालनी	-10.7897
▁प्रकरण	-10.7897
▁चर्क	-10.7899
▁अगुवाहरू	-10.7899
▁प्रेमी	-10.7899
भूमि	-10.7904
▁रिसाए	-10.7904
▁आँट	-10.7908
▁चढाए	-10.7912
▁२०१२	-10.7913
अर्	-10.7914
▁भियतनाम	-10.7914
▁तटस्थ	-10.7915
▁अन्धा	-10.7916
▁महिनादेखि	-10.7925
▁अन्तरराष्ट्रिय	-10.7927
▁दानियल	-10.7927
▁वृद्ध	-10.7928
▁थालिएको	-10.7932
▁शुभ	-10.7939
युद्ध	-10.7944
▁बालिका	-10.7946
लग	-10.7948
▁आयोजनामा	-10.7951
▁दाजु	-10.7951
▁देखाइएको	-10.7952
▁हिलारी	-10.7961
▁सम्झे	-10.7962
▁यतिबेला	-10.7965
्याम्प	-10.7966
र्प	-10.7966
▁सर्वोत्कृष्ट	-10.7969
▁केशव	-10.7972
▁योजनाबद्ध	-10.7973
ंश	-10.7975
जति	-10.7976
▁उठाएर	-10.7976
▁क्लि	-10.7978
▁ल्यायो	-10.7978
▁पाहुना	-10.7981
▁काव्य	-10.7985
▁मोही	-10.7987
▁सकिन्न	-10.7987
▁ढकालले	-10.7989
इरहे	-10.7989
▁पार्किङ	-10.799
▁नाउँमा	-10.7991
▁ट्या	-10.7995
▁न्यूनवैतनिक	-10.7996
▁बलिउड	-10.7997
▁बिरामीको	-10.8
▁ज्वाला	-10.8008
▁कक्षामा	-10.8011
▁परियोजनाको	-10.8011
गृह	-10.8013
▁गाउँका	-10.8014
▁स्क्यान	-10.8014
▁व्यवसायीलाई	-10.8016
▁प्राय	-10.8017
प्रकाश	-10.802
▁स्कटिश	-10.802
▁खत्री	-10.8022
▁उपेन्द्र	-10.8024
निर्माण	-10.8031
▁सौ	-10.8034
हिल	-10.8035
▁आन्दोलनकारी	-10.8036
▁ट्रेल	-10.8037
▁वाल्स	-10.8038
▁गाए	-10.8038
▁पारि	-10.804
घु	-10.804
▁अन्तर्वार्तामा	-10.8042
▁डाउन	-10.8043
▁मेगावाट	-10.8044
▁पंक्ति	-10.8048
▁आबद्ध	-10.8052
▁अवरुद्ध	-10.8055
▁परिश्रम	-10.8056
▁यतिखेर	-10.8056
▁अर्जेन्टिना	-10.8057
िरहन्छ	-10.8057
मती	-10.8058
▁रामचन्द्र	-10.8058
▁दृष्टिकोणले	-10.8059
▁जानुहोस्	-10.8059
▁काटेर	-10.806
▁राख्नेछ	-10.8062
▁विषयको	-10.8063
▁कोषले	-10.8066
परे	-10.8066
▁खुलेको	-10.8067
त्या	-10.8067
▁भूभाग	-10.807
ष्म	-10.8073
▁हातले	-10.8074
▁सल	-10.8075
▁हुनुको	-10.8076
▁विपरित	-10.8079
▁उठे	-10.8079
ाश	-10.8079
▁पुटिन	-10.8081
▁२०१०	-10.8081
▁फिल्मको	-10.8083
▁जोडिएका	-10.8085
▁बहाल	-10.8086
▁अपाङ्गता	-10.8089
▁छिट्टै	-10.8091
▁विधवा	-10.8091
▁जटिलता	-10.8092
▁तत्कालै	-10.8098
जनाले	-10.8099
६७	-10.81
▁उन्नति	-10.8101
▁हेडर	-10.8101
▁आपूर्तिकर्ता	-10.8103
▁रुपियां	-10.8103
▁मृतशरीर	-10.8103
▁धार	-10.8104
िरहनु	-10.8104
ार्	-10.8104
▁आउनेछ	-10.8106
्याल	-10.8108
ार्ड	-10.8112
जनाको	-10.8113
▁स्ट्र	-10.8121
▁नसकेका	-10.8121
▁८००	-10.8124
२९	-10.8126
▁पत्रुस	-10.8127
▁मन्त्र	-10.8128
एमसी	-10.813
थर	-10.813
झा	-10.8132
धारी	-10.8134
ाट	-10.8135
▁मैत्री	-10.8136
▁अपार्टमेन्ट	-10.8138
▁थोमस	-10.8141
▁लगेर	-10.8141
▁कामदारको	-10.8142
▁खेर	-10.8144
ाउँछु	-10.815
▁घट्ने	-10.8151
▁गंगा	-10.8155
ह्र	-10.8157
▁प्रकृया	-10.8162
▁चार्ल्स	-10.8162
▁परोपकार	-10.8162
▁नपरे	-10.8163
▁चौधरीले	-10.8164
▁ब्याक	-10.8166
▁तँ	-10.8169
▁कामना	-10.8171
▁पत्रमा	-10.8176
यान	-10.818
ग्रा	-10.8184
▁शहीद	-10.8186
▁स्तरवृद्धि	-10.8187
▁अधिकारीलाई	-10.8191
हित	-10.8198
्ध	-10.8198
▁बताउनुहुन्छ	-10.8199
▁रोमानी	-10.82
▁व्यहोर	-10.8201
▁फेशन	-10.8202
▁समृद्ध	-10.8203
ूदै	-10.8204
▁उन	-10.8209
▁हेलिकप्टर	-10.821
▁निल	-10.8211
▁देख्नु	-10.8213
▁गुमाउने	-10.8216
र्भ	-10.8218
▁कोटा	-10.8218
▁६७	-10.8219
▁हाले	-10.8224
म्भ	-10.8228
▁पराजय	-10.8235
▁पासपोर्ट	-10.8236
▁धकेल्न	-10.8238
▁प्यारा	-10.8244
केश	-10.8244
▁पारवहन	-10.8247
▁राहदानी	-10.8247
▁७१	-10.8247
▁अर्जुन	-10.8247
▁प्रान्तमा	-10.8248
िरहेछ	-10.8254
भान	-10.8254
प्ला	-10.8258
२००	-10.8261
▁दिनुहुन्छ	-10.8261
▁मर्न	-10.8264
▁युनि	-10.827
▁लिगमा	-10.827
▁org	-10.8271
दिने	-10.8272
िन्स	-10.8273
▁न्यू	-10.8274
्चे	-10.828
श्य	-10.8282
▁उसै	-10.8286
ल्ली	-10.8286
▁भालु	-10.8287
▁नियत	-10.8291
▁किक	-10.8295
▁न्यायपालिका	-10.8296
▁सराइ	-10.8298
प्रधानमन्त्री	-10.8298
▁अर्याल	-10.8299
▁सार्नुहोस्	-10.83
९०	-10.83
्याट	-10.8301
▁बाउ	-10.8303
▁७६	-10.8304
▁वापत	-10.8304
▁झरे	-10.8305
▁शर्तहरू	-10.8306
▁स्मारक	-10.8307
▁हराइरहेको	-10.8309
▁विज्ञ	-10.831
▁गुणात्मक	-10.8312
▁काला	-10.8314
▁प्रतिष्ठानको	-10.8318
▁झ्ण्डै	-10.8319
▁मालवस्तु	-10.832
▁उदय	-10.8322
▁फिफा	-10.8322
▁७८	-10.8325
▁विश्वभरि	-10.8329
प्रो	-10.8329
▁ग्लो	-10.833
▁क्रे	-10.833
▁राख्छ	-10.8331
▁मास्टर	-10.8333
▁फर्कियो	-10.8342
▁माथिको	-10.8343
▁अखिल	-10.8344
▁अखबार	-10.8344
▁रिजाल	-10.8344
▁इस्लाम	-10.8345
▁८८	-10.8346
▁भूत	-10.8348
▁मावि	-10.8348
▁राखियो	-10.8349
हुने	-10.835
▁बमोजिमका	-10.8352
▁तुरही	-10.8356
▁प्रसंग	-10.8357
le	-10.8359
▁लागिएको	-10.8361
▁अधिराज्य	-10.8361
▁छुट्याउन	-10.8364
▁गरिदिए	-10.8365
▁शु	-10.8367
▁खेलाडीले	-10.8368
▁६८	-10.8368
▁महासंघका	-10.8374
▁उत्सुक	-10.8375
▁जाग	-10.8376
▁लड्ने	-10.8377
▁नामबाट	-10.8378
▁ध्वस्त	-10.838
▁स्लाइड	-10.838
▁जनस्वास्थ्य	-10.8381
▁प्रतिनिधिमण्डल	-10.8382
ाधि	-10.8382
▁सम्झन	-10.8383
▁उठायो	-10.8384
▁अन्ना	-10.8385
▁बिरामीलाई	-10.8385
▁सदस्यहरूलाई	-10.8388
▁हाफ	-10.839
ोइ	-10.8393
▁धादिङ	-10.8393
▁राजनीतिको	-10.8393
▁महर्जन	-10.8393
▁बोकेका	-10.8394
▁गर्नेतर्फ	-10.8395
▁अभियानको	-10.8397
▁पाएनन्	-10.8402
▁रुपन्देही	-10.8405
▁गोदाम	-10.8405
▁रोक्का	-10.8406
स्की	-10.8407
▁चौडाइ	-10.8408
मण्डल	-10.8409
▁कार्यकर्तालाई	-10.8416
▁प्रभावकारिता	-10.8417
▁कात्तिक	-10.8417
ोरा	-10.8417
▁निकायहरु	-10.8421
ूवा	-10.8423
▁वेद	-10.8424
▁प्राण	-10.8425
नास	-10.8425
्रु	-10.8427
सकेपछि	-10.8427
▁गुप्तिकरण	-10.843
▁टोलीलाई	-10.843
▁टाइ	-10.8433
▁परिचयपत्र	-10.8435
▁रेखदेख	-10.8442
▁मैनाली	-10.8442
डु	-10.8451
▁सजावट	-10.8454
▁झार	-10.8454
▁बताइन्छ	-10.8454
स्वी	-10.8455
...........	-10.8456
▁पश्चिममा	-10.8457
ेन्ज	-10.8459
ाइनेछ	-10.8461
▁मारेर	-10.8462
▁म्याट	-10.8463
आउट	-10.8464
▁नेपालबाट	-10.8464
▁महाराजाधिराज	-10.8466
▁नियन्त्रक	-10.8466
ँदो	-10.8468
उल	-10.847
▁राष्ट्रपतिको	-10.847
▁पाइन	-10.8471
▁टोक	-10.8472
▁दृश्यमा	-10.8474
सीमा	-10.8476
▁लाभांश	-10.8479
▁निराशाजनक	-10.8479
▁गतिशील	-10.8479
▁वु	-10.8482
▁पातलो	-10.8484
▁उपन्यासकार	-10.8485
कर्ताले	-10.8486
▁नपाएको	-10.8487
▁स्टोर	-10.8491
▁पछ्याए	-10.8492
▁प्रज्ञा	-10.8495
ोभ	-10.8499
▁विकेन्द्रीकरण	-10.8503
कथा	-10.8504
क्षण	-10.8506
▁आफु	-10.8512
ुड	-10.8513
वीच	-10.8513
▁उल्लेखित	-10.8517
धर्म	-10.8517
मिट	-10.8519
▁छाउनी	-10.852
▁गइ	-10.8523
वत्	-10.8525
सम्	-10.8527
▁केस	-10.8528
▁जडीबुटी	-10.8528
▁काली	-10.8528
▁अन्योल	-10.8529
जेन	-10.853
▁२०५८	-10.8531
▁गुल	-10.8533
▁पोखरामा	-10.8535
▁कुनामा	-10.8539
स्तरमा	-10.8539
▁फ्या	-10.8545
▁खोजीमा	-10.8546
▁अशोक	-10.8555
▁खेलाडीलाई	-10.8558
▁भग	-10.8559
▁लाग्नु	-10.8562
▁I	-10.8562
▁अगमवक्ताहरू	-10.8563
▁तस्बिर	-10.8565
▁H	-10.8566
▁प्रशासनको	-10.8566
▁आइरहेका	-10.8567
▁फाराम	-10.8569
▁बायो	-10.857
▁छापा	-10.8571
▁हप्तामा	-10.8575
▁बोकेको	-10.8577
▁छलफलमा	-10.8583
गण	-10.8587
▁इजाजत	-10.8589
्ाा	-10.8589
▁विश्लेषकहरूले	-10.859
▁तत्वहरू	-10.8593
▁ग्राहकहरू	-10.8595
▁संविधानसभाको	-10.8597
▁अपवाद	-10.8598
जिन	-10.8599
▁मिन	-10.8601
ोला	-10.8603
▁दुबई	-10.8603
▁गरीबी	-10.8603
▁रचनात्मक	-10.8605
मिक	-10.8606
िदिने	-10.8607
▁जनसंख्याको	-10.861
▁सवारीको	-10.861
डेल	-10.861
▁फेड	-10.861
क्ष्	-10.8616
▁मूल्यवान	-10.862
तपाईँ	-10.862
हरूमाथि	-10.862
▁उद्योगी	-10.8623
▁संकटमा	-10.8625
▁लगाउनुहोस्	-10.8625
▁कतार	-10.8626
▁नानी	-10.863
▁गण	-10.8633
▁स्पिन	-10.8634
कृष्ण	-10.8635
▁ज्ञवाली	-10.8636
नेपाली	-10.8637
▁गोल्ड	-10.8637
एमाले	-10.864
▁अपर्याप्त	-10.864
▁गण्डकी	-10.8641
▁अतिथि	-10.8642
कृति	-10.8645
▁माफी	-10.8652
▁यहा	-10.8652
▁सान्दर्भिक	-10.8653
▁विनोद	-10.8653
▁जफत	-10.8653
▁बाँके	-10.8653
▁उद्योगहरु	-10.8654
▁ब्याट	-10.8654
▁सम्बन्धलाई	-10.8655
▁उत्तरदायी	-10.8655
▁मागेको	-10.8656
▁पालो	-10.8657
प्या	-10.8658
▁नापी	-10.8661
▁कारागारमा	-10.8666
▁फाइलमा	-10.8667
▁प्याड	-10.8667
▁नेट	-10.8674
▁ल्याएका	-10.8677
▁बिहार	-10.8678
▁नोभेम्बरमा	-10.8678
▁आप्रवासन	-10.8678
▁खुट्टामा	-10.8679
एससी	-10.868
संस्था	-10.8681
▁नगरपालिकामा	-10.8681
▁निक	-10.8681
▁उत्	-10.8682
▁माओवादीहरू	-10.8684
▁खोलिएको	-10.8686
्म	-10.8691
▁कोइरालाको	-10.8692
▁टिक	-10.8699
▁किल्ला	-10.8701
▁लेवीहरू	-10.8702
▁कार्वाही	-10.8703
▁प्रकाशमा	-10.8704
▁दिंदा	-10.8705
en	-10.8707
शय	-10.8708
टोल	-10.8708
▁थापाको	-10.8711
▁हुदैन	-10.8713
▁बियर	-10.8714
▁ज्याक	-10.8715
▁ज्योति	-10.8716
हिन	-10.8717
तिमीहरू	-10.8718
विश्व	-10.8718
बन	-10.872
▁चुनावी	-10.8721
▁कास्की	-10.8722
▁मान्य	-10.8725
▁थोक	-10.8725
▁हेरिरहेका	-10.8725
▁विकासकर्ता	-10.8728
▁मच्च	-10.8728
▁मागेका	-10.8729
मिटर	-10.8729
▁आगलागी	-10.8741
▁निर्देशिका	-10.8742
▁नजर	-10.8743
▁नयां	-10.8745
▁अफगानिस्तानमा	-10.8747
▁खुलाई	-10.8747
समय	-10.8748
▁अस्ट्रेलिया	-10.8754
▁आयाम	-10.8754
▁बिग	-10.8755
पास	-10.8755
▁मिलाएर	-10.8758
▁अग्र	-10.8758
▁दस	-10.8761
▁सुनेका	-10.8761
▁आलु	-10.8763
▁सञ्जालमा	-10.8764
२२	-10.8764
▁भिज	-10.8766
▁मीठो	-10.8767
▁बेत	-10.8768
▁आदर	-10.8769
वाई	-10.8772
▁संचार	-10.8774
▁कोर्स	-10.8775
ियस	-10.8775
▁माग्न	-10.8776
▁आऊ	-10.878
्नुभयो	-10.8781
▁एडवार्ड	-10.8783
िइ	-10.8785
ोनले	-10.8788
▁प्रशिक्षार्थी	-10.8792
म्बो	-10.8793
▁आपत्ति	-10.8794
▁खम्बा	-10.8797
▁............	-10.8799
▁कोषाध्यक्ष	-10.8805
▁परिकल्पना	-10.8805
▁भेग	-10.8805
▁उभिन	-10.8806
▁उठ्ने	-10.8808
▁विक्री	-10.8809
▁उत्र	-10.881
▁संसारको	-10.8816
▁सेनालाई	-10.8817
▁उपमहानगरपालिका	-10.8818
▁पदावधि	-10.8818
▁रौतहट	-10.8818
▁अड्डा	-10.8818
▁संस्थाबाट	-10.8818
ेण्ट	-10.8821
रहने	-10.8828
क्रो	-10.8829
▁दक्षिणमा	-10.883
▁जिन्दगी	-10.8831
▁नुवाकोट	-10.8831
▁मलखाद	-10.8831
▁मेशिन	-10.8831
▁सित	-10.8831
▁सक्नेछन्	-10.8832
▁आयोवा	-10.8833
▁विवादमा	-10.8833
▁अंकित	-10.8833
▁कारोबारको	-10.8836
▁स्वि	-10.8841
▁सदुपयोग	-10.8843
▁दवाब	-10.8843
▁अगावै	-10.8845
▁जान्ने	-10.8846
▁नदिई	-10.8846
▁गन्ती	-10.8846
▁अन्तर्	-10.8847
्पा	-10.8848
▁रुट	-10.8849
▁बजेसम्म	-10.8849
ुहुँदैन	-10.885
▁००	-10.885
३४	-10.8854
▁खोप	-10.8856
▁क्यारोलिना	-10.8856
्टा	-10.8859
▁साफ	-10.8861
▁काण्ड	-10.8862
▁बाँन्की	-10.8869
▁ट्रिगर	-10.887
▁नासा	-10.8871
▁सम्झौताको	-10.8879
▁व्यक्तिहरूको	-10.888
▁जुम	-10.888
▁सन्दूक	-10.8882
▁हमला	-10.8882
▁श्वास	-10.8882
▁टाउकोमा	-10.8884
त्रि	-10.8884
▁अण्डा	-10.8886
पाई	-10.8888
▁सघाउ	-10.8891
▁सङ्	-10.8894
▁निकायबाट	-10.8894
▁एजेण्डा	-10.8895
▁समस्याहरू	-10.8896
▁मस्जिद	-10.8908
▁पस्न	-10.8909
▁घन्टा	-10.8909
▁सभासद	-10.8909
दत्त	-10.891
▁पठाइएको	-10.891
▁संस्कृतिको	-10.8912
▁राउत	-10.8912
▁बनाउँदा	-10.8913
▁खाँ	-10.8916
▁न्युजिल्यान्ड	-10.8921
▁मनोविज्ञान	-10.8921
▁अर्पण	-10.8924
▁ढाकेको	-10.8925
▁पुरुषको	-10.8927
▁हिंड्न	-10.8934
▁विस्तारित	-10.8937
▁नाश	-10.8938
▁केबल	-10.8939
्यौँ	-10.894
▁आक्रोश	-10.8942
▁कन्टेन	-10.8946
▁वाहक	-10.8948
▁मुलुकबाट	-10.895
▁नभन	-10.8953
▁अशुद्ध	-10.8959
▁कान्छो	-10.8959
▁अचल	-10.896
रोह	-10.8963
▁सुत्न	-10.8967
▁प्रवेशद्वार	-10.8974
▁रोकियो	-10.8975
हरूबीच	-10.8978
▁आमालाई	-10.8979
▁स्मार्टफोन	-10.8986
▁मुद्रक	-10.8986
▁विनाशकारी	-10.8987
▁विश्वयुद्ध	-10.8989
▁प्रक्रियालाई	-10.899
▁भारतलाई	-10.8993
▁देखाएर	-10.8997
सिल	-10.8997
र्श	-10.8998
▁सापकोटा	-10.8998
▁२०६६	-10.8998
▁मेरोलागि	-10.8999
▁आयुक्त	-10.9001
▁जुवा	-10.9002
▁b	-10.9004
▁आयोगमा	-10.9007
तपाईं	-10.9008
▁हिंसाको	-10.9008
डीपी	-10.901
▁बर्दिया	-10.9011
▁आतङ्क	-10.9012
▁दिइन्	-10.9014
▁खड्काले	-10.9015
▁बोध	-10.9017
▁लिइरहेका	-10.9025
स्टो	-10.9029
▁रहेकाले	-10.9033
▁मानाङ्कन	-10.9038
▁थारू	-10.9039
▁भक्त	-10.904
विच	-10.904
▁दलहरूको	-10.9041
▁लिएपछि	-10.9041
िस्	-10.9042
▁पुग्नु	-10.9044
▁हुर्क	-10.9044
▁सद्भाव	-10.9045
वेश	-10.9046
▁चलाएको	-10.9049
रिज	-10.905
▁टेम्प्लेट	-10.905
▁फलस्वरूप	-10.9051
▁चलाए	-10.9052
ड्र	-10.9052
▁घुम्न	-10.9053
होर	-10.9054
▁आउँदैन	-10.9056
▁लाग्दा	-10.9059
▁स्वयंसेवक	-10.9061
▁गहुँ	-10.9064
▁तेरो	-10.9066
४६	-10.9069
प्रि	-10.907
▁डिसेम्बरमा	-10.9071
▁छाने	-10.9072
विध	-10.9075
▁सवाल	-10.9077
कोबारेमा	-10.908
▁उल्ट	-10.9081
▁तोक्ने	-10.9082
▁टाढाको	-10.9086
RA	-10.9086
▁छैन्	-10.9088
▁आयु	-10.9089
स्तरको	-10.909
▁बिर्सन	-10.909
▁याउन	-10.9093
▁अध	-10.9095
▁रिड	-10.9095
▁सोचें	-10.9098
▁प्रदर्शित	-10.9103
▁जोनाथन	-10.9103
▁हुदै	-10.9103
▁अन्तराष्ट्रिय	-10.9103
दास	-10.9104
▁६९	-10.9112
▁नून	-10.9113
▁रिजोल्युसन	-10.9116
▁भान्सा	-10.9116
▁भेट्ने	-10.9117
▁महाकाली	-10.9117
▁पुर्व	-10.9118
▁बनाइएका	-10.912
स्टिक	-10.9121
▁स्टेभ	-10.9122
▁जीव	-10.9124
▁भाउ	-10.9125
हृ	-10.9128
वृत्ति	-10.9128
▁विरामी	-10.913
▁तल्ला	-10.913
▁गाडीको	-10.9132
▁खेलेका	-10.9133
▁गिम्प	-10.9134
▁परेपछि	-10.9139
▁आक्रमणमा	-10.9141
▁अमृत	-10.9142
▁महाप्रबन्धक	-10.9143
द्वार	-10.9145
▁शाहले	-10.9151
▁लोकप्रियता	-10.9153
ाउदै	-10.9155
▁रुकुम	-10.9156
st	-10.9159
▁पाउँदा	-10.916
▁कुर्	-10.9162
▁निगमले	-10.9165
▁गुमाउन	-10.9165
▁पुर्याइ	-10.9165
▁तिर्नु	-10.9166
▁साहस	-10.9166
▁प्लस	-10.9166
▁पठाइ	-10.9169
▁कश्मीर	-10.9169
▁क्रुद्ध	-10.9169
▁नलिई	-10.9169
▁ट्रान्स	-10.9171
▁सहसचिव	-10.9171
▁कन	-10.9175
▁लोप	-10.9176
छिन्	-10.9177
▁तुल्याए	-10.9179
▁जताततै	-10.9182
▁ओर्	-10.9183
▁विष	-10.9184
▁पुरुषहरू	-10.9187
▁पतन	-10.9189
सके	-10.9192
▁तोक	-10.9193
▁क्याम्पसमा	-10.9194
▁फराकिलो	-10.9195
ेयर	-10.9195
▁लाभदायक	-10.9196
▁मिसाइल	-10.9196
▁कम्पनीमा	-10.9197
▁१९९८	-10.9197
▁यकिन	-10.9198
▁पाकिस्तानको	-10.9199
▁नपुगे	-10.92
४२	-10.92
▁मेची	-10.9201
▁बनाउँछन्	-10.9201
केा	-10.9201
गढ	-10.9206
▁महतो	-10.9208
▁उपर्युक्त	-10.9209
▁जै	-10.9209
▁फोर्ड	-10.9209
▁चलचित्रको	-10.9212
राखेको	-10.9216
णा	-10.9216
▁अर्काको	-10.9216
▁बाबा	-10.9217
्मी	-10.9217
▁मुख्यमन्त्री	-10.922
सू	-10.9222
▁चाहँदैनन्	-10.9226
▁निकालिएको	-10.923
र्दै	-10.9234
क्य	-10.9236
वीर	-10.9236
▁बताउनुभएको	-10.9237
▁फ्रे	-10.9237
▁एनसेल	-10.9237
▁थुनामा	-10.9238
▁राजेश	-10.9239
पेट	-10.924
▁प्रकृतिको	-10.9244
▁उपरीक्षक	-10.9249
▁बिभिन्न	-10.9249
▁परामिति	-10.9249
▁लागतमा	-10.9251
▁गरिदिन	-10.9254
ओटा	-10.9254
६९	-10.9257
▁शास्त्र	-10.9257
et	-10.9261
▁वैचारिक	-10.9262
▁बिक्रेता	-10.9262
▁नमुना	-10.9262
▁जापानमा	-10.9263
▁क्षेत्रले	-10.9264
ँडा	-10.9265
▁समस्त	-10.9269
हरी	-10.9269
▁भ्या	-10.927
▁पदबाट	-10.9275
▁गिरोह	-10.9276
▁पिक	-10.9276
▁आउट	-10.9277
▁ज्यादा	-10.9277
वाङ	-10.9279
डीए	-10.928
▁श्रोत	-10.9285
▁आयुर्वेद	-10.9289
▁मनासिब	-10.9289
ाइल	-10.9289
▁ल्याटिन	-10.9289
कट	-10.9289
▁उल्टाउन	-10.929
▁<0	-10.9291
ेरो	-10.9292
▁पक्षबाट	-10.9292
▁जनावरहरू	-10.9293
टिभ	-10.9297
ट्रो	-10.9297
▁रातभरि	-10.9299
▁त्यहीं	-10.9299
म्पा	-10.93
▁अनुपस्थित	-10.93
▁तो	-10.93
▁मनाङ	-10.9301
ांक	-10.9302
▁साग	-10.9302
▁सम्वन्ध	-10.9304
▁८३	-10.9305
मू	-10.9308
▁हाँसो	-10.9309
▁भन्नुभएको	-10.9312
▁बुँदा	-10.9317
▁गाउं	-10.9318
▁कट्टी	-10.9318
लान्	-10.9319
▁फेरी	-10.932
▁अक्स	-10.9322
▁घिमिरेले	-10.9323
▁सरस्वती	-10.9329
▁मानेर	-10.9331
▁m	-10.9336
▁खारेजी	-10.9338
▁ग्राहकहरूलाई	-10.9339
▁काज	-10.9341
▁जनशक्तिको	-10.9342
▁युट्युब	-10.9342
▁कम्तिमा	-10.9343
अल	-10.9346
▁तामा	-10.9346
▁७७	-10.9347
▁फर्केका	-10.9349
▁सिक्का	-10.935
▁कुर्सी	-10.9351
▁देखेमा	-10.9351
▁डोटी	-10.9352
▁हुन्थे	-10.9353
▁गराउँदै	-10.9356
▁सुब्बा	-10.9358
गोल	-10.9365
▁दाखिला	-10.9365
▁गर्छिन्	-10.9365
▁तथापि	-10.9365
▁बढाए	-10.9367
▁युद्धविराम	-10.9369
▁औँ	-10.9371
▁आएकी	-10.9374
▁ज्ञानी	-10.9375
▁लेन्स	-10.9377
▁समस्यालाई	-10.938
▁भेटिए	-10.938
▁म्युजिक	-10.9383
▁फेल	-10.9383
▁पन्छ	-10.9383
▁क्याप्स	-10.9383
▁चाँडो	-10.9384
▁अभियुक्त	-10.9384
ुक्क	-10.9385
▁आवेदन	-10.9385
▁निबन्ध	-10.9388
▁वासिङ्टनमा	-10.9388
▁अमेरिकाका	-10.939
तिमीले	-10.939
▁गर्नुहुनेछ	-10.939
▁मानन्धर	-10.9397
▁जापानको	-10.9397
▁प्रतिशतसम्म	-10.9398
कार्ड	-10.94
०९	-10.94
हरुसँग	-10.9403
ुहुन्थ्यो	-10.9405
▁अन्तरवार्ता	-10.9407
▁अरूलाई	-10.9409
▁पूर्वावस्था	-10.941
▁बिषय	-10.9411
▁निद्रा	-10.9412
▁समात्ने	-10.9413
▁बन्नु	-10.9415
▁एड्स	-10.9418
न्जा	-10.9419
▁हेलिकोप्टर	-10.9424
पुर्खाहरू	-10.9424
▁ओछ्यान	-10.9424
▁गर्मी	-10.9431
▁त्य	-10.9434
▁पाइला	-10.9436
▁प्रोटोकल	-10.9437
▁शिक्षित	-10.9438
▁आर्ट	-10.9439
▁गाविसका	-10.9442
्खा	-10.9443
महान्यायाधिवक्ता	-10.9451
▁समाजसेवी	-10.9451
▁सकियो	-10.9454
▁१९८०	-10.9455
▁जोडामा	-10.9456
तत	-10.9458
▁हलमा	-10.9462
▁ताप्लेजुङ	-10.9464
▁सोधपुछ	-10.9464
जेट	-10.9466
▁याउने	-10.9469
▁भूमिकामा	-10.9473
▁हामीकहाँ	-10.9473
राह	-10.9474
▁७४	-10.9475
▁बर्न	-10.9476
▁परिपक्व	-10.9478
▁धनुषा	-10.9478
▁कोर्न	-10.9478
▁चम्क	-10.9479
स्ने	-10.9486
भेट	-10.9486
▁ब्रह्म	-10.9487
▁समुद्रपार	-10.9488
▁जेफ	-10.9489
▁असाधारण	-10.9492
▁रोकिए	-10.9493
▁शिफ्ट	-10.9494
▁बोक	-10.9496
▁छोरालाई	-10.9497
ओस्	-10.9497
िएन	-10.95
▁लेखिए	-10.9503
▁पब्लिक	-10.9505
▁नदिएको	-10.9506
▁गुप्ता	-10.9506
सम्बन्धित	-10.9507
िदिनु	-10.9508
▁कार्ययोजना	-10.9512
▁दर्	-10.9513
छि	-10.9516
भरी	-10.9518
▁गम्भीरतापूर्वक	-10.9521
िरहन	-10.9522
▁डोर	-10.9522
सम्बन्ध	-10.9524
टेन	-10.9527
▁वाइ	-10.9528
▁बोर्डका	-10.9529
ीम	-10.9531
▁फारम	-10.9531
▁ज्वरो	-10.9533
▁अनभिज्ञ	-10.9533
▁गराइ	-10.9533
▁अनुग्रह	-10.9533
▁कारक	-10.9534
▁गुमायो	-10.9535
▁भित्ता	-10.9535
▁काँसा	-10.9537
▁फुक	-10.9538
▁सम्मेलनको	-10.9539
इड	-10.9541
हाउस	-10.9541
▁ऋतुमा	-10.9541
▁क्ल	-10.9543
▁गार्हस्थ्य	-10.9547
▁पुरातात्विक	-10.9547
▁फाउण्डेशन	-10.9547
▁सेनापति	-10.955
▁२०२०	-10.9552
▁पारा	-10.9555
स्य	-10.9555
▁नगर्नु	-10.9559
ठूला	-10.9563
▁बाँस	-10.9564
▁तीर्थ	-10.9564
▁स्थिरता	-10.9564
▁देशबीच	-10.9567
▁भूकम्पले	-10.9568
▁टोनी	-10.9572
▁स्टुडियो	-10.9574
▁असहज	-10.9574
▁भैरहेको	-10.9575
▁अप्रत्यक्ष	-10.9575
▁डिजाइनर	-10.9576
कुण्ड	-10.9576
▁भजन	-10.9576
▁गराउनेछ	-10.9577
▁ग्रान्ड	-10.9581
हू	-10.9583
मूल	-10.9584
▁अँ	-10.9585
▁अयोग्य	-10.9588
▁उन्मूलन	-10.9588
▁लज्जित	-10.9588
▁खडेरी	-10.9588
▁सिंचाइ	-10.9588
▁समानान्तर	-10.9589
▁निन्दा	-10.9592
▁मान्छेले	-10.9593
▁बस्दा	-10.9593
▁लाश	-10.9596
▁छुट्याए	-10.9597
▁ग्याल	-10.9598
▁बिहानै	-10.96
▁अध्यादेश	-10.9602
▁पुरूष	-10.9602
▁बूढापाका	-10.9602
▁२०६१	-10.9602
▁अल्पकालीन	-10.9602
▁खर्चमा	-10.9613
▁उहां	-10.9613
▁अतिक्रमण	-10.9616
ोक	-10.9616
▁भरतपुर	-10.9618
▁सक्नुपर्छ	-10.9619
वस्था	-10.9621
▁माउन्ट	-10.9623
▁शान्तिको	-10.9627
▁इच्छुक	-10.9629
▁निरपेक्ष	-10.9629
▁मेस्सी	-10.9629
▁कपिलवस्तु	-10.9629
▁नदि	-10.963
▁पश्चात	-10.963
पाटी	-10.9632
▁सहमतिमा	-10.9632
▁आफन्तहरू	-10.9633
▁दिइए	-10.9634
▁हेर्दै	-10.9635
▁उद्यम	-10.9638
▁कुरै	-10.9639
▁छोडेका	-10.964
▁पाई	-10.9642
▁जानकारीका	-10.9643
अनुक्रमणिका	-10.9643
रोड	-10.9645
▁बासिन्दाहरू	-10.9649
▁महेश	-10.965
पूर	-10.965
▁पर्नु	-10.9652
▁ग्ल	-10.9653
ौरा	-10.9654
▁टोपी	-10.9655
▁सरोकार	-10.9656
▁शेल	-10.966
▁समर्थकहरू	-10.9661
▁तराईमा	-10.9662
▁बसन्त	-10.9663
▁रोम	-10.9664
▁लाग्नेछ	-10.9665
▁भवनमा	-10.9665
▁बाँचे	-10.9669
▁राप्ती	-10.9671
▁गिरिजाप्रसाद	-10.9672
▁उद्योगलाई	-10.9674
▁ठिक	-10.9676
वेद	-10.9676
▁एकदम	-10.9677
▁बराबरी	-10.9678
ोले	-10.9678
बोल	-10.9682
▁कुशल	-10.9682
▁दक्षिणपूर्वी	-10.9685
▁बागमती	-10.9685
▁लिनुपर्ने	-10.9687
▁आँखामा	-10.969
▁बाबुको	-10.9694
▁पुस्तिका	-10.9694
ज्ज	-10.9696
फेयर	-10.9698
ग्रह	-10.9699
▁अष्ट्रेलियन	-10.9699
▁जिज्ञासा	-10.9699
▁योजनावधि	-10.9699
अमेरिकी	-10.9701
▁उपग्रह	-10.9703
▁ढुंगा	-10.9705
▁मस्को	-10.9709
▁माफ	-10.9709
▁ज्येष्ठ	-10.9713
▁खुम्च	-10.9713
▁म्यानचेस्टर	-10.9713
प्ल	-10.9714
▁व्यापारीहरू	-10.9714
▁पृथ्वीनारायण	-10.9715
गेल	-10.9717
्याउँदै	-10.9718
▁न्यायको	-10.9718
▁बढि	-10.9719
▁मन्त्रीले	-10.9719
▁हेटौंडा	-10.972
▁ल्याई	-10.9722
▁देख्यो	-10.9722
▁उपायहरू	-10.9726
▁लिन्ड	-10.9726
▁मकहाँ	-10.9727
▁लक्ष्मण	-10.9727
▁सिन्धुपाल्चोक	-10.9727
▁विनियम	-10.9727
▁दाँत	-10.9727
▁ताराहरू	-10.9727
▁नागरिकहरू	-10.9729
अभि	-10.9732
▁थप्ने	-10.9733
▁रोज्न	-10.9735
it	-10.9737
बिल	-10.9739
▁दाऊदलाई	-10.9741
ण्डर	-10.9741
▁दुवैले	-10.9743
म्या	-10.9743
ोल्ड	-10.9745
▁जसमध्ये	-10.975
▁मुलुकले	-10.9751
न्डो	-10.9751
हिरो	-10.9754
▁सर्लाही	-10.9755
▁सुडान	-10.9755
▁लोकगीत	-10.9755
ँगा	-10.9763
▁निम्त	-10.9764
▁सार्ने	-10.9767
धारण	-10.9768
▁उत्थान	-10.9769
▁शमूएल	-10.9769
▁इजलास	-10.9769
▁निस्किए	-10.9775
झै	-10.9776
▁८६	-10.9776
▁जात्रा	-10.9777
▁पंखेटा	-10.9783
▁सुरेन्द्र	-10.9784
▁आफनो	-10.9784
▁मन्त्रीहरू	-10.9786
▁कृपा	-10.9786
▁प्रदेशमा	-10.9787
▁प्रख्यात	-10.9797
▁वकालत	-10.9797
▁सम्पत्तिमा	-10.9805
▁अझ्	-10.9805
▁धर	-10.9809
▁बुझाइ	-10.981
लान	-10.981
▁कृत्रिम	-10.9811
३८	-10.9813
▁g	-10.9817
▁बचाउनु	-10.9818
▁सत्रमा	-10.9818
▁थाक	-10.9818
▁टीका	-10.9821
▁खनालले	-10.9825
▁बाल्यकाल	-10.9826
▁झि	-10.9826
▁प्रशंसकहरू	-10.9826
▁त्यहीँ	-10.9827
निङ	-10.9829
▁दृष्टिकोणबाट	-10.9832
▁प्राथमिकतामा	-10.9834
कल्प	-10.9837
▁ध्यानाकर्षण	-10.9839
▁सकिदैन	-10.984
शिल	-10.9841
ईं	-10.9843
▁मित्रता	-10.9844
बान	-10.9845
ंदै	-10.9845
▁पक्का	-10.9846
▁आईटी	-10.9847
▁जलविद्युत	-10.9848
पिन	-10.9849
िदिन्छ	-10.9852
इन्ड	-10.9852
▁आतङ्कवाद	-10.9852
▁केदार	-10.9853
▁लुटे	-10.9855
▁केटाहरू	-10.9855
▁रोके	-10.9858
▁बालबालिकाहरू	-10.9861
▁मुखमा	-10.9862
▁आचार्यले	-10.9863
▁पत्रकारहरू	-10.9864
▁किसानले	-10.9865
▁रेखाचित्र	-10.9869
▁आर्य	-10.9871
▁कार्यशाला	-10.9874
▁अश	-10.9875
▁राजन	-10.9877
टीभी	-10.988
▁बिर्स	-10.9881
ूत	-10.9882
▁स्वायत्त	-10.9884
▁फिड	-10.9888
▁दशकदेखि	-10.9891
....	-10.9893
▁ब्राण्ड	-10.9894
▁लुटपाट	-10.9896
▁भविष्यको	-10.9897
▁भाडामा	-10.9902
▁देख्छन्	-10.9905
!"	-10.9905
चीन	-10.9908
▁जड	-10.9912
साथै	-10.9913
▁त्यहा	-10.9914
▁पांच	-10.9914
▁तेर्सो	-10.9916
▁युरो	-10.9916
▁लिनुहोस्	-10.9919
▁चाँहि	-10.9923
▁एचआईभी	-10.9925
▁मनोनित	-10.9925
▁सन्तोषजनक	-10.9925
▁रंगशाला	-10.9925
ांग	-10.9925
▁पुरानै	-10.9927
▁संयोग	-10.9928
क्षक	-10.9931
▁...............	-10.9932
▁दोहोर्याउन	-10.9933
.........	-10.9933
▁सट्टामा	-10.9933
▁मोर्चाले	-10.9935
▁ताका	-10.9935
www	-10.9942
▁समेट	-10.9942
▁तान्ने	-10.9943
▁क्षमतामा	-10.9944
▁रहर	-10.9944
▁अधिकारीहरु	-10.9947
खाल	-10.9947
▁पच्चीस	-10.9953
▁यौनसम्पर्क	-10.9953
▁२०६३	-10.9953
▁देखाएका	-10.9954
नेछन्	-10.9954
▁भण्डारमा	-10.9954
▁ह्यु	-10.9956
रहरूले	-10.9958
▁श्रेष्ठको	-10.9959
▁जोर	-10.9959
▁आयल	-10.996
▁८७	-10.9961
▁उठेर	-10.9962
स्कर	-10.9962
▁मोटोपन	-10.9964
▁चुक	-10.9967
▁असन्तुलन	-10.9968
▁निगरानी	-10.9968
▁मेट्रोपोलिटन	-10.9968
▁खाडल	-10.9968
▁बेग्लै	-10.9968
▁०५९	-10.9971
अनुरूप	-10.9972
▁मान्छेको	-10.9974
▁देखिएन	-10.9978
▁तीनै	-10.9979
▁कारबाहीमा	-10.998
व्यवस्था	-10.9981
▁चाहनु	-10.9981
्यता	-10.9983
▁सेक्स	-10.9984
▁हटाए	-10.9985
▁साहित्यको	-10.9985
▁बृहत्	-10.9986
▁गायन	-10.9986
▁विहान	-10.999
▁अनिल	-10.9995
▁न्युजर्सी	-10.9996
टेक	-10.9997
▁अरामका	-10.9997
ल्या	-11
्टे	-11.0003
ाइसकेको	-11.0005
विक्रम	-11.0008
▁न्यायाधीशले	-11.0008
्लि	-11.0008
रियो	-11.0009
▁दस्तखत	-11.0011
▁उचाई	-11.0011
▁आफ	-11.0011
▁परियोजनामा	-11.0013
कता	-11.0016
▁व्यापारमा	-11.0016
▁प्रतिवेदनअनुसार	-11.002
▁अष्ट	-11.002
▁ब्य	-11.0024
▁राजनीतिज्ञहरू	-11.0024
▁मुम्बई	-11.0025
▁लचिलो	-11.0025
▁भिडन्त	-11.0026
सरह	-11.0026
▁अनिश्चित	-11.0026
▁उनकै	-11.0028
▁कार्यकर्ताहरु	-11.0028
▁काठको	-11.0029
▁सामु	-11.0031
दर्शन	-11.0031
न्टा	-11.0031
▁पार्टीभित्र	-11.0035
▁सुलेमानले	-11.0035
▁स्त्रीहरू	-11.0037
▁SOURCE	-11.004
▁ब्लु	-11.004
▁एन्फा	-11.004
कुरा	-11.0044
▁हराउन	-11.0044
राष्ट्रिय	-11.0045
▁जुलाईमा	-11.0046
▁प्राप्ताङ्कित	-11.0047
दायी	-11.0047
▁पठाएका	-11.0051
▁पर्छन्	-11.0052
▁विद्यालयले	-11.0053
▁उत्तरदायित्व	-11.0054
▁जरिबाना	-11.0054
▁मर्म	-11.0055
▁टगल	-11.0057
▁मणि	-11.0068
▁आदानप्रदान	-11.0069
▁बेचबिखन	-11.0069
▁अग्नि	-11.0069
▁बोलपत्रदाता	-11.007
▁प्रिन्स	-11.0075
▁क्याट	-11.0078
विरोधी	-11.0083
▁काभ्रे	-11.0083
▁स्टेफन	-11.0083
▁समेतलाई	-11.0089
▁अदालतबाट	-11.0091
▁घट्दै	-11.0096
▁आँगन	-11.0098
उस	-11.0099
▁डोरी	-11.0103
▁जितेर	-11.0107
▁महिलाहरूले	-11.0109
▁सिरिया	-11.011
▁आईडी	-11.0112
६८	-11.0112
ग्रि	-11.0112
लार्ई	-11.0113
▁घा	-11.0115
ब्ब	-11.0115
स्रोत	-11.0118
▁बोलाएर	-11.0118
▁घु	-11.0118
▁सकिए	-11.0119
▁टर्कीश	-11.012
▁नवौं	-11.012
▁सङ्कटकाल	-11.0123
ेटर	-11.0123
▁सदस्यहरूको	-11.0125
▁नलाग्ने	-11.0129
▁पात्रो	-11.0132
▁दुर्भाग्यवश	-11.0133
▁जीवनका	-11.0134
▁सुन्नु	-11.0136
▁प्रतिपक्ष	-11.0139
वरण	-11.014
▁घटनाले	-11.0141
▁सिंचाई	-11.0141
▁दोलखा	-11.0141
▁एघार	-11.0141
▁फरवार्ड	-11.0141
▁पाउँ	-11.0141
▁थाइल्यान्ड	-11.0142
▁किनार	-11.0142
▁मरूभूमि	-11.0149
▁हिड	-11.0149
▁अभियोग	-11.015
▁लगाउँदै	-11.015
▁भात	-11.0151
▁फ्यान	-11.0154
▁स्रष्टा	-11.0156
▁हप्ताको	-11.0159
श्च	-11.0161
▁निवृत्ति	-11.0162
▁क्रि	-11.0162
▁राजु	-11.0163
▁एन्टी	-11.0164
प्ले	-11.0165
▁विधेयकमा	-11.0169
▁अर्धव्यापक	-11.0171
▁गुमाएको	-11.018
भाइहरू	-11.018
▁ठाउँबाट	-11.018
▁किशोरी	-11.0182
▁मोडमा	-11.0183
▁सर्वशक्तिमान	-11.0185
▁साविक	-11.0189
▁आउँ	-11.0192
▁भूल	-11.0192
▁हुनुभयो	-11.0193
श्रम	-11.0195
त्रो	-11.0196
▁भेटी	-11.0197
ग्राफ	-11.0198
▁डब्ल्यूएस	-11.0199
मेर	-11.02
▁नहोस्	-11.02
▁सङ्घर्ष	-11.02
▁चिज	-11.0203
ये	-11.0204
लगत्तै	-11.0206
▁शब्दको	-11.021
▁पेन्सन	-11.0212
▁प्रिमियम	-11.0214
▁रूपैयाँ	-11.0214
▁चढे	-11.0217
▁उद्योगले	-11.0221
हरुमध्ये	-11.0223
▁किनारामा	-11.0229
▁योजनाहरू	-11.0229
▁शुभकामना	-11.0229
▁विकासोन्मुख	-11.0232
हजार	-11.0236
▁फाइनल	-11.0239
सिङ	-11.024
त्स	-11.0243
▁लागेपछि	-11.0243
▁पुनर्रसंरचना	-11.0244
▁भैंसी	-11.0244
▁यम	-11.0244
र्द	-11.0245
▁हार्ड	-11.0246
७६	-11.0249
पक	-11.0249
न्ती	-11.0254
▁काटे	-11.0256
▁बर्मा	-11.0257
क्सी	-11.0258
▁शासनको	-11.0258
तारा	-11.026
▁तिवारी	-11.026
भू	-11.0264
▁जुटाउन	-11.0264
▁बिताउन	-11.0266
▁बत	-11.0268
्ा	-11.0269
्यायो	-11.0269
▁मुल्य	-11.0269
▁उमा	-11.027
▁लेख्नु	-11.0273
ुद	-11.0288
▁आउँदै	-11.0289
▁८४	-11.0303
▁पलायन	-11.0303
▁असूल	-11.0304
▁कं	-11.0306
लास	-11.0309
त्र्चाइ	-11.031
्सको	-11.031
▁व्यवसायीहरूले	-11.031
▁धान्न	-11.0312
▁सामग्रीको	-11.0312
धर	-11.0316
▁लगाइ	-11.0316
▁महामारी	-11.0318
भूत	-11.0322
शहर	-11.0323
▁कमैया	-11.0328
दू	-11.033
ुभएन	-11.0332
▁बिन्यामीन	-11.0333
▁होमबलि	-11.0333
▁नमिल्ने	-11.0333
▁महालेखा	-11.0333
▁मेहनत	-11.0333
▁गरिनेछन्	-11.0333
परराष्ट्रमन्त्री	-11.0334
अन	-11.0337
योजना	-11.0337
▁सहजै	-11.0338
▁उनै	-11.0341
de	-11.0342
▁नख	-11.0345
▁f	-11.0345
कोष	-11.0349
▁हुनेछौ	-11.035
्याएको	-11.0351
▁आगत	-11.0358
७५	-11.0362
▁श्रृंखलामा	-11.0363
▁अग्रगामी	-11.0363
ट्या	-11.0364
▁एक्लो	-11.037
▁२०६०	-11.037
पश्चिम	-11.0371
▁देशबाट	-11.0372
▁एफएम	-11.0375
▁गोर्डन	-11.0377
▁शिमोन	-11.0379
▁युवाहरूलाई	-11.0381
िन्थ्यो	-11.0382
▁उपयोगिता	-11.0382
▁अवि	-11.0382
▁रोजगारीका	-11.0383
▁कार्यसमिति	-11.0384
▁क्षणमा	-11.0388
विन्दु	-11.0389
▁निरुत्साहित	-11.0392
▁अस्थिर	-11.0395
▁लिनेछ	-11.0395
▁हाते	-11.0396
सेज	-11.0397
▁कम्पनीहरूलाई	-11.0402
▁पराए	-11.0403
▁समूहबाट	-11.0407
▁सन्तुलित	-11.0407
▁गहिराइ	-11.0408
ग्री	-11.041
▁संघसंस्था	-11.041
▁मार्क्स	-11.0411
▁अदालतका	-11.0414
▁झनै	-11.0415
▁७९	-11.0416
▁काँधमा	-11.0416
▁खोज्छ	-11.0418
बर्न	-11.042
▁मोहमद	-11.0422
▁सङ्ख्यामा	-11.0424
▁बल्ल	-11.0425
▁प्रशासकीय	-11.0426
▁हत्यारा	-11.0427
▁फर्किएका	-11.0427
▁सुदूर	-11.0428
▁दिनभरि	-11.0429
▁साहित्यमा	-11.0429
▁सन्देशहरू	-11.043
▁चुरे	-11.0432
▁प्रश्नमा	-11.0433
▁दबाबमा	-11.0435
▁अभिभावकहरू	-11.0435
▁निकालेको	-11.0436
ालो	-11.0437
▁बाटा	-11.0437
▁जहिले	-11.0437
▁कथन	-11.0438
िसकेपछि	-11.0439
▁संसारका	-11.0439
गुन	-11.0442
▁जोडेर	-11.0444
▁महरा	-11.0446
▁समग्रमा	-11.0447
▁स्तरका	-11.0448
▁वढ	-11.0451
▁प्रभा	-11.0452
▁वृ	-11.0452
▁सुनौलो	-11.0452
ंगी	-11.0452
▁नजिकका	-11.0455
ौला	-11.0456
▁देशभित्र	-11.0457
▁छोए	-11.0458
प्रमुख	-11.046
गाई	-11.0462
▁मार्गमा	-11.0466
▁अध्यापन	-11.0467
▁विनम्र	-11.0467
▁ट्राभल	-11.0468
ट्रा	-11.0472
▁एनआरएन	-11.0472
▁अं	-11.0473
▁नियमावलीमा	-11.0473
▁टेवा	-11.0473
▁झर्न	-11.0476
चौ	-11.0477
▁निकालेर	-11.0477
▁कार्यकर्ताहरूले	-11.0478
ायल	-11.0481
▁अछाम	-11.0483
▁कथामा	-11.0483
मति	-11.0496
▁बोनस	-11.0496
च्छा	-11.0497
▁ब्याट्सम्यान	-11.0498
▁मुस्कान	-11.0498
▁सफलताको	-11.0499
▁d	-11.0499
▁धारण	-11.05
▁राष्ट्रका	-11.0502
▁डलरबाट	-11.0506
▁पाएर	-11.0507
▁गाविसको	-11.051
▁बढ्नु	-11.051
परिषद्	-11.0511
▁सेन्सर	-11.0513
▁डिजेल	-11.0514
▁वरिपरिका	-11.0515
ब्या	-11.0516
गति	-11.0516
▁खोजेका	-11.0517
क्रममा	-11.0517
▁शिक्षकहरू	-11.0518
▁जर्	-11.0522
▁जोनसन	-11.0522
▁नसकेमा	-11.0523
▁जर्जिया	-11.0523
▁भाँचिए	-11.0525
▁वार्तालाप	-11.0528
▁सुदूरपश्चिम	-11.0528
▁बेनामी	-11.0528
▁सर्वप्रथम	-11.0529
▁वर्गका	-11.0531
▁मिलाउने	-11.0532
▁कृष्णप्रसाद	-11.0534
▁भनेपछि	-11.0534
▁हटाउनुहोस्	-11.0535
बीएस	-11.0538
▁दुख्ने	-11.0538
▁अली	-11.0539
बत	-11.054
▁आईपीहोन	-11.0543
▁फरार	-11.0547
▁फाइनलमा	-11.0549
संसद	-11.0552
ानन्द	-11.0554
▁एलान	-11.0554
▁तिनीहरुले	-11.0555
▁अर्थशास्त्र	-11.0557
▁गैंडा	-11.0558
▁अर्थतन्त्रलाई	-11.0559
▁मिल्दो	-11.0564
▁फर्काए	-11.0565
▁घट्यो	-11.0568
बरी	-11.0569
▁विश्वकर्मा	-11.0573
फिक	-11.0574
▁रोबोट	-11.0575
▁भगवान्	-11.0576
ाही	-11.0576
ट्यु	-11.0576
▁दुइवटा	-11.0577
▁परिवर्तनहरू	-11.0578
धाम	-11.0578
▁तरीका	-11.058
समिति	-11.0586
वंश	-11.0586
▁खोटाङ	-11.0586
हेल	-11.0587
es	-11.0588
▁देवकोटा	-11.0589
▁शार	-11.0591
▁हुनुहुन्न	-11.0594
▁गोठ	-11.0594
▁चौडा	-11.0596
तान	-11.0598
स्वा	-11.06
▁हालेर	-11.0603
▁यसकालागि	-11.0603
▁स्वास्नी	-11.0604
▁पाइँदैन	-11.0604
जिङ	-11.0605
▁पुर्याउँछ	-11.0605
▁काठमाडौ	-11.0606
▁अल्प	-11.0608
▁संरचनामा	-11.0611
एउटा	-11.0613
▁संस्थाहरूले	-11.0613
▁थप्यो	-11.0614
▁टर्न	-11.0618
ल्म	-11.0619
▁अन्तर्राष्टि्रय	-11.0619
▁चेल्सी	-11.0619
▁दरबन्दी	-11.0622
ज्ञा	-11.0622
▁सकिन	-11.0623
▁टाढ	-11.0625
▁स्ल	-11.0629
निम्ति	-11.0635
▁दाग	-11.0636
▁छोड्नु	-11.0636
▁भैसकेको	-11.0636
▁१९९७	-11.0636
▁रसुवा	-11.0637
▁गृहकार्य	-11.0638
▁७००	-11.0642
▁हस्त	-11.0643
▁कमाउने	-11.0645
▁कलहरू	-11.0645
▁होटेल	-11.0648
वुड	-11.0649
▁बोल्नु	-11.0653
▁खेल्दै	-11.0654
▁बेक	-11.0655
नियाँ	-11.0655
▁नच	-11.0658
र्ुपर्छ	-11.0659
▁राष्ट्रवादी	-11.0663
पालन	-11.0663
▁वास्तुकला	-11.0665
▁सहकर्मी	-11.0666
▁मोदीको	-11.0668
▁भवनको	-11.0669
▁फैलाउन	-11.0679
▁बनाउँदछ	-11.0683
▁दाल	-11.0688
▁सोच्नु	-11.069
▁हुनै	-11.0694
▁संक्रमित	-11.0696
▁स्क्रीन	-11.0696
▁साहसी	-11.0696
▁क्षतिग्रस्त	-11.0698
▁तरलता	-11.0702
फु	-11.0708
▁लय	-11.0711
▁रेमिटेन्स	-11.0712
▁गोठाला	-11.0712
▁जीप	-11.0713
▁निक्कै	-11.0713
▁रोए	-11.0714
▁सधै	-11.0714
▁मिलेको	-11.0715
लार्इ	-11.0715
▁तीव्रता	-11.0716
▁सञ्चारकर्मी	-11.0716
रोन	-11.072
▁९८	-11.0723
▁फ्रेड	-11.0725
▁झ्न्	-11.0725
▁अपनाए	-11.0725
▁जमानत	-11.0727
▁गाजा	-11.0728
▁फिलिपि	-11.0729
▁आयोजनाहरुको	-11.0731
▁छोरीलाई	-11.0731
▁समाजलाई	-11.0731
फिन	-11.0735
ाईएको	-11.0738
▁गरिदिने	-11.0738
ोफ	-11.0741
▁पुस्तकहरू	-11.0742
▁आवधिक	-11.0742
▁अगाडी	-11.0742
▁लिम्बु	-11.0745
▁दाजुभाइ	-11.0747
▁पेसा	-11.075
▁पाँचजना	-11.075
सेना	-11.075
▁क्लो	-11.0752
▁हेरी	-11.0755
▁कभरेज	-11.0758
▁जनचेतना	-11.0758
▁अनिश्चितता	-11.0758
▁क्रियाकलापमा	-11.0759
▁प्रयोगकर्ताले	-11.076
▁रोयटर्स	-11.0762
▁किन्ने	-11.0762
▁नियोग	-11.0763
▁ठाउँको	-11.0764
▁क्वि	-11.0764
ाइदिने	-11.0771
▁समयपछि	-11.0772
▁उपज	-11.0773
▁पाक	-11.0773
षित	-11.0773
▁सिपाही	-11.0773
▁औंल्याए	-11.0774
पत्रमा	-11.0775
▁सिस्टम	-11.0775
▁कलाकारहरू	-11.0777
▁स्वास्थ्यकर्मी	-11.0788
▁शुरुमा	-11.0788
▁मङ्सिर	-11.0789
▁सरसफाई	-11.0789
▁८२	-11.0789
पर्छ	-11.0791
▁नहु	-11.0792
▁टुंगो	-11.0793
इक	-11.0803
▁पूजाहारीले	-11.0803
पछी	-11.0804
▁सानै	-11.0809
▁बद्	-11.0809
▁छिर	-11.0809
▁सक्दिनँ	-11.081
▁गगन	-11.0814
्याह	-11.0815
▁छात्रा	-11.0815
▁कसको	-11.082
▁गएँ	-11.082
▁धितोको	-11.082
▁दार्जीलिङ	-11.082
▁तिहार	-11.0822
▁मानचित्र	-11.0823
पेड	-11.0825
▁बोलाउने	-11.0827
▁उपदेश	-11.0828
▁बढाउनु	-11.0833
▁कीरा	-11.0833
▁निस्कन्छ	-11.0837
ारो	-11.0838
▁नदेखिए	-11.0839
▁उपचारकालागि	-11.0841
▁रोपनी	-11.0842
बर्ट	-11.0842
▁बताउन	-11.0843
▁यज्ञ	-11.0843
▁पसलमा	-11.0846
्लिन	-11.0847
िथ	-11.0848
▁गल्ली	-11.085
▁रोजगारीको	-11.085
▁चराचुरुङ्गी	-11.0851
इँ	-11.0852
▁दर्जनभन्दा	-11.0852
▁क्रोधित	-11.0857
प्ट	-11.0857
रेस	-11.0863
शाला	-11.0864
▁धूप	-11.0866
▁संसाधन	-11.0867
▁भूइँ	-11.087
▁उदयपुर	-11.087
▁पूर्वावलोकन	-11.087
▁उम्मेदवारी	-11.0871
▁अनाथ	-11.0874
▁बस्तीमा	-11.0874
▁तिब्बती	-11.0875
▁उहाले	-11.0881
▁सहायताको	-11.0883
▁एसोसिएसन	-11.0883
▁दयालु	-11.0885
▁लेखी	-11.0886
्दैछ	-11.0888
▁उड्ने	-11.089
▁साथीहरु	-11.0892
▁लेक	-11.0894
ूल	-11.0896
ES	-11.09
▁कस्ता	-11.0902
▁स्वामी	-11.0902
▁खालि	-11.0905
▁रहेन	-11.0906
▁जन्मेको	-11.0909
▁पटेल	-11.0909
▁दाना	-11.091
▁सोक्स	-11.091
▁क्रमिक	-11.091
▁स्रोतबाट	-11.0914
▁सँधै	-11.0914
▁छोराछोरीलाई	-11.0916
▁प्रतिस्पर्धामा	-11.0918
▁बचाउने	-11.0923
▁भूकम्पपछि	-11.0926
हुन	-11.0926
शास्त्री	-11.0928
▁मनोज	-11.0929
ेक्ट	-11.0929
▁त्यसकालागि	-11.093
▁जिनोम	-11.0931
बिर	-11.0931
▁सार्दै	-11.0931
ic	-11.0933
▁खरेल	-11.0933
▁मुस्ताङ	-11.0935
४१	-11.0936
▁पत्रकारहरु	-11.0936
▁घट्न	-11.0938
▁नेपालगन्ज	-11.0938
▁समातेर	-11.094
▁सक्थें	-11.0943
▁कसुर	-11.0944
▁दुध	-11.0946
HINGTON	-11.0946
▁मध्यस्थता	-11.0953
फाइल	-11.0954
सेन्ट	-11.0959
▁स्पट	-11.0961
▁घर्ती	-11.0961
▁अपनाउनु	-11.0961
▁लाइब्रेरी	-11.0962
▁अभिवादन	-11.0962
▁फ्रान्सिस्को	-11.0962
▁नजरबन्द	-11.0965
▁हरायो	-11.0966
▁सोम	-11.0966
▁भर्ने	-11.0966
CN	-11.0969
र्ब	-11.0972
▁ब्राउजर	-11.0974
▁खड्ग	-11.0978
▁तराईका	-11.098
नीति	-11.0981
६५	-11.0982
इज	-11.0984
▁फिल्डमा	-11.0985
▁गधा	-11.0987
▁बडा	-11.0988
शेर	-11.0988
्यै	-11.0989
▁योजनाकालमा	-11.099
ाउन्ड	-11.0992
▁इटहरी	-11.0993
ST	-11.1
▁जीउ	-11.1005
ञ्जेल	-11.1009
▁अन्धकार	-11.1009
▁उपप्रधानमन्त्री	-11.1012
▁अफगान	-11.1012
५८	-11.1012
▁अस्पतालका	-11.1014
▁चेत	-11.1014
▁रावल	-11.1015
▁पद्म	-11.1015
▁सकिनँ	-11.1016
▁आफैँले	-11.1021
▁तरल	-11.1022
▁एलीशा	-11.1026
क्सि	-11.1026
▁कुञ्जीपाटी	-11.1027
▁बुझ्नु	-11.1027
▁सहारा	-11.1027
लाख	-11.1032
▁विश्वविद्यालयले	-11.1035
//	-11.1036
▁कार्यक्षेत्र	-11.1037
▁भेनेजुएला	-11.1041
▁सामुन्ने	-11.1041
▁बढावा	-11.1041
▁हिउँद	-11.1041
▁डेमोक्र्याट	-11.1042
▁अन्नपूर्ण	-11.1046
▁बताउँछ	-11.1046
▁सदनमा	-11.1047
▁आदेशकर्ता	-11.1048
क्वि	-11.1051
त्र्	-11.1051
▁जसबाट	-11.1055
▁हिर्क	-11.1056
यि	-11.1056
िदियो	-11.1056
संघ	-11.1056
▁गान्धी	-11.1057
▁पुराण	-11.1057
▁तस्कर	-11.1058
▁१९९६	-11.1059
▁असुली	-11.1063
▁जोइ	-11.1063
▁दुवैलाई	-11.1064
▁अप्र	-11.1065
▁खोली	-11.1065
▁नेत्र	-11.1069
▁कहा	-11.1073
▁सिफारिश	-11.1073
▁बनाउनेछ	-11.1074
▁समकालीन	-11.1075
क्ला	-11.1076
▁भएनन्	-11.1076
▁सकिरहे	-11.108
▁बोरा	-11.108
कर्म	-11.1084
▁देशहरूमा	-11.1088
▁समुद्रमा	-11.1088
▁अय्यूब	-11.1089
▁चमत्कार	-11.1089
▁गायिका	-11.1089
▁केजी	-11.1091
▁स्थानीयवासी	-11.1093
▁टेकेर	-11.1097
रोयटर्स	-11.1101
▁स्वामित्वमा	-11.1101
▁मोदीले	-11.1103
ौल	-11.1104
▁बेंसी	-11.1105
▁परिपाटी	-11.1106
▁जिल्लाहरुमा	-11.1108
▁अस्पतालले	-11.111
▁नास	-11.1111
▁आईसी	-11.1112
जाति	-11.1114
▁पर्दामा	-11.1117
▁हावामा	-11.112
▁प्यासिफिक	-11.1121
▁उद्धृत	-11.1121
▁अभिबृद्धि	-11.1122
▁संस्थापन	-11.1122
▁ईसा	-11.1123
▁त्यतिखेर	-11.1123
▁दोहोर्याए	-11.1133
रहन	-11.1134
▁अन्तमा	-11.1134
क्ष्ँ	-11.1134
▁सुहाउँदो	-11.1137
▁सुक्खा	-11.1138
▁विपन्न	-11.114
▁बिष्ट	-11.1143
▁शासकहरू	-11.1143
हामीसँग	-11.1144
▁करदाता	-11.1145
▁क्षेत्राधिकार	-11.1145
ज्या	-11.115
फाइ	-11.115
▁कमला	-11.1152
▁आइपुगेका	-11.1152
▁सिन्धुली	-11.1154
▁मिल्छ	-11.1155
▁संयोजकत्व	-11.1156
▁रुद्र	-11.1158
▁मामिलामा	-11.1158
▁बेहोर	-11.1162
▁शीर्षकमा	-11.1162
कुन	-11.1162
▁तोड्न	-11.1163
रेन्ट	-11.1164
▁खिच	-11.1167
▁इभोल्युसन	-11.117
▁क्रूस	-11.117
▁नौलो	-11.1172
ासन	-11.1173
▁गीतहरू	-11.1175
▁पाँचवटा	-11.1176
▁निष्कर्षमा	-11.1176
▁शताब्दीको	-11.1179
▁क्लबले	-11.1179
▁चाहिएको	-11.118
अव	-11.118
▁नियन्त्रित	-11.1183
▁इन्टर	-11.1185
▁च्याप	-11.1187
▁थ्री	-11.1189
▁तला	-11.1192
▁ट्रा	-11.12
▁खोजिएको	-11.1201
▁मनश्शे	-11.1202
‘	-11.1209
▁वजन	-11.1215
क्वा	-11.1216
पालिका	-11.1217
▁मिसिगन	-11.1218
▁दुलही	-11.1218
ावली	-11.1219
▁कालमा	-11.1221
▁९३	-11.1222
▁महामन्त्री	-11.1222
▁बाइ	-11.1223
▁डाइ	-11.1223
▁मुसा	-11.1229
▁बक	-11.123
▁सुमन	-11.123
दैछ	-11.1231
थरी	-11.1231
पुल	-11.1232
▁९७	-11.1232
ED	-11.1239
▁किसानलाई	-11.1239
▁भद्र	-11.1241
▁बान	-11.1248
▁खाएको	-11.1248
जसो	-11.1252
▁परम	-11.1252
▁लिगको	-11.1254
▁बाहुन	-11.1254
▁चलाउनु	-11.1254
▁शताब्दीमा	-11.1259
उड	-11.126
न्युयोर्क	-11.1264
नायक	-11.1265
स्किन	-11.1265
▁उत्पादकहरू	-11.1266
▁अपरिवर्तित	-11.1267
▁धागो	-11.1267
ष्ण	-11.127
▁ब्यक्ति	-11.127
▁वाध्य	-11.127
▁टोकियो	-11.1271
▁ख्याल	-11.1271
▁आकाशमा	-11.1279
▁सातवटा	-11.128
एफसी	-11.1283
▁अवतरण	-11.1284
▁महत्वाकांक्षी	-11.1284
▁दैलेख	-11.1284
▁नन्द	-11.1284
▁छानविन	-11.1284
▁उक्ल	-11.1285
▁चाहन्न	-11.1285
▁परिरहेको	-11.1287
▁होल्डिङ	-11.1288
▁अनुप	-11.1292
▁नील	-11.1294
▁सेनाहरू	-11.1298
▁शेर	-11.1298
▁एनसी	-11.1299
▁आत्मसमर्पण	-11.13
▁विचाराधीन	-11.13
▁भाग्यमानी	-11.13
▁सतर्क	-11.13
▁महादेव	-11.13
▁बेलुका	-11.13
▁दायरामा	-11.1301
▁गरिँदै	-11.1302
▁१९९५	-11.1303
▁दिलाउन	-11.1304
बादी	-11.1306
▁९२	-11.1306
▁दोश्रो	-11.1314
▁प्रतिदिन	-11.1315
▁जिब्रो	-11.1317
▁टेबुल	-11.1317
▁हब	-11.132
दैनन्	-11.1321
५६	-11.1321
▁कमाउन	-11.1325
▁मुलुकहरू	-11.1326
मानिसहरू	-11.1327
▁प्रण	-11.1328
न्यास	-11.1329
▁बोलाउनु	-11.133
राम्रो	-11.133
स्वरुप	-11.1331
▁राष्ट्रलाई	-11.1332
▁बहिष्कार	-11.1333
▁मोआब	-11.1333
उने	-11.134
▁रूखहरू	-11.1342
पोखरी	-11.1347
▁शमशेर	-11.1348
▁उप्रेती	-11.1349
▁दुग्ध	-11.1349
▁पृथक	-11.1349
शू	-11.1353
▁डाय	-11.1356
th	-11.1356
▁बाइक	-11.1356
▁उठाउनु	-11.1356
िओ	-11.1362
▁विकासकालागि	-11.1363
▁फेर्न	-11.1363
शंकर	-11.1364
▁वस्तुहरुको	-11.1365
▁गर्छन	-11.1365
▁अश्शूर	-11.1366
▁दुरुस्त	-11.1366
▁बिक	-11.1366
५९	-11.1367
▁त्रिवि	-11.1367
स्थानीय	-11.137
▁राजधानीको	-11.1373
ाउंदै	-11.1376
▁चक	-11.1377
▁छर्क	-11.1377
ाला	-11.1378
खाना	-11.1381
▁उपभोक्तालाई	-11.1382
▁इत्यादि	-11.1382
▁भएतापनि	-11.1382
▁चालीस	-11.1382
▁सेनामा	-11.1383
▁सफ्ट	-11.1384
ुपर्	-11.1389
पाठ	-11.139
▁प्रतिद्वन्द्वी	-11.139
▁गरिदिनु	-11.139
▁दाम	-11.1394
▁प्राधिकरणका	-11.1394
▁प्रतिस्पर्धी	-11.1399
▁फाइनान्स	-11.1399
▁बालुवाटार	-11.1399
िस्तान	-11.14
▁रेलमार्ग	-11.14
▁बुझाउने	-11.1401
▁म्यादभित्र	-11.1404
▁मू	-11.1405
▁टेलर	-11.1406
▁ब्राह्मण	-11.1407
▁आवद्ध	-11.1407
क्षेत्रमा	-11.1408
▁एली	-11.1413
▁वर्षौँदेखि	-11.1415
▁स्पेनिश	-11.1416
▁पकेट	-11.1422
▁पञ्चायती	-11.1424
▁नलग	-11.1425
▁गार्	-11.143
▁बुहारी	-11.1433
▁आगोमा	-11.1435
एसएस	-11.1436
▁जलाए	-11.1437
याम	-11.144
्दिनँ	-11.1444
▁लिनुपर्छ	-11.1448
▁छुट्टाछुट्टै	-11.1448
▁परिवर्तित	-11.1448
▁विडम्बना	-11.1448
▁शम्भु	-11.1448
▁परमाणु	-11.1449
▁आमाबाबु	-11.1451
बोन	-11.1454
▁भव्य	-11.1455
▁सुन्दरी	-11.1455
▁तानाशाही	-11.1456
▁सुनेको	-11.1457
ाएपछि	-11.1458
▁नेका	-11.1462
▁बनाउनुपर्ने	-11.1462
▁लुकाउन	-11.1463
ाउण्ड	-11.1464
बिन्दु	-11.1464
▁जसो	-11.1471
्रेस	-11.1476
▁आयकर	-11.1478
६४	-11.148
मध्य	-11.148
▁बधाई	-11.1482
▁हाकिम	-11.1482
▁स्वयम्	-11.1482
▁बढाएर	-11.1484
▁पुनप्राप्त	-11.1484
▁अड्क	-11.1489
▁ग्यालरी	-11.1489
▁बेन्च	-11.1491
▁सिकाए	-11.1492
▁नरम	-11.1498
▁क्ष्ँेत्र	-11.1498
▁कुवेत	-11.1498
▁सिपाहीहरू	-11.1498
्तै	-11.1499
▁प्रजा	-11.1501
यहाँ	-11.1501
सर्वदा	-11.1514
▁उत्तीर्ण	-11.1515
▁प्रतीक्षा	-11.1515
▁दयनीय	-11.1515
▁दांत	-11.1515
तृ	-11.1516
▁मियामी	-11.1516
▁आतङ्ककारी	-11.1516
▁सिंहासन	-11.1517
.....	-11.152
्युन	-11.1521
▁क्रिया	-11.1522
▁जनवरीमा	-11.1524
▁रहँदै	-11.1524
▁कायमै	-11.1524
▁उभिएर	-11.1526
▁सम्भाव्य	-11.1527
▁विन्दु	-11.1527
▁सिफारिसमा	-11.1528
▁डब्लु	-11.1529
▁उनि	-11.1531
▁सीईओ	-11.1532
तपाईँले	-11.1534
▁स्थानबाट	-11.1538
▁पुरै	-11.1538
▁उखु	-11.1539
▁साइन	-11.154
▁लिँदा	-11.1543
▁सोच्ने	-11.1543
▁फाट	-11.1545
il	-11.1548
▁सोध्ने	-11.1549
▁आजभोलि	-11.1549
▁पितृ	-11.155
▁उद्योगहरू	-11.1551
▁द्वन्द्वको	-11.1551
वु	-11.1557
▁जान्दछौं	-11.1558
▁फार	-11.1558
▁प्रकृतिका	-11.1562
▁नराख	-11.1563
▁पकाउने	-11.1563
▁पच	-11.1564
बगैंचा	-11.1565
▁सुन्दा	-11.1565
०६	-11.1566
▁नोबेल	-11.1567
▁मारेको	-11.1567
▁देशव्यापी	-11.1568
▁जोस	-11.1571
▁चौर	-11.1572
अर	-11.1573
र्सले	-11.1573
▁जेठा	-11.1573
रेल	-11.1574
▁परिमाणमा	-11.1575
स्टार	-11.1575
▁पृथ्वीको	-11.1581
▁हाम्रोलागि	-11.1581
४४	-11.1582
▁एप्रैम	-11.1582
▁प्रगतिशील	-11.1583
▁समाप्ति	-11.1583
▁वेबसाइटमा	-11.1583
▁आइपुग्दा	-11.1584
▁सरकारद्वारा	-11.1584
▁पापहरू	-11.1585
▁अद	-11.1586
▁हिरो	-11.1586
▁युगमा	-11.1587
▁डिन	-11.1589
▁गराउँछ	-11.1592
▁सुवास	-11.1594
शाली	-11.1595
▁सेती	-11.1598
▁उपचारका	-11.1599
न्छन्	-11.16
▁व्यक्तिबाट	-11.1603
▁सेटअप	-11.1606
▁ब्रिटेनको	-11.1612
मिस	-11.1612
▁डिक	-11.1614
▁नसक	-11.1615
▁थिएटर	-11.1616
▁२०७२	-11.1616
हरा	-11.1623
थु	-11.1625
▁अस्वाभाविक	-11.1633
▁स्वेच्छिक	-11.1634
▁अविश्वासनीय	-11.1634
00	-11.1634
▁सामग्रीहरू	-11.1639
▁युद्धका	-11.1639
▁ज्या	-11.1646
▁स्टि	-11.1647
▁एलिया	-11.1648
▁गुल्मी	-11.165
ुहोस	-11.1653
▁पारस	-11.1654
▁०५८	-11.1654
▁सञ्	-11.1655
▁गफ	-11.1656
▁उपत्यकाको	-11.1657
▁गरिसकेपछि	-11.1658
RE	-11.166
▁विदेशबाट	-11.166
विस	-11.1661
▁राख्नुपर्छ	-11.1661
▁लम्ब	-11.1662
ोभा	-11.1664
▁उतार	-11.1665
▁प्रतिष्ठित	-11.1667
▁सुलभ	-11.1667
▁झल्क	-11.1668
▁फोर	-11.1669
▁यिनको	-11.1669
५७	-11.167
▁छरिएका	-11.167
▁अञ्चलमा	-11.167
▁अनुपातमा	-11.1671
ट्टी	-11.1671
▁चाँ	-11.1672
▁औषध	-11.1673
▁क्लबका	-11.1676
▁विलय	-11.1678
होल	-11.1679
▁पुर्‍याउने	-11.168
▁सुधारिएको	-11.168
▁पृष्ठमा	-11.1683
बैद्य	-11.1684
▁अरामी	-11.1684
▁फोकस	-11.1685
▁कन्स	-11.1686
▁बुझिन्छ	-11.1686
▁फोनमा	-11.1687
▁सार्वभौम	-11.169
▁लान	-11.1694
▁पटकपटक	-11.1698
व्यवसाय	-11.1701
▁आकस्मिक	-11.1701
▁दस्तावेज	-11.1701
▁यसैकारण	-11.1701
▁विमल	-11.1703
भाष	-11.1704
▁किट	-11.1704
▁अतः	-11.1706
ष्य	-11.171
▁गर्दैछन्	-11.1712
▁ओठ	-11.1717
▁फिलाडेल्फिया	-11.1718
▁सहानुभूति	-11.1718
▁बङ्गाल	-11.1719
▁यसपालि	-11.172
▁ब्रियन	-11.1721
▁सोध्नु	-11.1724
जय	-11.1726
▁जोड्न	-11.1727
▁निवासी	-11.1729
▁हुँदैनन्	-11.173
▁बनाउ	-11.173
▁Xi	-11.1733
▁हिज्जे	-11.1735
▁योआब	-11.1735
▁सिटौला	-11.1736
▁०५	-11.174
▁मान्नु	-11.1748
▁इराकको	-11.1749
छाड	-11.1749
▁अप्ठेरो	-11.1752
▁कुँवर	-11.1752
▁भन्दछन्	-11.1757
212	-11.1757
ाउँन	-11.1758
▁तिर्ने	-11.1759
▁ज्ञवालीले	-11.1759
विकास	-11.176
▁सेर	-11.176
▁भन्थे	-11.1768
▁एयरलाइन्स	-11.1769
▁लज	-11.1771
▁नलागेमा	-11.1772
झैँ	-11.1774
▁समितिबाट	-11.1777
lt	-11.1785
▁तोडफोड	-11.1787
र्मन	-11.179
▁सन्त	-11.179
उहाँ	-11.1792
▁सामानहरू	-11.1794
▁क्लबमा	-11.1795
▁घटनास्थल	-11.1796
▁मानहरू	-11.1796
▁याङ्के	-11.1798
▁राखिनेछ	-11.18
▁घटनाक्रम	-11.1801
ro	-11.1803
▁बङ्गलादेश	-11.1804
▁सीमावर्ती	-11.1805
▁हिँड्न	-11.1806
▁खैरो	-11.1807
▁संवेदनशीलता	-11.1807
▁आँ	-11.1809
▁८९	-11.1812
▁शरण	-11.1814
▁पोर्चुगल	-11.1821
▁रिजोर्ट	-11.1821
▁गाँजा	-11.1821
▁कोशिश	-11.1821
▁८१	-11.1822
▁राजश्व	-11.1823
▁वरपर	-11.1823
▁स्टल	-11.1825
०५	-11.1826
प्रकार	-11.1826
▁ढुक्क	-11.183
▁जानुपर्छ	-11.1831
▁मिडियाले	-11.1832
▁पार्	-11.1839
▁बेसबल	-11.184
▁सिरहा	-11.1841
तीन	-11.1843
▁आयोगलाई	-11.1845
?'	-11.1845
▁राखि	-11.185
ेश्वरी	-11.185
▁मिच	-11.1851
▁फोहरमैला	-11.1856
▁हिजकियाह	-11.1856
▁विश्वभर	-11.1856
▁ग्रुप	-11.1856
धारा	-11.1857
जन्म	-11.1857
▁क्रसिङ	-11.1858
▁लामाले	-11.186
▁नबढ	-11.1861
▁थिइन	-11.1863
▁सुरुङ	-11.1868
व्यापी	-11.1872
▁रेखाङ्कन	-11.1873
▁हाजिर	-11.1873
▁लिइरहेको	-11.1873
▁खेलाडीहरु	-11.1875
▁निर्देशनालय	-11.1877
▁उभिन्छ	-11.1877
▁शासनकाल	-11.1877
िँदैन	-11.1879
▁राष्ट्रवाद	-11.1881
▁विवादित	-11.1882
▁चढेर	-11.1883
ING	-11.1884
वाज	-11.1885
▁९४	-11.1886
न्टो	-11.189
▁एकदिन	-11.189
पुर्ण	-11.189
▁गैरकानुनी	-11.189
▁कारोवार	-11.189
▁ग्रेड	-11.1891
्यान्ड	-11.1891
▁संसदले	-11.1891
शमशेर	-11.1892
शिक्षा	-11.1894
▁यहोशू	-11.1894
▁बिगार	-11.1895
▁वास्ता	-11.1897
▁पृष्ठभूमिमा	-11.1901
प्रेमी	-11.1902
▁९६	-11.1903
▁जोशीले	-11.1904
▁मोर्	-11.1904
वर्क	-11.1906
▁ब्ला	-11.1906
▁त्योभन्दा	-11.1907
म्मी	-11.1907
▁गर्नसक्ने	-11.1907
▁सिम्पसन	-11.1908
▁म्यारी	-11.1908
▁बिरालो	-11.1908
▁पुर्यायो	-11.1908
▁पाइपलाइन	-11.1908
▁गरेँ	-11.1911
▁एसपी	-11.1913
▁न्यूनीकरण	-11.1913
ेष्ट	-11.1914
▁बस्नेतले	-11.1914
क्की	-11.1915
न्थ्यो	-11.1918
▁पक्षका	-11.192
▁तपाईंहरू	-11.1921
▁कूटनीति	-11.1921
▁गरायो	-11.1921
▁पट	-11.1923
▁सुन्तला	-11.1925
▁जिविस	-11.1926
उत्तर	-11.1927
▁ग्याप	-11.1932
▁गणित	-11.1933
▁पर्वतारोहण	-11.1943
▁फेसबूक	-11.1943
▁वयस्क	-11.1943
▁रसायन	-11.1943
▁उन्मुख	-11.1943
▁व्याप्त	-11.1944
▁शास्त्रीय	-11.1945
▁दूतावासले	-11.1948
गोर	-11.1949
सदस्य	-11.1951
षक	-11.1951
▁देशहरूले	-11.1953
▁व्यक्तिहरूलाई	-11.1954
▁चर्चामा	-11.1956
समूह	-11.1958
▁पुच्छर	-11.196
▁एन्	-11.1961
▁चिकित्सकहरुले	-11.1962
▁निष्	-11.1962
▁हराइरहेका	-11.1963
▁आर्मी	-11.1964
▁बढेका	-11.1968
▁यर्मिया	-11.1969
▁समस्याहरु	-11.1971
▁नपाए	-11.1975
▁प्रदर्शनकारी	-11.1976
▁बनाउनुपर्छ	-11.1976
▁महोत्तरी	-11.1978
▁लैंगिक	-11.1978
▁आइमाई	-11.1978
▁राजसंस्था	-11.1979
ाओस्	-11.1979
ग्ल	-11.1982
AM	-11.1983
▁घटे	-11.1984
३१	-11.1985
▁वस्तुहरु	-11.1988
▁बेलायतमा	-11.1988
▁थपिएको	-11.1988
▁क्युब	-11.1992
▁प्रतिवद्धता	-11.1995
▁वाक्यांश	-11.1995
▁कलात्मक	-11.1996
ड्डी	-11.1997
सम्पन्न	-11.1998
बाजी	-11.1998
▁वस्त्र	-11.1998
▁डट	-11.1999
स्टा	-11.2
रेखा	-11.201
▁जनसहभागिता	-11.2013
▁सेवाग्राही	-11.2013
▁सर्किट	-11.2013
▁रोह	-11.2013
ियौं	-11.2014
▁अबु	-11.2015
ग्रे	-11.2015
▁त्यत्तिकै	-11.2016
बुद्ध	-11.2016
▁कार्यकर्ताले	-11.2018
▁प्रस्थान	-11.202
▁माला	-11.2022
▁सञ्झ्यालमा	-11.2032
▁कोषबाट	-11.2033
पुग	-11.2036
▁चतुर	-11.2036
li	-11.2036
▁१९७०	-11.2037
▁नेपालीहरूको	-11.204
लाम	-11.204
▁पाउँदैन	-11.2046
▁सालदेखि	-11.2047
▁नेविसंघ	-11.2048
▁पिसाब	-11.2048
▁चुक्ता	-11.2049
▁त्रैमासिकब्याक	-11.205
▁हेम	-11.205
▁हालतमा	-11.205
०१	-11.2051
ढोका	-11.2052
ट्रे	-11.2053
▁वर्षअगाडि	-11.2054
मेण्ट	-11.2054
▁कत्ति	-11.2054
▁लागेमा	-11.2055
▁१९६०	-11.2056
▁उचाल	-11.2059
▁हुंदै	-11.206
EN	-11.206
▁युनेस्को	-11.2061
▁कब्जामा	-11.2061
▁छान्न	-11.2062
▁शै	-11.2063
▁हुनुअघि	-11.2063
▁लौ	-11.2064
▁दीक्षित	-11.2066
▁मुकुट	-11.2067
▁नाति	-11.2068
▁विचारधारा	-11.2069
▁चाहा	-11.2069
▁स्नेह	-11.2069
▁कैदीहरू	-11.2071
औ	-11.2071
बन्द	-11.2073
▁दिया	-11.2075
हवा	-11.2076
▁एकाधिकार	-11.2076
एमए	-11.2076
▁एक्सचेन्ज	-11.2083
▁एटलान्टा	-11.2083
बर्	-11.2087
▁उति	-11.2087
▁९१	-11.2087
▁दिल्लीमा	-11.2091
▁मेगा	-11.2093
मैत्री	-11.2094
▁नभएपछि	-11.2095
▁अराजकता	-11.2097
▁मंसिर	-11.2101
▁निकासा	-11.2102
▁पेन्स	-11.2102
▁बिमारी	-11.2103
▁१९५०	-11.2103
एसए	-11.2103
ाउँने	-11.2104
ामी	-11.2105
▁उग्र	-11.2106
▁नबुझ	-11.2108
▁भइन्	-11.2109
ाकार	-11.2109
▁ताइवान	-11.2119
▁इन्टरनेटमा	-11.2124
▁महाभारत	-11.2124
▁सेक	-11.2126
▁पार्कमा	-11.2129
▁अर्काे	-11.2132
▁गाउन	-11.2134
िट्ज	-11.2135
▁मिड	-11.2141
▁अपनाउने	-11.2142
▁कार्यवाहक	-11.2143
▁राणाले	-11.2143
प्रे	-11.2147
at	-11.2148
▁लगाएपछि	-11.2151
▁च्याम्पियन्स	-11.2152
▁प्रदर्शनकारीहरू	-11.2153
▁जिन्सी	-11.2155
अधिकार	-11.2157
▁जनजीवन	-11.2158
▁बिन्ती	-11.2158
विल	-11.2159
अर्थ	-11.2162
▁मुख्यालय	-11.2162
▁दाख	-11.2163
▁नट	-11.2165
▁जातिहरू	-11.2166
▁तपाईले	-11.2168
सूची	-11.2169
▁कम्पनीहरूको	-11.217
ष्ल	-11.217
्लिङ	-11.2172
▁न्यायाधिकरण	-11.2172
▁सम्झ्ौता	-11.2172
▁अग्रवाल	-11.2173
ेनले	-11.2175
बिस	-11.2176
▁खुवाउन	-11.2176
सुर	-11.2177
▁महासंघले	-11.218
▁सुवेदीले	-11.2189
ch	-11.2189
▁साबित	-11.2191
▁पर्यटकहरु	-11.2191
वाहेक	-11.2192
ष्क	-11.2206
▁उत्पीडन	-11.2208
▁बेल्जियम	-11.2208
▁सघन	-11.2208
▁सिद्धार्थ	-11.2209
▁भूगोल	-11.221
▁बिजोर	-11.2211
▁अपाङ्ग	-11.2213
▁मन्त्रालयलाई	-11.2214
▁वर्षीया	-11.2214
▁पर्दछन्	-11.2219
▁दम	-11.222
्कि	-11.222
▁परिषदको	-11.2222
ोटा	-11.2222
▁सिकाउन	-11.2223
▁प्रोजेक्ट	-11.2226
▁मुस्किल	-11.2226
▁व्रत	-11.2227
स्तै	-11.2233
▁एलेन	-11.2233
▁सिं	-11.2234
्स्ट	-11.2236
न्याय	-11.2238
▁दिनेछन्	-11.2238
▁जायज	-11.2241
पढ	-11.2241
स्थिति	-11.2242
▁विषाक्त	-11.2244
▁संहिता	-11.2244
▁संभावना	-11.2245
▁छविहरू	-11.2246
न्जेल	-11.2249
▁स्वरमा	-11.225
्याङ	-11.2252
▁नजाने	-11.2254
▁फिल	-11.2254
▁ह्	-11.226
ङ्ध	-11.226
▁प्लेफ	-11.2262
▁रामेछाप	-11.2262
▁जेनेभा	-11.2262
▁परीक्षक	-11.2262
च्छे	-11.2264
▁आईआई	-11.2264
।”‘	-11.2265
▁देउवाको	-11.2268
▁पाकिस्तानमा	-11.2269
is	-11.2269
▁अन्डर	-11.2269
एक्स	-11.2272
▁तीतो	-11.2272
▁नारायणी	-11.2275
▁शान	-11.2278
▁बैतडी	-11.228
▁तपाइँ	-11.228
▁क्वेरी	-11.228
ाङ्क	-11.2283
उनीहरूले	-11.2284
▁दृष्टिगत	-11.2285
टीए	-11.2287
▁ट्युब	-11.229
चेत	-11.2295
▁माता	-11.2296
▁असहाय	-11.2298
▁राष्ट्रसंघको	-11.2298
गेट	-11.2299
▁क्लार्क	-11.23
▁जनरल	-11.2302
▁शब्दकोश	-11.2303
▁चाहन्छौ	-11.2303
▁केन्द्रबाट	-11.2306
▁तीब्र	-11.2306
▁अभियोगमा	-11.2307
▁नसकेपछि	-11.2307
▁जाम	-11.2311
▁फोल्डरमा	-11.2316
▁झडप	-11.2316
रियन	-11.2318
▁दशौं	-11.2319
▁मसित	-11.232
स्कार	-11.2325
▁समाजवाद	-11.233
US	-11.2333
▁कुटपिट	-11.2335
▁द्रष्टव्यहरू	-11.2345
ञ्चल	-11.2346
▁धनु	-11.2347
▁थलो	-11.2347
▁चाहँदैन	-11.2348
▁खोलेर	-11.2348
▁भुसाल	-11.2352
▁मोड्युल	-11.2353
▁१९९१	-11.2353
▁कुलपति	-11.2355
सक्नु	-11.2357
▁थ्रि	-11.2362
सरकारले	-11.2363
▁बुझाएको	-11.2363
▁बासिन्दाले	-11.2367
वर्ती	-11.2369
▁अवाञ्छित	-11.2371
▁निष्काशन	-11.2371
▁पारदर्शिता	-11.2371
र्जन	-11.2372
▁आवश्यकतानुसार	-11.2372
▁वहाँ	-11.2372
▁क्षेत्रहरुमा	-11.2373
▁नेपालमै	-11.2374
पीडित	-11.2375
▁कनान	-11.2375
▁दशकअघि	-11.2377
▁सर्भरमा	-11.2377
▁मेह	-11.2378
▁सङ्केतन	-11.2379
भाषी	-11.2381
▁१९९४	-11.2389
▁लखेट	-11.239
▁पैदल	-11.239
▁बुबाले	-11.239
▁प्राज्ञिक	-11.2391
सुरु	-11.2392
द्वय	-11.2393
▁गतेदेखि	-11.2393
▁उत्रिए	-11.2397
▁देखेपछि	-11.2397
▁सिकाई	-11.2399
▁फाइलनाम	-11.24
▁प्रयोगकर्तालाई	-11.2401
▁महिलाहरूको	-11.2402
▁मिलि	-11.2402
▁बचाउ	-11.2404
▁आराधना	-11.2407
▁पुस्तकचिनो	-11.2407
▁धुवाँ	-11.2407
▁म्यारील्यान्ड	-11.2408
▁कारवाई	-11.2409
बेक	-11.2411
हुन्छ	-11.2411
▁त्र्चाइ	-11.2418
बेट	-11.2419
▁केरा	-11.242
▁१२०	-11.242
पर्ूण्ा	-11.2425
▁क्यानाडियन	-11.2426
▁तहकिकात	-11.2426
▁पार्टर्ीी	-11.2426
▁फर्निचर	-11.2426
▁मोहम्मद	-11.2426
▁स्वाभिमान	-11.2426
▁नपाइने	-11.2427
▁रोज्नुहोस्	-11.2429
दक्षिण	-11.2431
हिर	-11.2431
▁समेटेर	-11.2431
▁बदल्न	-11.2432
TM	-11.2433
▁निर्माताहरू	-11.2437
▁पलिश्तीहरू	-11.2439
▁हराउने	-11.244
जोन	-11.244
▁फेस	-11.2441
▁अदालतलाई	-11.2443
▁अल्पसङ्ख्यक	-11.2444
▁प्रक्षेपण	-11.2444
▁पढेर	-11.2448
▁विद्रोहीहरू	-11.2449
▁झार्न	-11.245
▁डाटा	-11.245
▁वर	-11.245
▁जस्	-11.2454
▁तान्न	-11.2454
जिल्ला	-11.2456
▁पर्यटकहरू	-11.2456
बीए	-11.2458
ोनी	-11.2458
्लेट	-11.2459
▁लिंदै	-11.2462
▁ब्यूरो	-11.2462
▁महानिरीक्षक	-11.2462
क्रान्ति	-11.2468
▁एसिड	-11.247
▁२०४९	-11.247
▁एजेन्सीले	-11.247
▁उत्पादनशील	-11.2471
▁पिक्सेल	-11.2481
▁सुपरिवेक्षक	-11.2481
▁पुर्‍याउन	-11.2485
▁चिने	-11.2485
▁पौडी	-11.2486
▁मान्छेलाई	-11.2489
▁मरूभूमिमा	-11.2489
पहिले	-11.2494
पीए	-11.2494
ब्बा	-11.2498
▁गिरीले	-11.2498
▁आध्यात्मिक	-11.2499
▁विल्	-11.2502
▁श्रेणीको	-11.2502
▁चाहन्थें	-11.2502
जनक	-11.2503
▁ओपन	-11.2504
मेरा	-11.2504
▁बुवा	-11.2507
गुण	-11.251
रोज	-11.2514
▁समयअघि	-11.2515
▁बिस	-11.2516
▁पौराणिक	-11.2518
▁इसहाक	-11.2518
यौँ	-11.252
▁कुटनीतिक	-11.2524
▁सुनिल	-11.2526
▁ओहियो	-11.2536
▁राजकीय	-11.2536
▁एन्डर्सन	-11.2538
▁व्यापारीहरूले	-11.2538
▁सक्न	-11.254
▁अन्यौल	-11.255
▁मार्चमा	-11.2551
▁स्न्याप	-11.2551
▁जनाउँदै	-11.2551
▁फाल्	-11.256
▁स्विस	-11.256
ग्या	-11.2561
▁लिमिटेडले	-11.2564
आएको	-11.2564
▁भङ्ग	-11.2565
्नुअघि	-11.2568
न्डल	-11.2568
▁सोझै	-11.2569
▁सल्यान	-11.2571
आईए	-11.2572
▁संसद्मा	-11.2574
▁भइसक्यो	-11.2574
▁कन्सर्ट	-11.2574
▁धर्मी	-11.2576
▁बस्छ	-11.2579
▁नोड	-11.258
पुस्तिका	-11.258
▁जागरुकता	-11.258
▁संगीतकार	-11.2581
▁पाइन्छन्	-11.2583
▁इन्स	-11.2584
▁कसलाई	-11.2584
▁खोज्छन्	-11.2588
ज्ञान	-11.2588
▁खुव	-11.2591
▁दशकको	-11.2592
▁निरंकुश	-11.2592
▁फोक्सो	-11.2592
▁कहीँ	-11.2592
▁कम्मर	-11.2592
▁उत्साहजनक	-11.2593
▁समर्पण	-11.2593
▁हुंदा	-11.2594
▁बाँचेका	-11.2596
▁मिलर	-11.2596
▁धुलो	-11.2599
▁बर्बर	-11.2602
▁होऊ	-11.2608
▁पुर्खाहरू	-11.2611
▁वितरक	-11.2611
▁अलग्गै	-11.2616
एनपी	-11.2616
ओसी	-11.2619
▁राजमार्गमा	-11.262
म्य	-11.2622
भिक	-11.2622
▁फेर	-11.2625
▁आमन्त्रण	-11.2629
▁समक्रमण	-11.2629
▁सिड्नी	-11.2629
देन	-11.2638
▁खेलिरहेका	-11.2641
५४	-11.2641
मगर	-11.2642
▁कन्या	-11.2642
▁भनिरहेका	-11.2643
▁मोती	-11.2645
▁गर्नाले	-11.2649
विश्वास	-11.2649
▁दिमाग	-11.265
▁खरानी	-11.265
नन्द	-11.265
कालिन	-11.2651
▁सच्याउन	-11.2651
▁समाचारदाता	-11.2653
ब्र	-11.2654
भेन्ट	-11.2654
कान्त	-11.2655
द्रा	-11.2657
आरसी	-11.2663
▁संस्थानका	-11.2665
▁समयावधि	-11.2667
▁पत्राचार	-11.2667
▁घले	-11.2667
▁प्लोट	-11.2668
▁स्टेप	-11.2672
▁माग्ने	-11.2674
▁चराको	-11.2674
▁बुश	-11.2674
▁ब्रो	-11.2677
चौर	-11.268
▁जिउ	-11.268
▁काँध	-11.2681
▁गज	-11.2684
▁बाढीले	-11.2685
इन्ट	-11.2685
डीसी	-11.2686
▁पोर्टफोलियो	-11.2686
▁संरक्षक	-11.2686
▁अतिवादी	-11.2687
▁आज्ञाहरू	-11.2695
▁संवाददाताहरूलाई	-11.2695
▁आएन	-11.2698
▁बिर्से	-11.2699
▁मानवता	-11.2704
▁मौखिक	-11.2704
▁होलवुड	-11.2705
▁आपतकालीन	-11.2705
▁जातका	-11.2706
▁परिसर	-11.2706
▁गाउने	-11.2717
▁थप्दै	-11.2718
▁थाम	-11.2721
▁सव	-11.2722
▁नराम्रा	-11.2723
▁घमण्ड	-11.2724
्स्	-11.2725
▁ब्यापार	-11.2727
▁निहित	-11.2728
▁बुक	-11.2729
▁चिन्न	-11.2735
▁जक	-11.2736
▁देखाइ	-11.2736
▁अरिजोना	-11.2742
▁जाजरकोट	-11.2742
▁लबानोन	-11.2742
▁रोमाञ्चक	-11.2742
▁उपकुलपति	-11.2743
▁नियाल	-11.2749
डिज	-11.2749
▁छोरीहरू	-11.2752
▁भर्	-11.2753
कवि	-11.2754
▁फोटोग्राफर	-11.2754
▁चाल्न	-11.2759
▁कार्यतालिका	-11.2761
▁उमेश	-11.2761
▁मृगौला	-11.2761
▁ऋ	-11.2763
ट्ज	-11.2767
▁पठाइयो	-11.2768
▁वित	-11.277
▁बाला	-11.277
सडक	-11.2772
▁टाँसिएको	-11.2772
्बा	-11.2773
▁किनेर	-11.2776
▁परिवारसँग	-11.278
▁फर्के	-11.278
▁लिम्बू	-11.278
▁लेखेर	-11.2781
शान	-11.2782
▁गर्नुपरेको	-11.2783
▁सुट	-11.2785
▁मेड	-11.2785
▁जंगलमा	-11.2786
ठाउँ	-11.2786
▁उठ्छ	-11.2789
▁रेशम	-11.2789
संयुक्त	-11.2791
▁जहा	-11.2792
▁अवधिभित्र	-11.2793
ed	-11.2798
▁डेइगो	-11.2799
▁म्यानुअल	-11.2799
म्पो	-11.28
▁गतिशीलता	-11.2803
▁काउ	-11.2803
▁घोर	-11.2804
▁०५७	-11.2805
दूत	-11.2807
ष्ट्र	-11.2807
ेन्सी	-11.281
▁सवालमा	-11.281
▁कन्फ	-11.281
▁स्वीकार्य	-11.281
▁अर्यालले	-11.2813
वटै	-11.2815
▁झ्ैँ	-11.2817
▁एकअर्का	-11.2817
▁वैधानिक	-11.2818
▁बानेश्वर	-11.2819
IS	-11.2819
▁म्याग्दी	-11.2819
▁जग्गाधनी	-11.282
▁रोक्नु	-11.2822
▁पाँचौं	-11.2822
▁ब्यानर	-11.2823
▁मण्डली	-11.2823
▁चिप	-11.2824
▁भेटिएको	-11.2825
▁उन्	-11.2829
▁हिँड्ने	-11.283
▁कदर	-11.2831
साइ	-11.2831
CO	-11.2834
ाँउ	-11.2837
९५	-11.2838
▁सुरेश	-11.2839
▁मनोबल	-11.284
ून्	-11.284
▁पलिश्ती	-11.2842
▁गोरखापत्र	-11.2845
▁कार्यालयहरु	-11.2847
▁पाँचथर	-11.2849
▁सेभ	-11.2851
▁हेरिरहेको	-11.2855
▁भगवती	-11.2857
▁प्रतिगमन	-11.2859
▁एन्ड्रिउ	-11.2859
हीनता	-11.2859
क्री	-11.286
▁एशियामा	-11.2861
▁देखाउँछन्	-11.2869
▁विषयगत	-11.2869
▁चीनबाट	-11.2872
▁ट्वीट	-11.2873
la	-11.2873
▁साहू	-11.2875
▁आदान	-11.2876
▁द्धन्द्ध	-11.2876
▁भ्याक्सिन	-11.2876
▁मनोवृत्ति	-11.2876
▁आत्मविश्वास	-11.2876
▁मञ्जु	-11.2877
▁स्टेट	-11.2879
र्थी	-11.2881
▁दाखिल	-11.2884
▁ओबामाले	-11.2884
विपरीत	-11.2884
▁चू	-11.2887
▁कर्न	-11.289
▁महोत्सवको	-11.2893
▁फर्काउने	-11.2896
▁घेर	-11.2898
▁गुरू	-11.2901
▁आइस	-11.2901
▁अँगाल	-11.2902
▁नगरेका	-11.2906
▁एकाएक	-11.2912
▁चल्दै	-11.2913
▁रक्तचाप	-11.2914
▁सोसाइटी	-11.2914
▁वेश्या	-11.2914
▁थिच्नुहोस्	-11.2914
▁दमक	-11.2916
▁रासस	-11.2916
▁थुमा	-11.2918
▁हेल्	-11.2921
▁अख्तियारले	-11.2923
ाइसकेका	-11.2923
▁इनिङ	-11.2924
ाउँदैन	-11.2926
▁..............	-11.2927
▁क्याप	-11.2931
▁रोयल्टी	-11.2933
▁लागेन	-11.2934
▁हाँगा	-11.2934
▁राष्ट्रव्यापी	-11.2936
▁नियमहरु	-11.2937
▁केन्द्रिय	-11.2937
▁स्थलमा	-11.2939
▁किताबमा	-11.2943
▁नियोजन	-11.2943
▁रिपोर्टर	-11.2945
▁राखिने	-11.2948
▁पं	-11.2948
▁एकरुपता	-11.2953
▁काफ्ले	-11.2953
▁कमाइ	-11.2954
▁पठायो	-11.2955
▁अवधिभर	-11.2956
▁गाउँलेहरू	-11.2956
गठन	-11.2961
थियो	-11.2964
▁हुल	-11.2967
▁पुर्याउनु	-11.2969
▁फड्का	-11.2969
ाइँ	-11.2969
▁केन्द्रहरु	-11.2971
▁लोडसेडिङ	-11.2972
▁जान्दछु	-11.2972
▁युक्रेन	-11.2972
▁दाइजो	-11.2973
▁बुँदामा	-11.2974
▁दिनुहुनेछ	-11.2974
▁ठप्प	-11.2975
▁सहकर्मीहरू	-11.2976
▁अधिकारकर्मी	-11.2976
▁तोकिदिएको	-11.2978
सियन	-11.2978
स्ती	-11.298
▁मंगल	-11.2982
भच	-11.2983
▁सम्झ्	-11.2987
ठ्ठा	-11.2988
▁विप्लव	-11.2991
▁डेंगु	-11.2991
▁प्रतिव्यक्ति	-11.2993
▁एबीसी	-11.2995
▁खन्न	-11.2995
▁तल्लामा	-11.3001
▁नसकेर	-11.3002
▁बदर	-11.3003
▁पार्टीहरूले	-11.3005
▁त्यसबारे	-11.3008
▁तिनीहरुको	-11.3008
▁सिधै	-11.3011
▁म्यानपावर	-11.3011
▁धामी	-11.3012
RO	-11.3013
▁पङ्क्तिमा	-11.3014
बीसी	-11.3015
▁एट	-11.3015
▁पायौं	-11.3016
ET	-11.3022
▁बडो	-11.3029
▁आईपी	-11.3029
IT	-11.3029
▁वेल्स	-11.303
▁इन्डोनेशिया	-11.303
ाउँदैनन्	-11.3031
▁उभिने	-11.3031
▁कार्गो	-11.3034
▁उपभोग्य	-11.3037
▁गराउँदा	-11.3045
▁अलेक्स	-11.3045
▁माओवादीहरूले	-11.3048
▁निर्भरता	-11.305
▁बाजे	-11.305
▁उत्खनन्	-11.3053
▁आन्दोलनरत	-11.3056
▁विशेषाधिकार	-11.3058
वाहक	-11.3062
निज	-11.3063
▁फिर	-11.3063
▁महत्वाकांक्षा	-11.3069
▁मध्यमाञ्चल	-11.3069
▁वाइन	-11.3069
▁वीरगन्ज	-11.307
म्फ	-11.3075
बिया	-11.3075
▁कर्मचारीहरूले	-11.3077
▁सक्यो	-11.3079
▁रक्षक	-11.3089
▁पूरक	-11.3089
▁राउट	-11.3091
ूदा	-11.3091
▁हीरा	-11.3091
▁नजान	-11.3092
ङ्गर	-11.3101
▁गरिदिएको	-11.3106
▁गर्नेछौ	-11.3108
▁लागुऔषध	-11.3108
▁अन्तरवार्तामा	-11.3113
▁बस्नेछ	-11.3113
▁होली	-11.3117
▁उपत्यकाका	-11.3119
▁इन्डो	-11.3127
▁प्रत्याभूति	-11.3128
▁सर्टकट	-11.3128
▁बजेदेखि	-11.3129
▁आरम्भ	-11.313
▁नपुग	-11.3131
▁पिट्न	-11.3134
▁समेट्न	-11.3135
▁पराउँछन्	-11.3135
▁देशभक्त	-11.3135
युग	-11.3135
▁कार्ट	-11.3144
▁प्रश	-11.3145
पाँच	-11.3145
▁अनुपस्थितिमा	-11.3148
▁डेविस	-11.3149
▁सियोन	-11.3152
▁जाहेर	-11.3153
▁हाल्न	-11.3153
्लान्	-11.3154
▁प्रत्या	-11.3155
▁खुल्ने	-11.3156
▁थपियो	-11.3157
▁पालामा	-11.3158
▁कित्ता	-11.3159
त्कार	-11.3164
▁रिपब्लिक	-11.3165
▁म्याराथन	-11.3167
▁१९९२	-11.3167
▁मनाए	-11.317
ाउनुपर्ने	-11.3171
▁दब	-11.3173
▁कमाएको	-11.3173
▁निस्केको	-11.3175
▁लैजा	-11.3178
▁राना	-11.3178
▁भैरव	-11.318
▁गाइड	-11.3181
▁जान्नु	-11.3184
डोर	-11.3185
▁लगाउँछ	-11.3188
▁नजीक	-11.3188
▁खतिवडा	-11.3188
▁उचाइमा	-11.3191
▁गद	-11.3191
▁टुंग	-11.3193
▁कन्टेनर	-11.3194
ोलोजी	-11.3196
ल्टी	-11.3197
▁सर्त	-11.3199
▁फ्ल्यास	-11.3201
▁डेरा	-11.3201
ुलर	-11.3204
▁ढो	-11.3205
▁कुटनीतिज्ञ	-11.3207
▁शिला	-11.3208
▁जानुपर्ने	-11.3208
▁विल्सन	-11.3209
▁छापामार	-11.3209
▁सुरुदेखि	-11.321
▁साक्षरता	-11.3214
▁जनालाई	-11.3218
▁अलपत्र	-11.3219
कुर	-11.3223
क्षी	-11.3224
▁छक्क	-11.3224
▁मुगु	-11.3224
▁डिपो	-11.3224
▁एम्बुलेन्स	-11.3227
▁तालीबान	-11.3227
▁तत्पर	-11.3228
ब्य	-11.3228
▁परिसरमा	-11.3229
▁बेचेर	-11.3231
िन्द्र	-11.3237
▁पढ्नुहोस्	-11.3237
▁मन्त्रिपरिषद	-11.3238
▁ओर्लिए	-11.324
▁डबल	-11.3242
▁सकेमा	-11.3243
MA	-11.3246
▁उत्तरपूर्वी	-11.3247
▁हेनरी	-11.3247
▁बनावट	-11.3248
▁पापी	-11.3248
▁पछ्याउन	-11.3249
▁बुझेर	-11.3251
te	-11.3251
▁फर्किन्छ	-11.3254
▁फेब्रुअरीमा	-11.3255
▁जनक	-11.326
▁सङ्गीतकार	-11.3261
▁खाँदै	-11.3263
▁११०	-11.3264
इला	-11.3264
▁दलहरुले	-11.3265
▁गर्दिन	-11.3266
▁पर्दै	-11.3266
▁म्यानहाटन	-11.3267
▁सूक्ष्म	-11.3267
गमन	-11.327
▁कर्मचारीहरूको	-11.3272
विद्यालय	-11.3275
एनएनएनएनएनएनएनएन	-11.3276
ुपर्थ्यो	-11.3278
▁काजी	-11.3281
▁अधिराज्यको	-11.3284
▁सुखी	-11.3285
▁साँस्कृतिक	-11.3287
▁खेप	-11.3288
▁प्रस्तावना	-11.329
▁अर्कोतर्फ	-11.3291
▁दृष्टान्तका	-11.3292
▁ओहो	-11.3293
▁रङ्गशाला	-11.3294
▁महोत्सवमा	-11.3296
ुपर्दैन	-11.33
▁इलाकामा	-11.3303
केन	-11.3304
▁ट्यांक	-11.3306
▁संगै	-11.3306
▁इन्टरनेसनल	-11.3307
▁भलिबल	-11.3307
▁सम्प्रदाय	-11.3307
िज्म	-11.3312
▁पट्टि	-11.3317
el	-11.3321
नोम	-11.3322
▁उहा	-11.3327
▁२०५५	-11.3327
▁एनएफएल	-11.3327
▁क्रूर	-11.3328
▁क्षेत्रहरूमा	-11.3328
▁झर्ने	-11.333
▁लोकमान	-11.333
क्षित	-11.3331
▁छाड्न	-11.3332
▁नामावली	-11.3334
▁गजल	-11.3336
ौरी	-11.3339
▁विशेषताहरू	-11.3341
▁गिल्	-11.3341
▁हाल्ने	-11.3343
न्डी	-11.3344
▁भेष	-11.3346
मूल्य	-11.3346
▁उपरोक्त	-11.3347
▁पर्वतारोही	-11.3347
▁सुसमाचार	-11.3347
▁भाषिक	-11.3347
▁ठहराए	-11.3348
▁न्यायालय	-11.3351
▁आसा	-11.3353
▁सैनिकहरूले	-11.3357
▁उहांले	-11.3357
▁हड	-11.3358
फोर	-11.3359
डियन	-11.3363
▁प्रलोभन	-11.3367
▁सीमांकन	-11.3367
▁तवरले	-11.3368
▁जान्छु	-11.337
रहन्छ	-11.337
▁विभागबाट	-11.3372
▁लत	-11.3376
▁एसी	-11.3378
▁सकिएपछि	-11.338
▁फोहर	-11.3385
▁भ्यान	-11.3386
▁चुम्बन	-11.3387
▁शासकीय	-11.3393
्‍य	-11.3395
▁त्यहां	-11.3396
▁कागजपत्र	-11.3396
▁मानिसहरुलाई	-11.3397
▁हुुन	-11.3397
▁कृष्णबहादुर	-11.34
EC	-11.3403
▁महसूस	-11.3407
▁जम्मै	-11.3407
▁स्वमूत्रपान	-11.3407
▁पक्षधर	-11.341
▁डच	-11.341
▁कम्पनीहरु	-11.3415
गाथा	-11.3416
▁अनपेक्षित	-11.3419
▁प्रयोजनका	-11.342
▁खस्ने	-11.3421
िङटन	-11.3421
▁महतोले	-11.3425
▁राखिन्छ	-11.3425
▁प्रर्दशन	-11.3427
▁स्ट्राइकर	-11.3427
▁वर्षौंदेखि	-11.3428
▁ट्रफी	-11.3428
▁आरक्ष	-11.343
▁वस्तुस्थिति	-11.343
▁कडाइ	-11.343
▁जनाउने	-11.3431
▁आसन	-11.3432
▁खेल्छन्	-11.3434
▁ढुंगाना	-11.3435
▁मेघ	-11.3437
वाइ	-11.3439
▁फर्महरू	-11.3444
▁मारिएको	-11.3444
▁युवाहरूको	-11.3445
▁ब्रोड	-11.3447
▁कुर्दिश	-11.3448
िकन	-11.345
▁तनहुँ	-11.345
AS	-11.345
▁आख्यान	-11.345
▁भक्ति	-11.3452
▁ज्योतिष	-11.3454
▁श्रीमान	-11.3455
▁जोश	-11.3458
स्तो	-11.3459
▁खरिदकर्ता	-11.346
▁बट	-11.346
साम	-11.346
▁बनाऊ	-11.346
▁इरिक	-11.3463
▁विश्वसनीयता	-11.3466
गुरु	-11.3468
▁क्याथोलिक	-11.3468
▁विक्रेता	-11.3468
▁महाकाव्य	-11.3468
▁गाँस	-11.3468
▁उकालो	-11.3468
▁टुक्र	-11.347
▁बुझाए	-11.347
खाने	-11.3471
▁फर्कनु	-11.3474
▁लिइन्छ	-11.3476
▁गराइने	-11.3477
अन्य	-11.3479
▁ओढ	-11.3479
ुपर्नेछ	-11.3482
▁आहाब	-11.3482
▁दीर्घ	-11.3488
वन्ध	-11.3489
चाइ	-11.349
ञ्जा	-11.3491
▁टेन्डर	-11.3491
▁खान्छ	-11.3494
▁बुन	-11.3494
▁यार्ड	-11.3497
▁भागेर	-11.3499
रेड	-11.3502
▁उहाँहरु	-11.3503
ङ्गे	-11.3504
बियन	-11.3506
▁प्रतिष्ठानले	-11.3507
▁गैरआवासीय	-11.3509
डाँडा	-11.3509
्ठ	-11.351
▁उम्र	-11.351
▁तस्वीरहरू	-11.3512
▁आइपुगेको	-11.3513
▁असुरक्षा	-11.3514
याली	-11.3514
७३	-11.3516
▁जुर	-11.352
▁कामदारलाई	-11.3523
▁वैज्ञानिकहरूले	-11.3523
जेल	-11.3524
▁छोड्छ	-11.3524
▁कुम	-11.3525
▁रेडक्रस	-11.3529
▁सप्तर्षि	-11.3529
▁विकल्पहरू	-11.353
▁कर्सर	-11.3531
▁चलखेल	-11.3533
▁फ्याँक्न	-11.3534
▁सुरक्षाफौज	-11.3534
▁भन्दछु	-11.3535
कालदेखि	-11.3541
अमेरिका	-11.3543
आफ्ना	-11.3543
▁उठेका	-11.3545
▁जनाउन	-11.3546
▁पिट्सबर्ग	-11.355
▁पेनाल्टी	-11.355
▁मन्तव्य	-11.355
▁रङदाो	-11.355
▁सुनुवाई	-11.355
▁पपअप	-11.3551
▁मूलधार	-11.3557
▁हर्ष	-11.3558
▁बाँधे	-11.3559
पोट	-11.3566
िरहेकी	-11.3569
▁बिरोध	-11.3571
▁अग्ला	-11.3573
▁शुक्ल	-11.3578
र्ती	-11.3579
▁देह	-11.3583
राष्ट्रपति	-11.3584
▁तत्सम्बन्ध	-11.3585
▁किभिन	-11.3591
▁हप्तापछि	-11.3592
▁ढाक्न	-11.3592
▁बोहरा	-11.3592
▁फिलिपिन्स	-11.3593
▁डिल्ली	-11.3594
▁चाहि	-11.3595
ग्रेस	-11.3595
होइन	-11.3595
▁जग्गावाला	-11.36
▁प्रालि	-11.3601
छाप	-11.3602
▁ल्यान्ड	-11.3603
▁पढ्दै	-11.3605
▁भागेका	-11.3607
▁उपप्राइम	-11.3612
▁घूस	-11.3612
▁अचेल	-11.3612
▁कोलकाता	-11.3612
▁हानिङ	-11.3614
▁रोशन	-11.3615
▁चौध	-11.3615
▁ग्रिड	-11.3617
▁कस्	-11.3618
▁हुनेछु	-11.3623
▁समूहहरू	-11.3625
▁बदला	-11.3628
्सेन	-11.363
▁सर्ने	-11.363
▁गर्दछौं	-11.3631
▁अपाङ्ध	-11.3632
▁लेखापरीक्षक	-11.3632
▁क्यासिनो	-11.3633
मोहन	-11.3633
केन्द्रित	-11.3635
▁फ्याँकिए	-11.3646
स्थापित	-11.3646
▁क्लिप	-11.3646
▁खस्क	-11.3648
▁ब्लास्ट	-11.3648
▁जनवादी	-11.365
▁एस्	-11.365
▁चारै	-11.365
▁सम्वाददाता	-11.3653
▁रेल्वे	-11.3654
▁डोल्पा	-11.3654
▁भिर	-11.3654
राजनीतिक	-11.3656
▁बंगाल	-11.3658
ंगल	-11.3658
▁लू	-11.366
▁संरक्षणवादी	-11.3661
िंदा	-11.3661
▁देशहरु	-11.3661
▁फोटोहरू	-11.3662
वो	-11.3664
▁प्रस्तावदाता	-11.3665
▁उठाउँदै	-11.367
▁मांसपेशी	-11.3674
RI	-11.3674
▁इमानदार	-11.3674
▁मृग	-11.3674
ाउँछौं	-11.3674
▁महिनाभन्दा	-11.3675
▁१९८९	-11.3676
▁गुरुत्व	-11.3677
▁आइसकेको	-11.3677
▁तिल	-11.3678
▁हुदा	-11.368
▁किस्ता	-11.3684
▁भर्खर	-11.3686
रानी	-11.3687
ैपर्ने	-11.3687
▁अधिराज्यका	-11.3689
▁e	-11.369
▁सकेनौं	-11.3692
▁जथाभावी	-11.3694
▁दार्शनिक	-11.3694
▁सबल	-11.3695
▁हाँक	-11.3696
▁तामाङले	-11.3698
▁पागल	-11.37
▁अफ्रिकामा	-11.3702
▁सञ्चालकहरू	-11.3702
▁टीम	-11.3703
्‍न	-11.3704
ँदैन	-11.3705
▁डाँक	-11.3708
▁सक्दिन	-11.371
▁तोड्ने	-11.3711
पारि	-11.3712
बुक	-11.3714
ma	-11.3715
▁अध्यागमन	-11.3715
▁दिवा	-11.3716
▁अधिकारीहरूसँग	-11.3717
▁टायल	-11.3719
क्वाडा	-11.372
▁देखिन्थ्यो	-11.372
▁मर्का	-11.3724
▁रिहाइ	-11.3728
साहित्य	-11.3731
▁हजारभन्दा	-11.3731
किशोर	-11.3731
▁चिली	-11.3733
▁भेडाहरू	-11.3734
▁श्रद्धा	-11.3736
▁डेनमार्क	-11.3736
▁भुइँ	-11.3737
▁कलेजो	-11.3738
▁किरात	-11.374
▁खुबै	-11.3742
▁कठ	-11.3743
▁बहाना	-11.3745
▁बढाउँदै	-11.3747
▁वृद्धिदर	-11.3747
▁सर्वसाधारणलाई	-11.3751
च्चा	-11.3752
प्रजातान्त्रिक	-11.3752
▁वस	-11.3753
▁लेख्छन्	-11.3755
ड्ज	-11.3756
▁ब्रोक	-11.3757
▁राष्ट्रसंघका	-11.3758
▁एकछिन	-11.3764
▁छाता	-11.3768
▁फ्लोर	-11.3769
▁जमात	-11.3769
▁क्लास	-11.377
▁आजै	-11.3773
▁दाताहरू	-11.3773
▁पिए	-11.3775
▁सुपरिवेक्षण	-11.3778
▁ब्याटिङ	-11.3778
▁लाग्थ्यो	-11.3779
▁दरखास्तवाला	-11.3781
▁चाहेका	-11.3782
▁विचारहरू	-11.3783
▁रामबहादुर	-11.3784
▁झिकिएको	-11.3784
▁उदास	-11.3786
पञ्च	-11.3787
ढे	-11.379
GA	-11.3793
▁ताने	-11.3793
▁अपार	-11.3793
ानुसार	-11.3794
▁थपिन्	-11.3794
त्यसैले	-11.3794
अन्तर्राष्टिँ्रय	-11.3799
▁वृक्षारोपण	-11.3799
▁अहमद	-11.38
▁सेवकहरू	-11.3803
फुट	-11.3805
टोन	-11.3805
▁धन्दा	-11.382
▁वैदिक	-11.382
▁क्षितिज	-11.382
▁व्यवहारिक	-11.3823
▁राजपत्र	-11.3826
▁ढाड	-11.3827
▁यश	-11.3828
▁रहेनछ	-11.3828
गर्न	-11.3832
▁घटनापछि	-11.3832
▁ग्राहकहरूले	-11.3833
▁विश्लेषकहरू	-11.3833
ol	-11.3837
आईपी	-11.3838
▁निवृत्त	-11.3839
▁इन्स्टिच्युट	-11.3841
▁निष्क्रिय	-11.3841
▁अजय	-11.3841
▁सोनी	-11.3843
म्बे	-11.3846
▁बात	-11.3848
▁राइस	-11.3849
ियानो	-11.3852
▁फर्केको	-11.3856
▁स्टो	-11.3857
▁जम्प	-11.3858
PA	-11.386
्थिन्	-11.386
चरण	-11.3862
▁आप्ः्नो	-11.3862
▁व्यर्थ	-11.3864
▁डाउ	-11.3865
▁पेशागत	-11.3868
▁हुनेछौं	-11.3868
▁सम्झन्छन्	-11.3869
▁छाड्ने	-11.387
थोक	-11.3872
▁स्वर्गीय	-11.3872
▁तरङ्ग	-11.3881
▁पेज	-11.3881
▁अनुरूप	-11.3883
▁हुम्ला	-11.3884
▁अदुवा	-11.3885
▁ब्यारेल	-11.3885
्याउ	-11.389
▁बोलाइएको	-11.3892
▁मानिसहरूसित	-11.3894
४३	-11.3897
प्पा	-11.39
ट्रि	-11.3901
▁पात्रहरू	-11.3903
▁यस्	-11.3903
ेक्सन	-11.3904
▁कैयौं	-11.3905
▁इल	-11.3905
▁साइबर	-11.3911
▁आनन्दित	-11.3916
प्रणाली	-11.3922
▁अवधिसम्म	-11.3922
▁सारेको	-11.3924
▁क्रिम	-11.3925
▁सवारीसाधन	-11.3926
▁करिव	-11.3926
LE	-11.3926
▁पुग्छन्	-11.3927
▁माधवकुमार	-11.3928
▁मिलान	-11.3929
ओएस	-11.393
क्रा	-11.393
▁गरिनुपर्छ	-11.393
तिमीहरूले	-11.3934
्याइ	-11.3938
▁डेभ	-11.394
पीएस	-11.394
ूड	-11.3941
▁उपभोक्ताहरू	-11.3942
चौथो	-11.3944
▁घोषणापत्र	-11.3944
▁काउन्टर	-11.3947
▁साथीहरूले	-11.3948
▁यूनियन	-11.3948
▁पूर्वनिश्चित	-11.3949
▁हमाल	-11.395
▁जीवनस्तर	-11.3951
▁मूर्त	-11.3952
▁खेलिरहेको	-11.3952
▁गौरी	-11.3953
पाद	-11.3961
▁सोच्दछ	-11.3962
▁वर्षयता	-11.3962
▁डेट्रोइट	-11.3969
▁सदैव	-11.3969
▁इन्टरफेस	-11.3969
▁रहोस्	-11.397
▁बृ	-11.397
▁चिल्लो	-11.3971
▁फोटोग्राफ	-11.3971
▁बोन	-11.3972
▁२०६४	-11.3973
होम	-11.3973
ुहोला	-11.3976
▁व्यवसायीहरु	-11.3978
▁देखी	-11.3978
▁यहां	-11.398
▁तुल्याउने	-11.3981
▁सादा	-11.3985
▁खसे	-11.3986
▁मिनेटपछि	-11.3988
▁खुवाउने	-11.3988
▁इज्जत	-11.399
▁रेमिट्यान्स	-11.399
▁पुग्दैन	-11.3991
▁पढाउने	-11.3992
ंग्	-11.3993
UR	-11.3994
▁लिब	-11.3995
▁राख्नुपर्ने	-11.3997
▁ओस्	-11.3998
▁कुञ्जीहरू	-11.4003
ुरो	-11.4005
▁झर्छ	-11.4006
एन्ड	-11.4011
▁पाठेघर	-11.4012
▁अस्वस्थ	-11.4012
▁परिक्रमा	-11.4012
▁च्यात	-11.4013
▁अलमल	-11.4013
▁दरवार	-11.4015
▁खेलिएको	-11.4016
न्जु	-11.4018
▁हर्ट	-11.4022
▁जानेछन्	-11.4023
▁प्रशान्त	-11.4024
ME	-11.4026
मिला	-11.4026
िगं	-11.4026
प्रत्येक	-11.403
▁चट	-11.403
▁बेचे	-11.4033
▁झूटा	-11.4033
▁पूर्वस्थिति	-11.404
▁गणेशमान	-11.4041
▁बुँदे	-11.4041
▁आधुनिकीकरण	-11.4041
▁उपलब्धता	-11.4042
▁पाट	-11.4042
▁कामदारहरू	-11.4043
▁आफुले	-11.4044
▁मन्दी	-11.4045
▁भर्याङ	-11.4048
▁डुबाउन	-11.4048
▁दैन	-11.405
बिट	-11.405
▁पार्नुभयो	-11.4056
दीप	-11.4058
विवाह	-11.4059
▁बुद्धिमान	-11.406
▁भनिए	-11.4061
▁नम्र	-11.4061
▁जिया	-11.4062
▁बुल	-11.4062
▁हैसियतमा	-11.4064
▁शिट	-11.4065
▁माओवादीहरु	-11.4065
ाऊँ	-11.4067
▁घुमाउन	-11.4069
to	-11.4069
मर्	-11.407
लेखन	-11.4073
▁ठान्ने	-11.4073
खेती	-11.4075
▁निम्त्याए	-11.4075
▁परिप्रेक्ष्यमा	-11.4075
▁बज्राचार्य	-11.4076
▁तैंले	-11.4077
▁यिनले	-11.4079
▁चलाएर	-11.4082
▁राज्यमन्त्री	-11.4084
नजिकै	-11.4084
रेन्स	-11.4086
▁अन्तराल	-11.4087
▁रोजर	-11.4088
क्रे	-11.409
फ्ल	-11.4094
▁पर्ूव	-11.4096
▁चुनौति	-11.4098
▁१९९३	-11.4098
▁विपक्षमा	-11.4098
▁जलाउने	-11.4099
▁नाङ्गो	-11.4102
्दथ्यो	-11.4103
▁विविधीकरण	-11.4103
▁ज्याकसन	-11.4104
एसडी	-11.4105
▁यथा	-11.4109
▁राख्यो	-11.411
ँडी	-11.4113
▁आशय	-11.4115
▁सुते	-11.4116
rd	-11.4119
▁निवृत्तभरण	-11.412
नियन	-11.412
▁केनेडी	-11.412
▁सार्वभौमसत्ता	-11.412
▁बजाउन	-11.412
▁भेटवार्ता	-11.4121
▁समयानुकूल	-11.4121
जिया	-11.4121
▁गाडे	-11.4122
▁प्लान्ट	-11.4124
▁महिनावारी	-11.4125
▁पाटो	-11.4126
BAR	-11.4127
▁पेन्टिङ	-11.413
▁अङ्ग्रेजीमा	-11.4133
▁चेन	-11.4137
▁उनकाअनुसार	-11.4138
िणी	-11.414
्थें	-11.414
▁डेन	-11.414
▁बनेपछि	-11.4141
▁तिर्नुपर्ने	-11.4141
▁बढेपछि	-11.4141
▁१९८८	-11.4141
▁यूरोप	-11.4141
▁महासागर	-11.4142
▁यत्ति	-11.4144
▁थिएनौं	-11.4145
▁अवतार	-11.4146
▁तिनीहरुलाई	-11.4146
▁बिचार	-11.4149
स्ति	-11.415
▁यात्रुहरू	-11.4152
▁आईएस	-11.4157
▁क्रा	-11.4158
▁बसिरहेको	-11.4158
▁हिमालयन	-11.4158
▁यिनीहरु	-11.4158
▁फ्रा	-11.416
▁आरोही	-11.4163
▁गजेन्द्र	-11.4164
बेन	-11.4164
▁च्याम्बर	-11.4164
▁दाउ	-11.4166
▁खन्याए	-11.4175
▁ट्रि	-11.418
तिम्रो	-11.4183
▁दुर्भाग्य	-11.4183
▁बाहुल्य	-11.4185
▁गोल्डकप	-11.4185
▁अठार	-11.4185
▁गुप्तचर	-11.4186
▁चित्रकार	-11.4187
▁माथ	-11.4187
▁गहन	-11.4188
▁जानी	-11.4189
▁थाल्ने	-11.419
▁मुखबाट	-11.4193
▁सुन्दरता	-11.4193
▁लगियो	-11.4193
▁दुरी	-11.4195
▁मृत्युपछि	-11.4196
▁टेक्न	-11.4197
▁नायब	-11.4198
५००	-11.42
्याइएको	-11.4204
▁मिनेटसम्म	-11.4205
▁पहिलेदेखि	-11.4208
▁ठाँउ	-11.4208
▁ऋणी	-11.4208
▁इञ्जिनियर	-11.421
▁पुनःनिर्माण	-11.421
▁अनिकाल	-11.4211
ल्हा	-11.4212
▁घाट	-11.4218
▁भन्छौ	-11.422
▁भवनहरू	-11.4223
बेद	-11.4224
▁स्याङ्जा	-11.4229
▁चराहरू	-11.4229
▁एक्सप्रेस	-11.4229
▁एपी	-11.4233
▁पेश्की	-11.4233
प्रेम	-11.4233
▁शेष	-11.4233
▁ओस्कार	-11.4234
▁अपनाएको	-11.4235
▁फस्ट	-11.4242
पिट	-11.4242
▁सिद्धि	-11.4244
▁सुरक्षाफौजले	-11.4245
▁सोच्दै	-11.4245
▁धर्मशास्त्र	-11.4246
▁सीपी	-11.4247
कार्यालय	-11.425
▁दशमलव	-11.4251
▁वार्षिकोत्सव	-11.4251
▁रुसी	-11.4252
लुङ	-11.4252
▁वस्ती	-11.4253
▁मध्यरात	-11.4254
फिस	-11.4258
▁ट्रस्ट	-11.426
१००	-11.4263
▁कमारा	-11.4265
▁विष्टले	-11.4266
▁एकसाथ	-11.4267
▁विज्ञहरू	-11.4268
परमेश्वर	-11.4271
बोट	-11.4271
ट्रिक	-11.4271
सुन्दर	-11.4272
▁चढाउनु	-11.4273
▁संस्थानहरु	-11.4275
सीएस	-11.428
न्स्टाइन	-11.4282
▁फ्ले	-11.4283
▁खोल्दा	-11.4284
क्रिया	-11.4288
lo	-11.4289
▁गर्नुपर्यो	-11.429
पुत्र	-11.429
▁सबैजसो	-11.4292
▁बर्ग	-11.4293
▁भरिएका	-11.4293
▁आङ्खनो	-11.4295
▁तेक्वान्दो	-11.4295
▁भुमिका	-11.4295
▁च्याम्पियनसिप	-11.4296
▁सातौँ	-11.4298
▁भाग्ने	-11.4299
▁हामास	-11.4301
▁खाम	-11.4301
▁गीता	-11.4302
▁साठी	-11.4302
भिजन	-11.4302
▁लोगो	-11.4302
SU	-11.4304
▁स्वभाविक	-11.4307
▁बृद्ध	-11.4307
▁शीत	-11.4312
▁निर्मला	-11.4314
DE	-11.4314
▁फ्ला	-11.4316
▁पाठ्यपुस्तक	-11.4317
▁बर्खास्त	-11.4317
▁हुनुपर्नेछ	-11.4317
▁शरद	-11.432
▁ट्वीटर	-11.432
▁पूज	-11.4329
▁रङ्गशालामा	-11.4331
▁टोप	-11.4338
▁शनिवार	-11.4339
▁स्काउट	-11.4339
▁संभाव्य	-11.4339
▁पढाउन	-11.4344
▁सान्टा	-11.4345
प्रद	-11.4347
▁अनुक्रम	-11.4347
▁सिर्जनात्मक	-11.4357
▁प्रतिध्वनि	-11.4361
▁सुत्केरी	-11.4361
▁बाँदर	-11.4361
▁स्तुति	-11.4361
▁अखण्डता	-11.4361
▁योद्धा	-11.4362
▁हू	-11.4363
▁नाफामूलक	-11.4364
▁साहु	-11.4366
NA	-11.4366
▁नलागे	-11.4373
▁येन	-11.4374
▁झरेर	-11.4377
▁अप्रिय	-11.438
▁उत्तेजित	-11.4384
▁उच्चारण	-11.4384
▁गिलाद	-11.4384
ुम्	-11.4385
▁ब्याजदर	-11.4385
▁ब्रुन	-11.4386
▁असिना	-11.4386
▁चढाउन	-11.4386
▁सिकाउने	-11.4388
▁झ्ु	-11.4389
▁बनाइरहेका	-11.4391
▁खटिएका	-11.4391
रिएर	-11.4394
▁ग्रो	-11.4395
सिड	-11.4396
▁विषयहरु	-11.4396
tr	-11.4402
▁बंग	-11.4404
ोत्तर	-11.4405
▁सर्वदलीय	-11.4406
▁फायरफाइटर	-11.4406
▁चकलेट	-11.4407
्दथे	-11.4407
▁पश्चिमा	-11.4408
gt	-11.4408
▁ललित	-11.4409
▁मेट्नुहोस्	-11.4412
▁हैसियतले	-11.4418
▁ताक	-11.4418
ID	-11.4419
▁भेगमा	-11.4424
इस्राएल	-11.4427
▁आचारसंहिता	-11.4428
▁बप्तिस्मा	-11.4428
▁किराँत	-11.4428
फ्रन्ट	-11.4429
▁पूर्णता	-11.4429
सबर्ग	-11.4443
▁नाइट	-11.4449
ठूलो	-11.445
▁दोहोरी	-11.445
▁भेरी	-11.4451
▁अभिनन्दन	-11.4451
▁षड्यन्त्र	-11.4451
▁सञ्चय	-11.4451
०४	-11.4451
ाएँ	-11.4452
▁क्रोनिक	-11.4453
▁अफसेट	-11.4454
▁डीएनए	-11.4454
▁आफुलाई	-11.4455
रिता	-11.4456
▁जिम्म	-11.4459
▁पुग्नेछ	-11.4459
ण्डो	-11.4461
▁मोन्ट	-11.4464
▁ट्विटर	-11.4465
▁भुल	-11.4466
▁ब्रेक	-11.4468
ाङ्कन	-11.4469
▁ब्रु	-11.447
स्वास्थ्य	-11.4471
समर्थित	-11.4471
▁थ्रेड	-11.4473
▁विखण्डन	-11.4473
▁हाम्रै	-11.4473
▁बोलेका	-11.4476
मोड	-11.4478
▁होल्डर	-11.4479
IC	-11.448
▁संज्ञा	-11.448
▁बहाली	-11.448
▁बलिया	-11.4481
▁मुख्यतः	-11.4487
▁पछ्य	-11.4488
▁९००	-11.4488
▁हल्लाए	-11.449
▁०४	-11.4492
▁पाइरहेका	-11.4492
ri	-11.4492
▁टुट	-11.4495
▁मुसलमान	-11.4496
▁सार्कोजी	-11.4496
▁क्लिपबोर्ड	-11.4496
▁वायुमण्डल	-11.4496
ियोस्	-11.4498
▁मनमोहन	-11.45
▁क्याच	-11.4502
▁महारा	-11.4504
▁सन्दीप	-11.4506
▁हिर्काउन	-11.4506
▁पोष्टर	-11.4509
न्जी	-11.451
▁ओगट्ने	-11.451
▁सीआईए	-11.4512
▁बेल्ट	-11.4517
▁मौज्दात	-11.4518
▁अपलोड	-11.4518
▁प्रसन्न	-11.4518
▁थकित	-11.4518
▁सम्राट	-11.4519
▁स्नातकोत्तर	-11.4519
▁सर्वसम्मत	-11.452
▁मुलुकहरु	-11.4528
▁दर्श	-11.4532
▁आफैलाई	-11.454
्याउँछ	-11.4541
▁अत्याचार	-11.4541
▁मौसुफ	-11.4541
▁नहोला	-11.4541
टीसी	-11.4545
▁अनुकूलन	-11.4548
ादि	-11.455
BA	-11.455
▁पेरु	-11.4552
▁गाउँघर	-11.4553
▁मेमो	-11.4557
▁वर्षभरि	-11.4559
▁विश्वकै	-11.4559
▁नलिए	-11.4561
▁बाँड्न	-11.4561
▁आगन्तुक	-11.4562
▁पेल	-11.4562
▁न्युह्याम्सायर	-11.4564
▁ल्यापटप	-11.4564
▁श्रद्धाञ्जली	-11.4564
▁मातृभाषा	-11.4564
▁जनमोर्चा	-11.4564
▁अभिन्न	-11.4565
▁मेट्रो	-11.4565
▁विकट	-11.4568
▁ल्याउनेछ	-11.4568
▁गरौँ	-11.4572
▁बचे	-11.4578
सूग	-11.4579
▁पज	-11.458
▁ज्ञापन	-11.4583
यन्त्र	-11.4583
▁भाई	-11.4585
▁कीर्तिमान	-11.4586
▁खानतलासी	-11.4586
▁महाअभियोग	-11.4586
▁रिसोर्ट	-11.4586
▁लेखाजोखा	-11.4586
स्वरूप	-11.4587
▁भावुक	-11.4588
▁क्यु	-11.4589
▁जागरण	-11.4591
▁मिनी	-11.4591
ज्ञण्	-11.4597
हाइ	-11.4598
▁इन्ड	-11.4603
स्थापना	-11.4607
▁उत्प्रेरणा	-11.4609
▁हिम्मत	-11.4609
▁शुरुवात	-11.4609
िदेऊ	-11.461
▁हाउस्टोन	-11.461
▁डलास	-11.4612
▁बालकृष्ण	-11.4612
▁कागजातहरू	-11.4613
▁आश्रम	-11.4617
EL	-11.4617
▁सोध्दा	-11.462
▁सातजना	-11.4621
बाहक	-11.4624
▁बन्धक	-11.4626
अनि	-11.4626
▁कुकुरहरू	-11.4628
▁थाइ	-11.463
▁ध्वंस	-11.4632
▁भोल्युम	-11.4632
▁रद्दीटोकरी	-11.4632
▁बेलुकी	-11.4632
▁डकुमेन्ट्री	-11.4632
कालागी	-11.4634
बक्स	-11.4635
▁होमर	-11.4638
▁हुनुभएको	-11.4639
▁पिटेर	-11.4643
IA	-11.4646
▁मार्नु	-11.4649
▁गडबडी	-11.4655
▁थाई	-11.4663
▁म्याग	-11.4664
तिनीहरूले	-11.4664
▁सँगसँगै	-11.4666
▁थे	-11.4667
विज्ञ	-11.4667
▁विशेषगरी	-11.4668
▁असमान	-11.4669
▁ची	-11.467
लाइट	-11.467
थरि	-11.4671
▁प्रयोजन	-11.4671
▁पट्टी	-11.4671
दर्शी	-11.4672
▁साइनिङ	-11.4676
▁द्वितीय	-11.4677
▁नेप्से	-11.4678
▁ज्ञात	-11.4678
▁..........	-11.4678
▁प्ल	-11.4679
▁बन्धन	-11.4679
सिर	-11.4679
▁ह्यान्ड	-11.4684
▁गह	-11.4691
परा	-11.4692
▁युनिट	-11.4697
िरहँदा	-11.4698
▁शिख	-11.4699
▁ह्युरियन	-11.4701
▁प्रोक्सी	-11.4702
▁चेस	-11.4702
▁नर्सिङ	-11.4703
▁विश्वसनीय	-11.4703
न्ति	-11.4704
डोल	-11.4708
▁पठाउँदै	-11.4708
▁अनुभवी	-11.4709
▁पुर्खा	-11.471
▁कार्यनीति	-11.471
▁चार्टर	-11.4713
▁च्याउ	-11.4713
▁बड	-11.4716
िसके	-11.4719
▁छापिएको	-11.472
▁नैतिकता	-11.4722
▁पंच	-11.4723
▁पैंतीस	-11.4724
▁बैशाख	-11.4724
▁पूर्वाग्रह	-11.4724
▁वर्षहरुमा	-11.4725
▁सेड	-11.4725
वाणी	-11.4728
▁जीत	-11.4732
तोकिएको	-11.4732
▁रेग्मीले	-11.4732
▁निकाल्नु	-11.4733
▁लुकेका	-11.4733
▁बालबालिकाहरु	-11.4735
▁चलाउनुहोस्	-11.4735
▁लीला	-11.4738
▁नआउ	-11.4739
▁लाने	-11.474
▁सुखद	-11.4749
▁सुगन्धित	-11.475
▁फिज	-11.4751
▁मोहर	-11.4752
न्ते	-11.4752
भुत	-11.4755
भाषा	-11.4761
वार्ड	-11.4767
▁श्रीलङ्का	-11.477
▁स्नायु	-11.477
▁परियार	-11.477
▁उखान	-11.4777
रिट	-11.478
▁डम्प	-11.4783
ेन्जर	-11.4786
▁बन्नेछ	-11.4786
▁तत्कालिन	-11.4792
▁पिछडिएका	-11.4793
▁अक्सिजन	-11.4793
▁अन्तसम्ममा	-11.4794
▁गोरू	-11.4794
वितरण	-11.4795
स्टाइन	-11.4795
सीआई	-11.4796
▁h	-11.4797
▁सहिद	-11.4798
▁मनस्थिति	-11.4798
▁स्टार्ट	-11.48
EA	-11.48
▁सरोज	-11.4803
▁तानेर	-11.4805
▁डन	-11.4805
सिम	-11.4807
▁खुलेर	-11.4811
▁मौनता	-11.4815
▁पुननामकरण	-11.4816
▁डलरसम्म	-11.4817
▁आवश्यकताअनुसार	-11.4817
पुरुष	-11.4818
ग्रो	-11.4819
▁ओझा	-11.4823
▁बढायो	-11.4824
▁गोबर	-11.4826
निर्देशक	-11.4827
▁तिमीहरूसित	-11.4829
▁निकोल	-11.4832
▁नगर्दा	-11.4832
▁खन्याउन	-11.4833
▁सर्ब	-11.4835
ग्लो	-11.4836
▁समसामयिक	-11.484
मन्त्रालय	-11.4841
▁आउँदो	-11.4841
▁पीठो	-11.4843
सत्ता	-11.4843
▁किरा	-11.4844
▁डोन	-11.4847
त्यसपछि	-11.4861
▁कृषकहरु	-11.4862
▁शैतान	-11.4863
्लु	-11.4864
▁रहस्यमय	-11.4864
▁बनाइदिन	-11.4866
▁पशुपतिनाथ	-11.4866
▁त्याग्न	-11.4867
९८	-11.4869
▁०६	-11.4869
▁नपार	-11.4873
▁लिज	-11.4873
▁तँलाई	-11.4878
ra	-11.4882
ac	-11.4882
▁सरेका	-11.4883
पत्य	-11.4884
साइट	-11.4884
▁पुनरुत्थान	-11.4887
▁चिठी	-11.489
▁हावी	-11.4891
▁गीतकार	-11.4892
▁लाग्दछ	-11.4895
फर्म	-11.49
जोर	-11.49
▁ओसार	-11.4904
▁इन्फ	-11.4907
▁मोटो	-11.4907
▁पुनउत्थान	-11.491
▁सतर्कता	-11.4913
▁सिङ्गो	-11.4917
!”	-11.4921
▁तिरेर	-11.4924
▁थियौँ	-11.4925
▁ल्याइने	-11.4927
पुन	-11.4929
▁शोध	-11.4929
▁सबैतिर	-11.4931
LO	-11.4931
▁वाञ्छनीय	-11.4934
▁लमजुङ	-11.4934
▁स्पि	-11.4934
▁योआश	-11.4934
▁श्रेय	-11.4934
▁जानुभयो	-11.4936
▁त्यसअघि	-11.4938
नैतिक	-11.4938
▁सिंग	-11.4941
▁सुनें	-11.4944
▁बेहोर्न	-11.4949
▁घरभित्र	-11.4951
▁निधि	-11.4951
▁टोन	-11.4952
आईसी	-11.4955
▁उजागर	-11.4957
प्रिय	-11.4959
▁बृद्धिदर	-11.4961
व्र	-11.4963
▁खोर	-11.4963
▁क्लव	-11.4964
▁कोटि	-11.4966
▁वृक्ष	-11.4966
विधान	-11.4967
बाह	-11.497
▁सिक्	-11.4972
▁सहि	-11.4972
गामी	-11.4974
ठे	-11.4978
▁तिमीहरुलाई	-11.4979
▁सदभावना	-11.4981
पन्थी	-11.4981
▁छापाखाना	-11.4981
लक्ष्मी	-11.4984
▁ह्यारी	-11.4984
▁स्याहार	-11.4984
▁सै	-11.4989
OL	-11.5002
▁गुमाउनु	-11.5002
▁संचालित	-11.5005
▁कान्छा	-11.5005
▁एदोम	-11.5005
▁बसी	-11.5005
▁निरौला	-11.5005
▁वाग्ले	-11.5007
एनजीओ	-11.5007
▁मीन	-11.5007
▁सोधें	-11.5007
▁नसकिएको	-11.5007
▁घेरिएको	-11.5008
▁सिंगो	-11.5012
▁पाउनुपर्ने	-11.5014
▁भनिएका	-11.5015
▁पाउँदैनन्	-11.5018
▁लेविस	-11.5019
▁पट्टा	-11.5019
▁हाइड्रो	-11.502
▁फ्लो	-11.5022
पुगे	-11.5022
▁ढाक्ने	-11.5026
ंडा	-11.5027
▁प्रधानाध्यापक	-11.5028
▁आतंककारी	-11.5031
▁क्याम	-11.5032
▁गौ	-11.5033
▁एकपल्ट	-11.5033
▁ताज	-11.5034
▁अब्दुल	-11.5036
▁सेमिफाइनलमा	-11.5037
भ्या	-11.5038
▁चाहियो	-11.5044
▁मुखिया	-11.5045
जहाँ	-11.5047
▁गरेजस्तै	-11.5048
▁मेलम्ची	-11.5052
▁तन्तु	-11.5052
▁चेष्टा	-11.5052
▁विलासी	-11.5052
▁कार्यशैली	-11.5057
▁विवश	-11.5061
▁घना	-11.5063
▁डग	-11.5068
्ढ	-11.5069
▁यहोशूले	-11.5071
▁ब्यवस्था	-11.5076
▁हस्तकला	-11.5076
▁भूस्केप	-11.5077
त्सु	-11.5077
▁नर्वे	-11.5077
▁धर्ती	-11.5078
▁बताउँछिन्	-11.5078
▁आरक्षण	-11.5081
▁थप्दछ	-11.5081
▁भइसकेपछि	-11.5084
▁हास्य	-11.5085
भने	-11.5086
सियर	-11.5088
▁बोके	-11.5091
▁समकक्षी	-11.5091
शान्ति	-11.5092
▁कमै	-11.5098
▁सिन्डिकेट	-11.51
▁हार्दिक	-11.51
▁हुकुम	-11.51
न्छु	-11.5106
सक्यो	-11.5113
ेरियन	-11.5119
▁भत्किए	-11.5122
वन्दी	-11.5123
▁ठाँउमा	-11.5123
▁घनत्व	-11.5124
▁आश्रित	-11.5124
▁ख्याति	-11.5124
िनेछन्	-11.5124
▁परिमिति	-11.5124
▁आउटलेट	-11.5125
▁श्राप	-11.5125
▁यत्रो	-11.5126
▁मारिने	-11.5126
जात	-11.5128
▁फ्रान्सिज	-11.513
▁पठाउनुहोस्	-11.5132
विज्ञान	-11.5137
▁पक्षहरु	-11.5138
▁याएको	-11.5141
▁संरक्षित	-11.5148
▁लडाकु	-11.5148
▁बेरुजु	-11.5149
▁दुनियाँ	-11.5149
▁त्यहि	-11.515
▁हनुमान	-11.515
▁पासा	-11.5156
८७	-11.5156
जाऊ	-11.516
▁चैत्र	-11.5161
सिद्ध	-11.5162
ाचार्य	-11.5164
▁फ्ल्या	-11.5165
्किन	-11.5166
▁बेकर	-11.5167
▁इलिनोइस	-11.5172
▁ईर्ष्या	-11.5172
▁निस्क्रिय	-11.5172
▁पेन्सिल्भानिया	-11.5172
▁यूआरएल	-11.5172
▁साबुन	-11.5172
▁सङ्गठित	-11.5172
खर्क	-11.5173
▁सिलबन्दी	-11.5173
▁जगत्	-11.5173
सञ्चार	-11.5176
▁चाख	-11.5182
▁पोलि	-11.5184
▁गर्दछिन्	-11.5191
▁मुन्	-11.5194
▁अत्याधुनिक	-11.5196
▁इरेल्यान्ड	-11.5196
▁अपरिचित	-11.5196
▁अठोट	-11.5196
▁हाड	-11.5197
▁भुवन	-11.5199
जयन्ती	-11.5201
▁जलाशय	-11.5203
▁आकृति	-11.5205
▁अनेकौं	-11.5209
▁पढेका	-11.5209
▁पोलिस	-11.5211
▁बहानामा	-11.5213
ing	-11.5213
▁इतिहासकार	-11.5217
हात	-11.5219
डिए	-11.5219
▁प्रशंसक	-11.5219
▁अल्छी	-11.522
▁धरहरा	-11.5221
टिया	-11.5222
▁भत्काए	-11.5222
▁सान्	-11.5223
me	-11.5224
▁चढ्न	-11.5227
▁लैजानु	-11.5227
▁ढिला	-11.5228
▁हुँदो	-11.5229
▁रोयल	-11.5229
धू	-11.5231
जिव	-11.5233
▁जन्मिएका	-11.5237
▁लेखनाथ	-11.5237
्स्की	-11.524
फ्रि	-11.5242
▁नाला	-11.5242
▁विषयहरूमा	-11.5244
▁ठ्याक्कै	-11.5245
▁निर्ण्र्ाा	-11.5245
▁यहोशापात	-11.5245
▁विषादी	-11.5245
▁ब्रेक्सट	-11.5245
▁दर्शकहरू	-11.5245
▁स्पेनिस	-11.5248
▁सकेट	-11.5253
▁डायरी	-11.5253
▁साधना	-11.5257
▁पवन	-11.5259
▁आठजना	-11.5261
▁बच्चाहरू	-11.5266
▁सिकार	-11.5267
▁संस्थाहरूलाई	-11.5268
ुआन	-11.5269
▁अन्तर्रर्ााट्रय	-11.5269
▁लम्साल	-11.5269
▁खरायो	-11.5269
उच्च	-11.5271
▁एकतर्फी	-11.5271
▁शङ्कर	-11.5271
▁सेनाहरूका	-11.5274
उपयोग	-11.5275
▁नेताहरूसँग	-11.5276
बाकस	-11.5277
▁यिनी	-11.5279
▁सम्पादकीय	-11.528
▁कुश	-11.528
▁मार्केट	-11.5281
▁सामानहरु	-11.5281
▁नबोल	-11.5283
HA	-11.5283
▁इन्कार	-11.5289
▁उठ्यो	-11.529
▁ग्लास्गो	-11.5293
▁जवाफदेही	-11.5293
▁फ्रेमवर्क	-11.5294
▁कमाण्डर	-11.5294
▁वाइल्ड	-11.5295
▁ग्रीक	-11.5295
▁कस्मिक	-11.5296
▁साथसाथै	-11.5297
▁कण	-11.5301
▁करोडभन्दा	-11.5303
▁अध्ययनरत	-11.5307
as	-11.5307
▁चलेका	-11.5311
▁स्वायत्तता	-11.5314
रिरिरिरिरिरिरिरि	-11.5318
▁फूटबल	-11.5318
▁रायमाझी	-11.5318
▁नितान्त	-11.5318
नास्दाक	-11.5318
पर्दा	-11.5319
विहिन	-11.5321
्जे	-11.5321
▁सम्झनुपर्छ	-11.5322
▁३५०	-11.5325
▁२०२१	-11.5326
▁खेल्दा	-11.5328
▁बाँधिएको	-11.5331
▁उड्न	-11.5336
▁कीर्तिपुर	-11.5342
▁हाराहारीमा	-11.5342
▁एकजुट	-11.5342
▁पग्ल	-11.5344
▁गस्ती	-11.5346
▁घण्टापछि	-11.5347
▁पीसी	-11.535
ादेश	-11.535
▁स्ट्रेट	-11.5353
शिल्प	-11.5355
िन्थे	-11.5356
▁बिक्रम	-11.5356
सानो	-11.5358
▁भेटियो	-11.536
▁पछ	-11.536
▁सांसदहरू	-11.536
▁उफ्र	-11.5361
▁हराएका	-11.5367
▁अलेक्जेन्डर	-11.5367
▁रातारात	-11.5367
्चु	-11.5367
▁सञ्जय	-11.5367
▁अब्बास	-11.5367
▁तुल्यायो	-11.5369
▁निष्ठा	-11.5369
▁बाग्लुङ	-11.5369
▁टेनिस	-11.5369
ख्ख	-11.5371
लाय	-11.5371
▁२०५७	-11.5372
▁भेटेर	-11.5374
हाद	-11.5382
▁शिक्षकहरु	-11.5383
▁पाएकी	-11.539
▁सफाई	-11.539
▁सक्ला	-11.5391
▁एजेण्ट	-11.5391
परिवार	-11.5392
▁बुद्धिमानी	-11.5392
▁पटक्कै	-11.5392
▁भूकम्पपीडित	-11.5393
▁संक्रमणकालीन	-11.5393
सरकारी	-11.5395
▁सोध्नुहोस्	-11.5397
▁उपनाम	-11.54
▁साहसिक	-11.5401
ाइदिन	-11.5408
▁गुहार	-11.541
▁अश्लील	-11.541
▁बिग्रिए	-11.5413
mp	-11.5413
TA	-11.5414
▁कथाकार	-11.5416
▁सकिंदैन	-11.5416
▁ससुरा	-11.5416
तृतीय	-11.5417
▁जंग	-11.5419
▁हाँस्न	-11.5421
सामाजिक	-11.5422
▁कोष्ट	-11.5427
एनसी	-11.543
▁दिदै	-11.543
▁लगाउँछन्	-11.543
▁मेजर	-11.543
▁गर्द	-11.5434
▁सँ	-11.5435
▁१३०	-11.5441
▁आवागमन	-11.5441
▁एडिनबर्ग	-11.5441
▁मासाचुसेट	-11.5441
▁हिच्किच	-11.5441
म्बल	-11.5441
धनी	-11.5441
▁एयरपोर्ट	-11.5442
▁शू	-11.5442
पश्चात	-11.5443
्टी	-11.5445
▁लगाइएका	-11.5449
लिटी	-11.5454
▁पकाउन	-11.5459
▁तोकिदिए	-11.5459
▁बाँधेर	-11.5465
▁निर्माणाधीन	-11.5466
▁प्रायोजक	-11.5466
▁राजदरबार	-11.5466
▁थपघट	-11.5466
▁टोरे	-11.5467
▁गरून्	-11.547
यद्यपि	-11.5472
एड्स	-11.5474
▁अधिकारीकाअनुसार	-11.5479
फेल	-11.5481
संख्या	-11.5482
यस्तो	-11.5483
प्पी	-11.5487
बाहु	-11.5489
▁नभइ	-11.5491
▁मिल्न	-11.5491
▁नआउने	-11.5494
▁जन्मदिन	-11.5494
▁खुल्न	-11.5494
▁क्याब	-11.5495
▁इलेक्ट्रोनिक्स	-11.5496
भेल	-11.5496
▁फैलाउने	-11.5498
▁भिक्षु	-11.5499
▁भोग्न	-11.5501
्र्या	-11.5503
हाङ	-11.5503
▁अभिव्यक्त	-11.5505
▁नरोक	-11.5506
▁थन्क	-11.5506
७९	-11.5508
▁यहि	-11.5511
्रिन	-11.5514
▁आउटलुक	-11.5516
▁आषाढ	-11.5516
▁भेट्टाए	-11.5516
▁पारिएका	-11.5516
ेरिया	-11.5517
▁बग्ने	-11.5517
▁गितार	-11.5517
▁एडी	-11.5519
▁भाइहरू	-11.552
▁देख्छ	-11.5521
भावना	-11.5521
कण्ठ	-11.5525
▁युरोपियन	-11.5527
▁कट्टा	-11.553
▁पिन	-11.5534
८९	-11.5535
SA	-11.5536
▁कृतज्ञ	-11.5541
▁धर्ना	-11.5541
▁पीडादायी	-11.5542
▁अनशन	-11.5543
▁दह	-11.5543
▁पेपर	-11.5544
▁मट्टे	-11.5545
▁आक्रोशित	-11.5548
पदार्थ	-11.5549
▁स्क्र	-11.5549
▁हँस	-11.5553
▁क्षेत्रगत	-11.5556
▁बागदद	-11.5556
▁सोह्र	-11.5557
▁गाला	-11.5557
▁एनआरएनए	-11.5558
▁आउनेछन्	-11.5564
▁पाखुरा	-11.5566
▁म्याड्रिड	-11.5566
▁सुन्नी	-11.5568
▁संयम	-11.5568
▁अन्त्यसम्ममा	-11.5569
AT	-11.557
▁सरदर	-11.5571
्किए	-11.5577
▁टाउन	-11.558
▁रोहित	-11.558
▁बिश्व	-11.5582
▁सहरी	-11.5583
▁कारहरू	-11.5585
[...]
